{
  "version": "1.0",
  "truncation": null,
  "padding": null,
  "added_tokens": [
    {
      "id": 0,
      "content": "[PAD]",
      "single_word": false,
      "lstrip": false,
      "rstrip": false,
      "normalized": false,
      "special": true
    },
    {
      "id": 1,
      "content": "[SEP]",
      "single_word": false,
      "lstrip": false,
      "rstrip": false,
      "normalized": false,
      "special": true
    },
    {
      "id": 2,
      "content": "[UNK]",
      "single_word": false,
      "lstrip": false,
      "rstrip": false,
      "normalized": false,
      "special": true
    }
  ],
  "normalizer": null,
  "pre_tokenizer": {
    "type": "ByteLevel",
    "add_prefix_space": false,
    "trim_offsets": true,
    "use_regex": true
  },
  "post_processor": null,
  "decoder": {
    "type": "ByteLevel",
    "add_prefix_space": true,
    "trim_offsets": true,
    "use_regex": true
  },
  "model": {
    "type": "BPE",
    "dropout": null,
    "unk_token": "[UNK]",
    "continuing_subword_prefix": null,
    "end_of_word_suffix": null,
    "fuse_unk": false,
    "byte_fallback": false,
    "ignore_merges": false,
    "vocab": {
      "[PAD]": 0,
      "[SEP]": 1,
      "[UNK]": 2,
      "!": 3,
      "\"": 4,
      "#": 5,
      "$": 6,
      "%": 7,
      "&": 8,
      "'": 9,
      "(": 10,
      ")": 11,
      "+": 12,
      ",": 13,
      "-": 14,
      ".": 15,
      "/": 16,
      "0": 17,
      "1": 18,
      "2": 19,
      "3": 20,
      "4": 21,
      "5": 22,
      "6": 23,
      "7": 24,
      "8": 25,
      "9": 26,
      ":": 27,
      ";": 28,
      "<": 29,
      "=": 30,
      ">": 31,
      "?": 32,
      "@": 33,
      "A": 34,
      "B": 35,
      "C": 36,
      "D": 37,
      "E": 38,
      "F": 39,
      "G": 40,
      "H": 41,
      "I": 42,
      "J": 43,
      "K": 44,
      "L": 45,
      "M": 46,
      "N": 47,
      "O": 48,
      "P": 49,
      "Q": 50,
      "R": 51,
      "S": 52,
      "T": 53,
      "U": 54,
      "V": 55,
      "W": 56,
      "X": 57,
      "Y": 58,
      "Z": 59,
      "[": 60,
      "\\": 61,
      "]": 62,
      "^": 63,
      "_": 64,
      "a": 65,
      "b": 66,
      "c": 67,
      "d": 68,
      "e": 69,
      "f": 70,
      "g": 71,
      "h": 72,
      "i": 73,
      "j": 74,
      "k": 75,
      "l": 76,
      "m": 77,
      "n": 78,
      "o": 79,
      "p": 80,
      "q": 81,
      "r": 82,
      "s": 83,
      "t": 84,
      "u": 85,
      "v": 86,
      "w": 87,
      "x": 88,
      "y": 89,
      "z": 90,
      "{": 91,
      "|": 92,
      "}": 93,
      "~": 94,
      "¡": 95,
      "¢": 96,
      "£": 97,
      "¤": 98,
      "¥": 99,
      "¦": 100,
      "§": 101,
      "¨": 102,
      "©": 103,
      "ª": 104,
      "«": 105,
      "¬": 106,
      "®": 107,
      "¯": 108,
      "°": 109,
      "±": 110,
      "²": 111,
      "³": 112,
      "´": 113,
      "µ": 114,
      "¶": 115,
      "·": 116,
      "¸": 117,
      "¹": 118,
      "º": 119,
      "»": 120,
      "¼": 121,
      "½": 122,
      "¾": 123,
      "¿": 124,
      "Â": 125,
      "Ã": 126,
      "Î": 127,
      "â": 128,
      "ã": 129,
      "ä": 130,
      "å": 131,
      "æ": 132,
      "ç": 133,
      "è": 134,
      "é": 135,
      "ì": 136,
      "í": 137,
      "ï": 138,
      "Ġ": 139,
      "Ģ": 140,
      "ģ": 141,
      "Ĥ": 142,
      "ĥ": 143,
      "Ħ": 144,
      "ħ": 145,
      "Ĩ": 146,
      "ĩ": 147,
      "Ī": 148,
      "ī": 149,
      "Ĭ": 150,
      "ĭ": 151,
      "Į": 152,
      "į": 153,
      "İ": 154,
      "ı": 155,
      "Ĳ": 156,
      "ĳ": 157,
      "Ĵ": 158,
      "ĵ": 159,
      "Ķ": 160,
      "ķ": 161,
      "ĸ": 162,
      "Ĺ": 163,
      "ĺ": 164,
      "Ļ": 165,
      "ļ": 166,
      "Ľ": 167,
      "ľ": 168,
      "Ŀ": 169,
      "ŀ": 170,
      "Ł": 171,
      "ł": 172,
      "Ń": 173,
      "in": 174,
      "Ġs": 175,
      "an": 176,
      "le": 177,
      "on": 178,
      "ar": 179,
      "hi": 180,
      "Ġb": 181,
      "er": 182,
      "es": 183,
      "at": 184,
      "or": 185,
      "ai": 186,
      "ing": 187,
      "en": 188,
      "ou": 189,
      "Ġm": 190,
      "as": 191,
      "Ġc": 192,
      "ed": 193,
      "Ġt": 194,
      "Ġp": 195,
      "re": 196,
      "lo": 197,
      "ac": 198,
      "Ġf": 199,
      "Ġh": 200,
      "al": 201,
      "ol": 202,
      "Ġd": 203,
      "is": 204,
      "ak": 205,
      "Ġg": 206,
      "un": 207,
      "Ġn": 208,
      "ts": 209,
      "_(": 210,
      "air": 211,
      "ig": 212,
      "shi": 213,
      "om": 214,
      "em": 215,
      "ti": 216,
      "ir": 217,
      "ur": 218,
      "im": 219,
      "ale": 220,
      "th": 221,
      "ho": 222,
      "ad": 223,
      "Ġk": 224,
      "am": 225,
      "ro": 226,
      "el": 227,
      "et": 228,
      "ack": 229,
      "it": 230,
      "ap": 231,
      "Ġbl": 232,
      "ole": 233,
      "us": 234,
      "Ġâ": 235,
      "ĠâĻ": 236,
      "hair": 237,
      "um": 238,
      "Ġw": 239,
      "ic": 240,
      "Ġr": 241,
      "ag": 242,
      "reas": 243,
      "and": 244,
      "Ġl": 245,
      "ĠâĻĢ": 246,
      "bo": 247,
      "il": 248,
      "ck": 249,
      "Ġsole": 250,
      "id": 251,
      "ion": 252,
      "ear": 253,
      "ter": 254,
      "to": 255,
      "ul": 256,
      "se": 257,
      "ve": 258,
      "gh": 259,
      "ey": 260,
      "reasts": 261,
      "Ġdou": 262,
      "irl": 263,
      "ated": 264,
      "ok": 265,
      "emale": 266,
      "ik": 267,
      "jin": 268,
      "ch": 269,
      "ail": 270,
      "ation": 271,
      "jinshi": 272,
      "low": 273,
      "te": 274,
      "ob": 275,
      "Ġan": 276,
      "high": 277,
      "Ġdoujinshi": 278,
      "tr": 279,
      "uk": 280,
      "Ġy": 281,
      "ay": 282,
      "girl": 283,
      "he": 284,
      "ow": 285,
      "os": 286,
      "if": 287,
      "Ġtr": 288,
      "ue": 289,
      "sl": 290,
      "ang": 291,
      "ish": 292,
      "res": 293,
      "Ġfemale": 294,
      "ple": 295,
      "Ġar": 296,
      "Ġbreasts": 297,
      "Ġlo": 298,
      "ot": 299,
      "rou": 300,
      "up": 301,
      "gl": 302,
      "ansl": 303,
      "ip": 304,
      "ashi": 305,
      "Ġun": 306,
      "cho": 307,
      "Ġtransl": 308,
      "ab": 309,
      "Ġj": 310,
      "ens": 311,
      "ver": 312,
      "su": 313,
      "Ġhair": 314,
      "Ġmale": 315,
      "ass": 316,
      "glish": 317,
      "Ġo": 318,
      "Ġor": 319,
      "english": 320,
      "Ġtranslated": 321,
      "old": 322,
      "Ġblack": 323,
      "job": 324,
      "chool": 325,
      "orm": 326,
      "der": 327,
      "Ġbig": 328,
      "eyes": 329,
      "ves": 330,
      "Ġsh": 331,
      "ent": 332,
      "loth": 333,
      "sh": 334,
      "ese": 335,
      "ut": 336,
      "tail": 337,
      "Ġnak": 338,
      "ec": 339,
      "od": 340,
      "eri": 341,
      "Ġwhi": 342,
      "ensor": 343,
      "ss": 344,
      "ant": 345,
      "one": 346,
      "inal": 347,
      "iform": 348,
      "Ġwhite": 349,
      "Ġblue": 350,
      "Ġa": 351,
      "ong": 352,
      "ex": 353,
      "ub": 354,
      "Ġch": 355,
      "Ġenglish": 356,
      "we": 357,
      "leg": 358,
      "Ġin": 359,
      "nd": 360,
      "ting": 361,
      "ark": 362,
      "sk": 363,
      "adashi": 364,
      "ings": 365,
      "olding": 366,
      "row": 367,
      "ress": 368,
      "Ġholding": 369,
      "chi": 370,
      "orn": 371,
      "apan": 372,
      "own": 373,
      "Ġgre": 374,
      "ff": 375,
      "aw": 376,
      "apanese": 377,
      "lothes": 378,
      "back": 379,
      "ull": 380,
      "ib": 381,
      "Ġred": 382,
      "ulti": 383,
      "all": 384,
      "rt": 385,
      "ari": 386,
      "tion": 387,
      "aki": 388,
      "wear": 389,
      "iginal": 390,
      "st": 391,
      "Ġ1": 392,
      "Ġanim": 393,
      "ini": 394,
      "ne": 395,
      "Ġ2": 396,
      "suit": 397,
      "Ġmulti": 398,
      "ge": 399,
      "Ġhand": 400,
      "irt": 401,
      "lowjob": 402,
      "Ġnakadashi": 403,
      "Ġst": 404,
      "Ġcol": 405,
      "ink": 406,
      "Ġoriginal": 407,
      "pen": 408,
      "ra": 409,
      "ĠS": 410,
      "no": 411,
      "igh": 412,
      "Ġno": 413,
      "ide": 414,
      "ikini": 415,
      "pan": 416,
      "lee": 417,
      "qu": 418,
      "Ġschool": 419,
      "eries": 420,
      "aid": 421,
      "ry": 422,
      "Ġsm": 423,
      "clothes": 424,
      "ome": 425,
      "ard": 426,
      "Ġpen": 427,
      "Ġsp": 428,
      "eye": 429,
      "ate": 430,
      "est": 431,
      "Ġv": 432,
      "ie": 433,
      "grou": 434,
      "ind": 435,
      "Ġshi": 436,
      "uri": 437,
      "Ġsk": 438,
      "ond": 439,
      "Ġblowjob": 440,
      "ive": 441,
      "ground": 442,
      "ach": 443,
      "ek": 444,
      "Ġto": 445,
      "Ġjapanese": 446,
      "shirt": 447,
      "rin": 448,
      "ther": 449,
      "emon": 450,
      "ble": 451,
      "ace": 452,
      "lar": 453,
      "wim": 454,
      "dress": 455,
      "over": 456,
      "ga": 457,
      "col": 458,
      "uki": 459,
      "Ġhi": 460,
      "ship": 461,
      "Ġcensor": 462,
      "rown": 463,
      "Ġhigh": 464,
      "background": 465,
      "ano": 466,
      "fo": 467,
      "Ġon": 468,
      "Ġtw": 469,
      "aic": 470,
      "wimsuit": 471,
      "ties": 472,
      "Ġanal": 473,
      "weat": 474,
      "idol": 475,
      "ist": 476,
      "ãĥ": 477,
      "outh": 478,
      "out": 479,
      "age": 480,
      "Ġfr": 481,
      "are": 482,
      "Ġarm": 483,
      "boy": 484,
      "Ġpink": 485,
      "Ġuniform": 486,
      "ape": 487,
      "az": 488,
      "less": 489,
      "Ġanimated": 490,
      "Ġe": 491,
      "ers": 492,
      "Ġlong": 493,
      "ears": 494,
      "ure": 495,
      "ug": 496,
      "ono": 497,
      "anga": 498,
      "bow": 499,
      "breasts": 500,
      "Ġcensorship": 501,
      "roup": 502,
      "osaic": 503,
      "Ġstr": 504,
      "skirt": 505,
      "bon": 506,
      "Ġfull": 507,
      "ud": 508,
      "iz": 509,
      "wor": 510,
      "asses": 511,
      "ly": 512,
      "ĠB": 513,
      "Ġgreen": 514,
      "ĠM": 515,
      "mouth": 516,
      "tock": 517,
      "aru": 518,
      "ight": 519,
      "Ġlove": 520,
      "Ġde": 521,
      "ilf": 522,
      "iy": 523,
      "loves": 524,
      "bl": 525,
      "Ġbrown": 526,
      "ake": 527,
      "av": 528,
      "Ġ3": 529,
      "ame": 530,
      "tockings": 531,
      "anty": 532,
      "head": 533,
      "ush": 534,
      "ort": 535,
      "Ġth": 536,
      "highs": 537,
      "leeves": 538,
      "ia": 539,
      "oking": 540,
      "acket": 541,
      "Ġgroup": 542,
      "pi": 543,
      "Ġgl": 544,
      "hot": 545,
      "ony": 546,
      "orts": 547,
      "ain": 548,
      "art": 549,
      "Ġpur": 550,
      "bikini": 551,
      "ell": 552,
      "ine": 553,
      "Ġcum": 554,
      "ibbon": 555,
      "Ġpurple": 556,
      "pl": 557,
      "ura": 558,
      "Ġdark": 559,
      "arac": 560,
      "etr": 561,
      "aracter": 562,
      "aiz": 563,
      "Ġcolor": 564,
      "onytail": 565,
      "tie": 566,
      "ce": 567,
      "Ġre": 568,
      "Ġopen": 569,
      "Ġso": 570,
      "series": 571,
      "Ġ4": 572,
      "live": 573,
      "Ġim": 574,
      "Ġlooking": 575,
      "iss": 576,
      "fr": 577,
      "uu": 578,
      "Ġx": 579,
      "ara": 580,
      "awa": 581,
      "Ġcro": 582,
      "mas": 583,
      "arm": 584,
      "Ġidol": 585,
      "girls": 586,
      "fl": 587,
      "ipple": 588,
      "Ġmosaic": 589,
      "Ġmanga": 590,
      "sleeves": 591,
      "rees": 592,
      "of": 593,
      "reesome": 594,
      "uniform": 595,
      "aizuri": 596,
      "Ġglasses": 597,
      "Ġdr": 598,
      "sy": 599,
      "Ġschoolgirl": 600,
      "Ġart": 601,
      "Ġcharacter": 602,
      "Ġstockings": 603,
      "Ġyel": 604,
      "hose": 605,
      "tails": 606,
      "antyhose": 607,
      "ami": 608,
      "panties": 609,
      "Ġyellow": 610,
      "oshi": 611,
      "be": 612,
      "ma": 613,
      "Ġle": 614,
      "'s": 615,
      "ary": 616,
      "str": 617,
      "aka": 618,
      "ji": 619,
      "ori": 620,
      "ray": 621,
      "ãĤ": 622,
      "ile": 623,
      "Ġ5": 624,
      "school": 625,
      "ume": 626,
      "!_": 627,
      "intails": 628,
      "Ġpenis": 629,
      "Ġsex": 630,
      "unk": 631,
      "Ġgr": 632,
      "ama": 633,
      "female": 634,
      "another": 635,
      "lic": 636,
      "work": 637,
      "censor": 638,
      "Ġass": 639,
      "dy": 640,
      "tom": 641,
      "Ġgrey": 642,
      "unn": 643,
      "ĠâĻĤ": 644,
      "oul": 645,
      "jacket": 646,
      "neck": 647,
      "legs": 648,
      "Ġmultiple": 649,
      "cos": 650,
      "Ġhe": 651,
      "ph": 652,
      "Ġshort": 653,
      "gao": 654,
      "umi": 655,
      "inger": 656,
      "Ġpro": 657,
      "hand": 658,
      "ko": 659,
      "Ġthreesome": 660,
      "reast": 661,
      "cle": 662,
      "rint": 663,
      "Ġfo": 664,
      "cus": 665,
      "etration": 666,
      "Ġpl": 667,
      "asaki": 668,
      "Ġ20": 669,
      "hegao": 670,
      "ij": 671,
      "our": 672,
      "ock": 673,
      "Ġartist": 674,
      "ess": 675,
      "tsu": 676,
      "og": 677,
      "sed": 678,
      "Ġcollar": 679,
      "act": 680,
      "the": 681,
      "ice": 682,
      "Ġche": 683,
      "uff": 684,
      "ath": 685,
      "oulder": 686,
      "ki": 687,
      "ick": 688,
      "hin": 689,
      "ribbon": 690,
      "sho": 691,
      "ating": 692,
      "acting": 693,
      "band": 694,
      "Ġcom": 695,
      "Ġseries": 696,
      "Ġbe": 697,
      "Ġas": 698,
      "ect": 699,
      "Ġrape": 700,
      "Ġsweat": 701,
      "swimsuit": 702,
      "gloves": 703,
      "ka": 704,
      "ero": 705,
      "bra": 706,
      "Ġgirl": 707,
      "Ġskin": 708,
      "Ġbikini": 709,
      "highhighs": 710,
      "Ġpaizuri": 711,
      "body": 712,
      "ĠC": 713,
      "br": 714,
      "Ġbr": 715,
      "sc": 716,
      "Ġne": 717,
      "Ġsolo": 718,
      "aku": 719,
      "Ġahegao": 720,
      "ĠP": 721,
      "big": 722,
      "top": 723,
      "Ġhighres": 724,
      "Ġdouble": 725,
      "ee": 726,
      "Ġz": 727,
      "eart": 728,
      "Ġ6": 729,
      "ĠN": 730,
      "ata": 731,
      "Ġex": 732,
      "etor": 733,
      "Ġsc": 734,
      "cl": 735,
      "ange": 736,
      "Ġmus": 737,
      "Ġpo": 738,
      "hat": 739,
      "chive": 740,
      "ous": 741,
      "gr": 742,
      "Ġtwintails": 743,
      "reg": 744,
      "Ġal": 745,
      "cest": 746,
      "ana": 747,
      "Ġcl": 748,
      "do": 749,
      "elt": 750,
      "otard": 751,
      "Ġnipple": 752,
      "Ġponytail": 753,
      "etorare": 754,
      "orns": 755,
      "acon": 756,
      "licon": 757,
      "regn": 758,
      "hotacon": 759,
      "ual": 760,
      "shorts": 761,
      "sweat": 762,
      "ĠF": 763,
      "vie": 764,
      "iv": 765,
      "achi": 766,
      "Ġro": 767,
      "side": 768,
      "abb": 769,
      "ast": 770,
      "ils": 771,
      "ya": 772,
      "ash": 773,
      "tern": 774,
      "Ġlolicon": 775,
      "ament": 776,
      "upils": 777,
      "ill": 778,
      "Ġswimsuit": 779,
      "okemon": 780,
      "ment": 781,
      "focus": 782,
      "losed": 783,
      "iped": 784,
      "Ġshotacon": 785,
      "Ġside": 786,
      "ĠT": 787,
      "ornament": 788,
      "man": 789,
      "ussy": 790,
      "foot": 791,
      "ank": 792,
      "ier": 793,
      "play": 794,
      "let": 795,
      ")_(": 796,
      "ism": 797,
      "Ġ202": 798,
      "Ġpan": 799,
      "Ġpenetration": 800,
      "ĠG": 801,
      "Ġhairy": 802,
      "uku": 803,
      "ire": 804,
      "skin": 805,
      "ina": 806,
      "Ġslee": 807,
      "you": 808,
      "ondom": 809,
      "under": 810,
      "Ġimp": 811,
      "ift": 812,
      "Ġver": 813,
      "collar": 814,
      "ats": 815,
      "sti": 816,
      "Ġhead": 817,
      "Ġorange": 818,
      "Ġthe": 819,
      "ane": 820,
      "lower": 821,
      "co": 822,
      "nown": 823,
      "Ġblush": 824,
      "unknown": 825,
      "ffec": 826,
      "view": 827,
      "Ġbo": 828,
      "ffects": 829,
      "blue": 830,
      "mentary": 831,
      "ium": 832,
      "Ġfinger": 833,
      "ots": 834,
      "tle": 835,
      "ial": 836,
      "me": 837,
      ":_": 838,
      "ound": 839,
      "yu": 840,
      "Ġcon": 841,
      "shoulder": 842,
      "oto": 843,
      "ron": 844,
      "com": 845,
      "Ġincest": 846,
      "cing": 847,
      "oration": 848,
      "led": 849,
      "color": 850,
      "dom": 851,
      "print": 852,
      "per": 853,
      "ĠA": 854,
      "ichi": 855,
      "ishi": 856,
      "Ġho": 857,
      "Ġcross": 858,
      "ys": 859,
      "Ġeffects": 860,
      "ijig": 861,
      "Ġheart": 862,
      "floration": 863,
      "Ġbad": 864,
      "Ġnetorare": 865,
      "ijigasaki": 866,
      "Ġyu": 867,
      "ae": 868,
      "Ġbb": 869,
      "Ġanimal": 870,
      "edium": 871,
      "sex": 872,
      "bang": 873,
      "Ġtak": 874,
      "ĠH": 875,
      "ject": 876,
      "Ġunder": 877,
      "pe": 878,
      "ingle": 879,
      "ym": 880,
      "agi": 881,
      "Ġmo": 882,
      "hind": 883,
      "Ġcle": 884,
      "ity": 885,
      "Ġsu": 886,
      "pull": 887,
      "bot": 888,
      "eyewear": 889,
      "ude": 890,
      "ĠD": 891,
      "atari": 892,
      "atsu": 893,
      "fm": 894,
      "uka": 895,
      "Ġte": 896,
      "imi": 897,
      "Ġcover": 898,
      "Ġone": 899,
      "Ġchi": 900,
      "behind": 901,
      "censored": 902,
      "ping": 903,
      "ha": 904,
      "io": 905,
      "lift": 906,
      "ãģ": 907,
      "bi": 908,
      "Ġcloth": 909,
      "Ġbow": 910,
      "Ġ(": 911,
      "wa": 912,
      "ical": 913,
      "ten": 914,
      "thighhighs": 915,
      "Ġme": 916,
      "ase": 917,
      "sei": 918,
      "iko": 919,
      "Ġsingle": 920,
      "Ġskirt": 921,
      "ails": 922,
      "Ġstriped": 923,
      "agon": 924,
      "con": 925,
      "viewer": 926,
      "face": 927,
      "Ġoff": 928,
      "Ġ:": 929,
      "po": 930,
      "chan": 931,
      "Ġbare": 932,
      "ĠV": 933,
      "Ġdilf": 934,
      "Ġhands": 935,
      "pants": 936,
      "les": 937,
      "hoto": 938,
      "urb": 939,
      "issing": 940,
      "Ġcat": 941,
      "ondage": 942,
      "Ġcow": 943,
      "fate": 944,
      "Ġfe": 945,
      "Ġpantyhose": 946,
      "regnation": 947,
      "Ġcondom": 948,
      "etwe": 949,
      "inese": 950,
      "etween": 951,
      "jo": 952,
      "bangs": 953,
      "urbation": 954,
      "Ġdefloration": 955,
      "Ġcheating": 956,
      "Ġneck": 957,
      "ao": 958,
      "emdom": 959,
      "Ġbreast": 960,
      "Ġshirt": 961,
      "ku": 962,
      "quest": 963,
      "tume": 964,
      "Ġfur": 965,
      "ins": 966,
      "uc": 967,
      "ece": 968,
      "alle": 969,
      "master": 970,
      "archive": 971,
      "Ġkne": 972,
      "aut": 973,
      "Ġmin": 974,
      "ors": 975,
      "Ġse": 976,
      "ring": 977,
      "ty": 978,
      "eme": 979,
      "ĠL": 980,
      "Ġmind": 981,
      "Ġsmall": 982,
      "read": 983,
      "lin": 984,
      "rav": 985,
      "Ġffm": 986,
      "arge": 987,
      "Ġtwo": 988,
      "kan": 989,
      "Ġel": 990,
      "trim": 991,
      "qua": 992,
      "hou": 993,
      "und": 994,
      "uge": 995,
      "Ġco": 996,
      "rough": 997,
      "atch": 998,
      "Ġphoto": 999,
      "Ġkur": 1000,
      "Ġinter": 1001,
      "Ġlarge": 1002,
      "cks": 1003,
      "costume": 1004,
      "imono": 1005,
      "erson": 1006,
      "chie": 1007,
      "Ġfl": 1008,
      "45": 1009,
      "Ġem": 1010,
      "ta": 1011,
      "af": 1012,
      "sur": 1013,
      "leotard": 1014,
      "brow": 1015,
      "rings": 1016,
      "Ġab": 1017,
      "Ġaqua": 1018,
      "asu": 1019,
      "dr": 1020,
      "tch": 1021,
      "Ġvery": 1022,
      "Ġgloves": 1023,
      "illed": 1024,
      "sweater": 1025,
      "sp": 1026,
      "mo": 1027,
      "Ġfrilled": 1028,
      "cut": 1029,
      "Ġtom": 1030,
      "ato": 1031,
      "boys": 1032,
      "Ġfemdom": 1033,
      "na": 1034,
      "legwear": 1035,
      "ons": 1036,
      "anim": 1037,
      "Ġtoys": 1038,
      "ted": 1039,
      "uma": 1040,
      "Ġimpregnation": 1041,
      "pantyhose": 1042,
      "ternate": 1043,
      "else": 1044,
      "ravure": 1045,
      "pp": 1046,
      "ako": 1047,
      "Ġlive": 1048,
      "Ġdress": 1049,
      "ubic": 1050,
      "request": 1051,
      "Ġhar": 1052,
      "ister": 1053,
      "Ġchinese": 1054,
      "trol": 1055,
      "dou": 1056,
      "Ġsak": 1057,
      "bun": 1058,
      "through": 1059,
      "piece": 1060,
      "Ġback": 1061,
      "itting": 1062,
      "Ġstar": 1063,
      "ore": 1064,
      "Ġhuge": 1065,
      "yaru": 1066,
      "Ġ7": 1067,
      "Ġmedium": 1068,
      "oku": 1069,
      "Ġbbm": 1070,
      "da": 1071,
      "Ġuncensored": 1072,
      "apron": 1073,
      "penis": 1074,
      "ino": 1075,
      "itch": 1076,
      "Ġleg": 1077,
      "male": 1078,
      "Ġko": 1079,
      "Ġidolmaster": 1080,
      "rist": 1081,
      "Ġgen": 1082,
      "sole": 1083,
      "tomi": 1084,
      "uck": 1085,
      "ball": 1086,
      "Ġphotosho": 1087,
      "Ġsho": 1088,
      "Ġeye": 1089,
      "Ġup": 1090,
      "blem": 1091,
      "cosplay": 1092,
      "japanese": 1093,
      "iya": 1094,
      "de": 1095,
      "ker": 1096,
      "ix": 1097,
      "Ġmark": 1098,
      "Ġbondage": 1099,
      "Ġsun": 1100,
      "omach": 1101,
      "Ġ|": 1102,
      "grab": 1103,
      "nails": 1104,
      "Ġam": 1105,
      "pupils": 1106,
      "Ġfrom": 1107,
      "als": 1108,
      "omimi": 1109,
      "Ġtail": 1110,
      "ailor": 1111,
      "Ġsmears": 1112,
      "auty": 1113,
      "py": 1114,
      "Ġhal": 1115,
      "love": 1116,
      "name": 1117,
      "footwear": 1118,
      "object": 1119,
      "una": 1120,
      "earrings": 1121,
      "colored": 1122,
      "erie": 1123,
      "Ġclosed": 1124,
      "Ġgravure": 1125,
      "yo": 1126,
      "Ġpanties": 1127,
      "ulation": 1128,
      "gatari": 1129,
      "Ġband": 1130,
      "lip": 1131,
      "emonomimi": 1132,
      "wel": 1133,
      "hands": 1134,
      "Ġsmile": 1135,
      "Ġclothes": 1136,
      "aped": 1137,
      "tat": 1138,
      "hara": 1139,
      "vest": 1140,
      "ingerie": 1141,
      "emblem": 1142,
      "ance": 1143,
      "oka": 1144,
      "asturbation": 1145,
      "onogatari": 1146,
      "Ġstrap": 1147,
      "omi": 1148,
      "avel": 1149,
      "end": 1150,
      "cour": 1151,
      "ater": 1152,
      "Ġfac": 1153,
      "course": 1154,
      "ps": 1155,
      "Ġak": 1156,
      "utan": 1157,
      "between": 1158,
      "ator": 1159,
      "ĠSole": 1160,
      "Ġnipples": 1161,
      "allery": 1162,
      "Ġphotoshoot": 1163,
      "Ġ10": 1164,
      "lines": 1165,
      "Ġhood": 1166,
      "too": 1167,
      "worn": 1168,
      "Ġthigh": 1169,
      "pu": 1170,
      "wings": 1171,
      "ĠK": 1172,
      "Ġlight": 1173,
      "Ġkan": 1174,
      "Ġspread": 1175,
      "shaped": 1176,
      "brows": 1177,
      "ita": 1178,
      "Ġu": 1179,
      "Ġhitomi": 1180,
      "iling": 1181,
      "Ġgyaru": 1182,
      "mf": 1183,
      "phone": 1184,
      "ible": 1185,
      "Ġstand": 1186,
      "Ġsleeve": 1187,
      "unny": 1188,
      "iyuu": 1189,
      "horns": 1190,
      "ody": 1191,
      "Ġstanding": 1192,
      "vis": 1193,
      "arms": 1194,
      "pos": 1195,
      "reak": 1196,
      "Ġpar": 1197,
      "ĠVA": 1198,
      "bol": 1199,
      "club": 1200,
      "Ġje": 1201,
      "Ġmulticolored": 1202,
      "flower": 1203,
      "Ġarms": 1204,
      "Ġbeauty": 1205,
      "Ġshin": 1206,
      "oke": 1207,
      "ling": 1208,
      "breast": 1209,
      "oun": 1210,
      "ongue": 1211,
      "ĠU": 1212,
      "sock": 1213,
      "able": 1214,
      "down": 1215,
      "enshin": 1216,
      "Ġtan": 1217,
      "ven": 1218,
      "Ġgallery": 1219,
      "ask": 1220,
      "Ġtorn": 1221,
      "Ġlow": 1222,
      "la": 1223,
      "Ġsitting": 1224,
      "Ġfire": 1225,
      "yle": 1226,
      "only": 1227,
      "pokemon": 1228,
      "strap": 1229,
      "Ġface": 1230,
      "surd": 1231,
      "Ġpussy": 1232,
      "cover": 1233,
      "ber": 1234,
      "esti": 1235,
      "braid": 1236,
      "ric": 1237,
      "å¹": 1238,
      "Ġintercourse": 1239,
      "Ġsleeveless": 1240,
      "onde": 1241,
      "Ġad": 1242,
      "boots": 1243,
      "form": 1244,
      "Ġsister": 1245,
      "utanari": 1246,
      "Ġdemon": 1247,
      "med": 1248,
      "Ġgrabb": 1249,
      "mark": 1250,
      "maid": 1251,
      "å¹´": 1252,
      "Ġsen": 1253,
      "Ġabsurd": 1254,
      "tone": 1255,
      "Ġyuri": 1256,
      "Ġgrabbing": 1257,
      "socks": 1258,
      "Ġalternate": 1259,
      "uper": 1260,
      "Ġpokemon": 1261,
      "ris": 1262,
      "aya": 1263,
      "ĠR": 1264,
      "ju": 1265,
      "Ġmasturbation": 1266,
      "adi": 1267,
      "seiyuu": 1268,
      "eshi": 1269,
      "Ġmole": 1270,
      "Ġunderwear": 1271,
      "ory": 1272,
      "Ġcommentary": 1273,
      "Ġblonde": 1274,
      "ilingus": 1275,
      "Ġribbon": 1276,
      "ora": 1277,
      "its": 1278,
      "bowtie": 1279,
      "Ġunworn": 1280,
      "acher": 1281,
      "akadashi": 1282,
      "onster": 1283,
      "au": 1284,
      "ĠE": 1285,
      "Ġabsurdres": 1286,
      "åı": 1287,
      "Ġman": 1288,
      "Ġfood": 1289,
      "Ġbut": 1290,
      "oko": 1291,
      "go": 1292,
      "ponytail": 1293,
      "elf": 1294,
      "Ġmilf": 1295,
      "Ġclothed": 1296,
      "avage": 1297,
      "Ġbelt": 1298,
      "arter": 1299,
      "hibi": 1300,
      "imp": 1301,
      "ald": 1302,
      "kai": 1303,
      "tu": 1304,
      "tee": 1305,
      "around": 1306,
      "Ġfu": 1307,
      "ĠBig": 1308,
      "iki": 1309,
      "bag": 1310,
      "Ġfingering": 1311,
      "hairband": 1312,
      "sm": 1313,
      "åı·": 1314,
      "Ġkemonomimi": 1315,
      "Ġhorns": 1316,
      "Ġdick": 1317,
      "pussy": 1318,
      "ally": 1319,
      "apon": 1320,
      "ei": 1321,
      "nijigasaki": 1322,
      "Ġhat": 1323,
      "jou": 1324,
      "hibition": 1325,
      "tw": 1326,
      "hibitionism": 1327,
      "Ġcontrol": 1328,
      "run": 1329,
      "ian": 1330,
      "ith": 1331,
      "unnilingus": 1332,
      "tic": 1333,
      "min": 1334,
      "Ġcleavage": 1335,
      "abric": 1336,
      "usual": 1337,
      "belt": 1338,
      "gu": 1339,
      "Ġpres": 1340,
      "reat": 1341,
      "Ġhan": 1342,
      "ade": 1343,
      "ep": 1344,
      "Ġplaid": 1345,
      "iku": 1346,
      "commentary": 1347,
      "uru": 1348,
      "long": 1349,
      "trimmed": 1350,
      "icking": 1351,
      "Ġmaid": 1352,
      "Ġare": 1353,
      "Ġonly": 1354,
      "zu": 1355,
      "ii": 1356,
      "ãĥ³": 1357,
      "imple": 1358,
      "ime": 1359,
      "milf": 1360,
      "cutout": 1361,
      "ied": 1362,
      "olae": 1363,
      "oru": 1364,
      "order": 1365,
      "actation": 1366,
      "abbit": 1367,
      "iff": 1368,
      "ubble": 1369,
      "Ġlingerie": 1370,
      "coat": 1371,
      "word": 1372,
      "headwear": 1373,
      "aginal": 1374,
      "ction": 1375,
      "duc": 1376,
      "hood": 1377,
      "Ġaf": 1378,
      "uke": 1379,
      "Ġnavel": 1380,
      "king": 1381,
      "Ġfabric": 1382,
      "Ġkissing": 1383,
      "Ġmmf": 1384,
      "Ġscar": 1385,
      "ada": 1386,
      "ni": 1387,
      "Ġten": 1388,
      "lips": 1389,
      "nipple": 1390,
      "rop": 1391,
      "Ġfoot": 1392,
      "Ġfish": 1393,
      "ĠI": 1394,
      "ekai": 1395,
      "san": 1396,
      "nude": 1397,
      "Ġpoin": 1398,
      "hoku": 1399,
      "Ġtongue": 1400,
      "Ġproduc": 1401,
      "yama": 1402,
      "Ġlegs": 1403,
      "closed": 1404,
      "Ġpol": 1405,
      "Ġai": 1406,
      "style": 1407,
      "line": 1408,
      "eek": 1409,
      "ika": 1410,
      "Ġdickgirl": 1411,
      "mer": 1412,
      "impact": 1413,
      "teeth": 1414,
      "stitu": 1415,
      "frame": 1416,
      "necktie": 1417,
      "stitution": 1418,
      "Ġmar": 1419,
      "els": 1420,
      "Ġfate": 1421,
      "cess": 1422,
      "arted": 1423,
      "Ġts": 1424,
      "Ġ2023": 1425,
      "pubic": 1426,
      "han": 1427,
      "doors": 1428,
      "ike": 1429,
      "sen": 1430,
      "une": 1431,
      "Ġbra": 1432,
      "ri": 1433,
      "Ġma": 1434,
      "antas": 1435,
      "doujinshi": 1436,
      "ming": 1437,
      "Ġprint": 1438,
      "Ġsimple": 1439,
      "Ġli": 1440,
      "Ġnijigasaki": 1441,
      "hon": 1442,
      "Ġafter": 1443,
      "ru": 1444,
      "Ġpupils": 1445,
      "Ġur": 1446,
      "Ġwet": 1447,
      "undam": 1448,
      "ighting": 1449,
      "Ġdragon": 1450,
      "star": 1451,
      "shoes": 1452,
      "welry": 1453,
      "Ġlicking": 1454,
      "tensei": 1455,
      "Ġrabbit": 1456,
      "cape": 1457,
      "Ġly": 1458,
      "Ġfeet": 1459,
      "Ġmil": 1460,
      "omo": 1461,
      "sky": 1462,
      "Ġay": 1463,
      "Ġnude": 1464,
      "Ġteacher": 1465,
      "Ġbald": 1466,
      "rying": 1467,
      "Ġthi": 1468,
      "uffy": 1469,
      "Ġbraid": 1470,
      "quid": 1471,
      "Ġexhibitionism": 1472,
      "Ġsn": 1473,
      "Ġsti": 1474,
      "Ġknee": 1475,
      "pa": 1476,
      "choker": 1477,
      "Ġshorts": 1478,
      "ence": 1479,
      "Ġsweating": 1480,
      "Ġyoshi": 1481,
      "Ġmid": 1482,
      "Ġkir": 1483,
      "eyebrows": 1484,
      "Ġtank": 1485,
      "igan": 1486,
      "Ġkip": 1487,
      "Ġblo": 1488,
      "Ġfake": 1489,
      "Ġcho": 1490,
      "eru": 1491,
      "icial": 1492,
      "abe": 1493,
      "gy": 1494,
      "Ġkippu": 1495,
      "Ġparti": 1496,
      "Ġclub": 1497,
      "genshin": 1498,
      "antasy": 1499,
      "ĠUn": 1500,
      "æľ": 1501,
      "oh": 1502,
      "gun": 1503,
      "ign": 1504,
      "que": 1505,
      "unge": 1506,
      "eld": 1507,
      "Ġwater": 1508,
      "Ġupper": 1509,
      "nipples": 1510,
      "uko": 1511,
      "ward": 1512,
      "aist": 1513,
      "ched": 1514,
      "Ġmiy": 1515,
      "mai": 1516,
      "chest": 1517,
      "hiro": 1518,
      "kimono": 1519,
      "Ġjacket": 1520,
      "Ġcovered": 1521,
      "Ġwa": 1522,
      "Ġmushoku": 1523,
      "Ġbody": 1524,
      "tub": 1525,
      "pped": 1526,
      "ĠMosaic": 1527,
      "oro": 1528,
      "Ġjewelry": 1529,
      "Ġstomach": 1530,
      "shot": 1531,
      "runchie": 1532,
      "meme": 1533,
      "Ġunusual": 1534,
      "Ġni": 1535,
      "oll": 1536,
      "bottom": 1537,
      "Ġsmoke": 1538,
      "gin": 1539,
      "Ġen": 1540,
      "cro": 1541,
      "oi": 1542,
      "tain": 1543,
      "Ġcunnilingus": 1544,
      "Ġpuffy": 1545,
      "oki": 1546,
      "ungeon": 1547,
      "Ġkaz": 1548,
      "Ġharem": 1549,
      "ner": 1550,
      "rincess": 1551,
      "adow": 1552,
      "ĠNakadashi": 1553,
      "Ġparted": 1554,
      "ger": 1555,
      "Ġout": 1556,
      "ĠY": 1557,
      "Ġsqu": 1558,
      "Ġ8": 1559,
      "Ġcreat": 1560,
      "Ġarchive": 1561,
      "room": 1562,
      "Ġprostitution": 1563,
      "aning": 1564,
      "Ġareolae": 1565,
      "Ġleotard": 1566,
      "yuu": 1567,
      "ymm": 1568,
      "Ġdog": 1569,
      "Ġtranslation": 1570,
      "Ġthighhighs": 1571,
      "ler": 1572,
      "toge": 1573,
      "ree": 1574,
      "!)": 1575,
      "alo": 1576,
      "Ġbreak": 1577,
      "Ġliquid": 1578,
      "ĠBlowjob": 1579,
      "Ġhalf": 1580,
      "ont": 1581,
      "verse": 1582,
      "Ġlactation": 1583,
      "Ġou": 1584,
      "visible": 1585,
      "together": 1586,
      "Ġcam": 1587,
      "Ġofficial": 1588,
      "ilming": 1589,
      "entac": 1590,
      "colle": 1591,
      "person": 1592,
      "illow": 1593,
      "irgin": 1594,
      "nal": 1595,
      "Ġer": 1596,
      "etrical": 1597,
      "ymmetrical": 1598,
      "ached": 1599,
      "locks": 1600,
      "den": 1601,
      "Ġtou": 1602,
      "aside": 1603,
      "scar": 1604,
      "with": 1605,
      "etached": 1606,
      "Ġsleeping": 1607,
      "Ġdeep": 1608,
      "ieren": 1609,
      "Ġnaked": 1610,
      "handjob": 1611,
      "mulation": 1612,
      "Ġ2022": 1613,
      "cy": 1614,
      "sym": 1615,
      "Ġand": 1616,
      "Ġsome": 1617,
      "Ġfor": 1618,
      "Ġcolored": 1619,
      "ures": 1620,
      "Ġoni": 1621,
      "ĠNo": 1622,
      "Ġmonster": 1623,
      "fire": 1624,
      "inking": 1625,
      "Ġve": 1626,
      "mail": 1627,
      "Ġmag": 1628,
      "Ġcar": 1629,
      "Ġmuscle": 1630,
      "Ġmother": 1631,
      "stick": 1632,
      "Ġclothing": 1633,
      "dressing": 1634,
      "yuki": 1635,
      "Ġcensored": 1636,
      "atio": 1637,
      "wo": 1638,
      "cap": 1639,
      "ukk": 1640,
      "Ġpartially": 1641,
      "jim": 1642,
      "Ġsal": 1643,
      "Ġdungeon": 1644,
      "bre": 1645,
      "sailor": 1646,
      "blush": 1647,
      "alk": 1648,
      "Ġcovering": 1649,
      "some": 1650,
      "ered": 1651,
      "pits": 1652,
      "hino": 1653,
      "ken": 1654,
      "ke": 1655,
      "Ġperson": 1656,
      "Ġwe": 1657,
      "gas": 1658,
      "Ġbur": 1659,
      "ĠSchool": 1660,
      "Ġos": 1661,
      "oken": 1662,
      "Ġflower": 1663,
      "Ġfacial": 1664,
      "unt": 1665,
      "Ġbang": 1666,
      "box": 1667,
      "pier": 1668,
      "Ġden": 1669,
      "Ġcreatures": 1670,
      "Ġschoolboy": 1671,
      "uffs": 1672,
      "Ġspoken": 1673,
      "ination": 1674,
      "hoge": 1675,
      "Ġag": 1676,
      "ertion": 1677,
      "Ġus": 1678,
      "Ġyam": 1679,
      "Ġste": 1680,
      "ukkake": 1681,
      "Ġsee": 1682,
      "bed": 1683,
      "Ġsuit": 1684,
      "urry": 1685,
      "bell": 1686,
      "asa": 1687,
      "Ġgold": 1688,
      "mat": 1689,
      "Ġpanty": 1690,
      "ighter": 1691,
      "shou": 1692,
      "Ġcropped": 1693,
      "ection": 1694,
      "Ġmak": 1695,
      "ardigan": 1696,
      "Ġsl": 1697,
      "Ġhandjob": 1698,
      "ĠW": 1699,
      "xt": 1700,
      "iting": 1701,
      "Ġshoulder": 1702,
      "uchi": 1703,
      "fold": 1704,
      "Ġgro": 1705,
      "piercing": 1706,
      "animal": 1707,
      "bar": 1708,
      "bone": 1709,
      "Ġdetached": 1710,
      "Ġfighting": 1711,
      "Ġtsu": 1712,
      "roat": 1713,
      "ton": 1714,
      "lace": 1715,
      "irginity": 1716,
      "shoulders": 1717,
      "right": 1718,
      "Ġlol": 1719,
      "Ġsweater": 1720,
      "finger": 1721,
      "Ġlace": 1722,
      "Ġvaginal": 1723,
      "unning": 1724,
      "symbol": 1725,
      "Ġasymmetrical": 1726,
      "zuki": 1727,
      "xiv": 1728,
      "Ġstrapless": 1729,
      "tattoo": 1730,
      "Ġfilming": 1731,
      "Ġpov": 1732,
      "!!": 1733,
      "ba": 1734,
      "ĠJ": 1735,
      "etero": 1736,
      "Ġmor": 1737,
      "Ġblackmail": 1738,
      "chief": 1739,
      "avy": 1740,
      "isekai": 1741,
      "tak": 1742,
      "boob": 1743,
      "Ġcrossed": 1744,
      "throat": 1745,
      "adient": 1746,
      "Ġrunning": 1747,
      "adem": 1748,
      "iercing": 1749,
      "gi": 1750,
      "meshi": 1751,
      "ature": 1752,
      "icro": 1753,
      "Ġgradient": 1754,
      "arou": 1755,
      "ife": 1756,
      "Ġmake": 1757,
      "gg": 1758,
      "Ġover": 1759,
      "Ġcur": 1760,
      "ft": 1761,
      "Ġhetero": 1762,
      "text": 1763,
      "ld": 1764,
      "Ġbed": 1765,
      "from": 1766,
      "eko": 1767,
      "Ġleaning": 1768,
      "umed": 1769,
      "flo": 1770,
      "ream": 1771,
      "press": 1772,
      "Ġboots": 1773,
      "Ġkiz": 1774,
      "chair": 1775,
      "book": 1776,
      "Ġpresumed": 1777,
      "pixiv": 1778,
      "Ġsuper": 1779,
      "waist": 1780,
      "mask": 1781,
      "ough": 1782,
      "imjob": 1783,
      "dot": 1784,
      "Ġtall": 1785,
      "Ġwind": 1786,
      "Ġkag": 1787,
      "academ": 1788,
      "censoring": 1789,
      "Ġper": 1790,
      "part": 1791,
      "Ġdan": 1792,
      "Ġwrist": 1793,
      "glasses": 1794,
      "lock": 1795,
      "Ġnon": 1796,
      "erchief": 1797,
      "bubble": 1798,
      "fe": 1799,
      "ellatio": 1800,
      "for": 1801,
      "Ġwide": 1802,
      "Ġtop": 1803,
      "mag": 1804,
      "Ġspik": 1805,
      "Ġmask": 1806,
      "indfold": 1807,
      "drop": 1808,
      "Ġmonogatari": 1809,
      "amed": 1810,
      "Ġgundam": 1811,
      "iri": 1812,
      "Ġtat": 1813,
      "board": 1814,
      "ned": 1815,
      "transl": 1816,
      "ĠBreasts": 1817,
      "Ġpe": 1818,
      "kun": 1819,
      "Ġãĥ": 1820,
      "usume": 1821,
      "Ġgarter": 1822,
      "Ġpolka": 1823,
      "jus": 1824,
      "Ġthick": 1825,
      "Ġbar": 1826,
      "Ġouts": 1827,
      "Ġhighleg": 1828,
      "ãĤ¤": 1829,
      "za": 1830,
      "regnant": 1831,
      "kancolle": 1832,
      "oy": 1833,
      "appy": 1834,
      "Ġtata": 1835,
      "gasm": 1836,
      "Ġarc": 1837,
      "uta": 1838,
      "ump": 1839,
      "pit": 1840,
      "acelet": 1841,
      "Ġpants": 1842,
      "Ġfutanari": 1843,
      "ette": 1844,
      "Ġear": 1845,
      "ĠManga": 1846,
      "kin": 1847,
      "ans": 1848,
      "Ġblurry": 1849,
      "pol": 1850,
      "gen": 1851,
      "Ġsailor": 1852,
      "cha": 1853,
      "Ġtur": 1854,
      "ira": 1855,
      "thighs": 1856,
      "Ġstory": 1857,
      "light": 1858,
      "æľĪ": 1859,
      "Ġcollared": 1860,
      "entacles": 1861,
      "irting": 1862,
      "hoodie": 1863,
      "Ġfang": 1864,
      "scrunchie": 1865,
      "amura": 1866,
      "Ġbag": 1867,
      "Ġnishi": 1868,
      "ones": 1869,
      "scarf": 1870,
      "aice": 1871,
      "Ġflo": 1872,
      "Ġlock": 1873,
      "conn": 1874,
      "Ġmouth": 1875,
      "uya": 1876,
      "Ġ;": 1877,
      "ends": 1878,
      "erv": 1879,
      "Ġshoes": 1880,
      "tataice": 1881,
      "bus": 1882,
      "bodysuit": 1883,
      "Ġdeepthroat": 1884,
      "uit": 1885,
      "03": 1886,
      "ĠO": 1887,
      "usa": 1888,
      "witch": 1889,
      "Ġkimono": 1890,
      "zuku": 1891,
      "ĠPaizuri": 1892,
      "Ġple": 1893,
      "Ġkar": 1894,
      "nched": 1895,
      "Ġclenched": 1896,
      "Ġahoge": 1897,
      "Ġpiercing": 1898,
      "Ġadjus": 1899,
      "sion": 1900,
      "oden": 1901,
      "Ġga": 1902,
      "Ġplay": 1903,
      "Ġadjusting": 1904,
      "tive": 1905,
      "Ġbunny": 1906,
      "retch": 1907,
      "floor": 1908,
      "Ġmicro": 1909,
      "verted": 1910,
      "by": 1911,
      "Ġearrings": 1912,
      "vil": 1913,
      "peek": 1914,
      "Ġtanlines": 1915,
      "Ġhor": 1916,
      "oubon": 1917,
      "original": 1918,
      "Ġtee": 1919,
      "zero": 1920,
      "mar": 1921,
      "itary": 1922,
      "Ġteeth": 1923,
      "Ġsocks": 1924,
      "materi": 1925,
      "ource": 1926,
      "ills": 1927,
      "Ġsat": 1928,
      "border": 1929,
      "Ġbot": 1930,
      "Ġmik": 1931,
      "Ġbukkake": 1932,
      "Ġpubic": 1933,
      "zer": 1934,
      "iva": 1935,
      "Ġhug": 1936,
      "toy": 1937,
      "Ġsakura": 1938,
      "op": 1939,
      "Ġmon": 1940,
      "cuffs": 1941,
      "athing": 1942,
      "fantasy": 1943,
      "Ġhappy": 1944,
      "jac": 1945,
      "Ġhiro": 1946,
      "Ġkono": 1947,
      "kou": 1948,
      "Ġpet": 1949,
      "Ġproduction": 1950,
      "Ġbandaid": 1951,
      "inter": 1952,
      "Ġkam": 1953,
      "asumi": 1954,
      "weapon": 1955,
      "ĠSchoolgirl": 1956,
      "ĠGroup": 1957,
      "slip": 1958,
      "iru": 1959,
      "Ġlying": 1960,
      "Ġaki": 1961,
      "umonogatari": 1962,
      "Ġkizumonogatari": 1963,
      "add": 1964,
      "Ġmakeup": 1965,
      "ission": 1966,
      "Ġbarefoot": 1967,
      "ning": 1968,
      "wall": 1969,
      "zaki": 1970,
      "augh": 1971,
      "Ġsidelocks": 1972,
      "ition": 1973,
      "Ġreverse": 1974,
      "Ġmy": 1975,
      "tan": 1976,
      "Ġsword": 1977,
      "Ġpleated": 1978,
      "translated": 1979,
      "materials": 1980,
      "atsuki": 1981,
      "ĠStockings": 1982,
      "heels": 1983,
      "nim": 1984,
      "ouse": 1985,
      "asc": 1986,
      "oma": 1987,
      "stomach": 1988,
      "ui": 1989,
      "ensorship": 1990,
      "ĠCensorship": 1991,
      "Ġdrinking": 1992,
      "Ġpre": 1993,
      "Ġcos": 1994,
      "Ġtam": 1995,
      "pose": 1996,
      "Ġsaliva": 1997,
      "ouch": 1998,
      "ights": 1999,
      "ĠHair": 2000,
      "apart": 2001,
      "ise": 2002,
      "00": 2003,
      "covering": 2004,
      "mi": 2005,
      "insertion": 2006,
      "Ġsleeves": 2007,
      "aper": 2008,
      "ped": 2009,
      "inu": 2010,
      "Ġmis": 2011,
      "itt": 2012,
      "met": 2013,
      "Ġ9": 2014,
      "pro": 2015,
      "hold": 2016,
      "medium": 2017,
      "Ġchain": 2018,
      "fuku": 2019,
      "clip": 2020,
      "Ġtankoubon": 2021,
      "phones": 2022,
      "uffed": 2023,
      "Ġinverted": 2024,
      "Ġcrying": 2025,
      "armor": 2026,
      "jaculation": 2027,
      "Ġsum": 2028,
      "Ġball": 2029,
      "ily": 2030,
      "Ġbun": 2031,
      "Ġurination": 2032,
      "ãĥ³ãĤ": 2033,
      "kn": 2034,
      "Ġyuki": 2035,
      "ugs": 2036,
      "Ġrimjob": 2037,
      "set": 2038,
      "Ġdrunk": 2039,
      "ĠIn": 2040,
      "Ġblood": 2041,
      "Ġcollarbone": 2042,
      "Ġat": 2043,
      "ĠJapanese": 2044,
      "food": 2045,
      "wr": 2046,
      "polish": 2047,
      "ather": 2048,
      "Ġcrotch": 2049,
      "Ġsym": 2050,
      "ousou": 2051,
      "Ġblunt": 2052,
      "cheek": 2053,
      "fighter": 2054,
      "Ġnose": 2055,
      "Ġser": 2056,
      "Ġmidr": 2057,
      "twintails": 2058,
      "skinned": 2059,
      "eyel": 2060,
      "Ġmidriff": 2061,
      "but": 2062,
      "Ġgo": 2063,
      "Ġlip": 2064,
      "shin": 2065,
      "ugi": 2066,
      "siz": 2067,
      "ocket": 2068,
      "juice": 2069,
      "Ġdi": 2070,
      "Ġarmpits": 2071,
      "uro": 2072,
      "reet": 2073,
      "Ġcr": 2074,
      "oral": 2075,
      "akura": 2076,
      "bottle": 2077,
      "Ġelbow": 2078,
      "Ġvirginity": 2079,
      "Ġsand": 2080,
      "Ġsmell": 2081,
      "angle": 2082,
      "ingers": 2083,
      "Ġyuk": 2084,
      "oss": 2085,
      "cor": 2086,
      "uil": 2087,
      "Ġbutt": 2088,
      "lla": 2089,
      "Ġmari": 2090,
      "Ġsky": 2091,
      "Ġfootjob": 2092,
      "Ġthighs": 2093,
      "Ġfloating": 2094,
      "Ġapron": 2095,
      "tleneck": 2096,
      "ench": 2097,
      "ito": 2098,
      "Ġsymbol": 2099,
      "aba": 2100,
      "Ġspark": 2101,
      "emonog": 2102,
      "emonogatari": 2103,
      "ica": 2104,
      "Ġnakano": 2105,
      "penetration": 2106,
      "kissing": 2107,
      "Ġelf": 2108,
      "Ġka": 2109,
      "formation": 2110,
      "ages": 2111,
      "uno": 2112,
      "Ġshir": 2113,
      "squ": 2114,
      "framed": 2115,
      "Ġosaka": 2116,
      "Ġtattoo": 2117,
      "Ġfemales": 2118,
      "ait": 2119,
      "Ġnecktie": 2120,
      "thigh": 2121,
      "sweating": 2122,
      "aoi": 2123,
      "Ġcowboy": 2124,
      "minent": 2125,
      "Ġimminent": 2126,
      "lowing": 2127,
      "she": 2128,
      "striped": 2129,
      "Ġhalo": 2130,
      "eding": 2131,
      "Ġweapon": 2132,
      "cchi": 2133,
      "Ġpix": 2134,
      "Ġnin": 2135,
      "Ġstimulation": 2136,
      "Ġtouhou": 2137,
      "Ġé": 2138,
      "amoto": 2139,
      "Ġshar": 2140,
      "Ġspiked": 2141,
      "gear": 2142,
      "cil": 2143,
      "saw": 2144,
      "umbre": 2145,
      "ismatch": 2146,
      "aised": 2147,
      "Ġnag": 2148,
      "mon": 2149,
      "esticle": 2150,
      "Ġgym": 2151,
      "Ġok": 2152,
      "umbrella": 2153,
      "shine": 2154,
      "Ġdo": 2155,
      "ode": 2156,
      "Ġi": 2157,
      "Ġtears": 2158,
      "Ġå": 2159,
      "iation": 2160,
      "uspen": 2161,
      "Ġbook": 2162,
      "Ġbound": 2163,
      "ibr": 2164,
      "tai": 2165,
      "Ġprincess": 2166,
      "Ġbbw": 2167,
      "Ġkou": 2168,
      "Ġorgasm": 2169,
      "Ġgrand": 2170,
      "Ġcheck": 2171,
      "ariant": 2172,
      "Ġiz": 2173,
      "Ġyuuki": 2174,
      "nimated": 2175,
      "Ġsw": 2176,
      "Ġdis": 2177,
      "pyright": 2178,
      "position": 2179,
      "Ġku": 2180,
      "Ġstuffed": 2181,
      "ular": 2182,
      "Ġir": 2183,
      "edy": 2184,
      "dragon": 2185,
      "olf": 2186,
      "bunny": 2187,
      "Ġkit": 2188,
      "Ġdrugs": 2189,
      "Ġwavy": 2190,
      "Ġichi": 2191,
      "Ġknees": 2192,
      "oshimai": 2193,
      "ky": 2194,
      "Ġblindfold": 2195,
      "Ġmilitary": 2196,
      "Ġgender": 2197,
      "lor": 2198,
      "braids": 2199,
      "glass": 2200,
      "Ġtwin": 2201,
      "rew": 2202,
      "heart": 2203,
      "fingers": 2204,
      "tank": 2205,
      "Ġcopyright": 2206,
      "lit": 2207,
      "ĠCom": 2208,
      "Ġof": 2209,
      "hero": 2210,
      "par": 2211,
      "Ġsub": 2212,
      "tretch": 2213,
      "rest": 2214,
      "cross": 2215,
      "._": 2216,
      "dan": 2217,
      "tretched": 2218,
      "etch": 2219,
      "Ġoutstretched": 2220,
      "Ġshe": 2221,
      "asties": 2222,
      "cur": 2223,
      "Ġtok": 2224,
      "itter": 2225,
      "Ġrough": 2226,
      "Ġsign": 2227,
      "Ġkaw": 2228,
      "Ġmeg": 2229,
      "des": 2230,
      "Ġindoors": 2231,
      "Ġorder": 2232,
      "Ġind": 2233,
      "Ġang": 2234,
      "can": 2235,
      "ct": 2236,
      "Ġtsuk": 2237,
      "Ġnan": 2238,
      "Ġbetween": 2239,
      "atting": 2240,
      "chr": 2241,
      "eech": 2242,
      "emi": 2243,
      "smile": 2244,
      "cardigan": 2245,
      "eki": 2246,
      "Ġkuros": 2247,
      "oud": 2248,
      "ishima": 2249,
      "ãĥ©": 2250,
      "Ġhay": 2251,
      "Ġwitch": 2252,
      "Ġsy": 2253,
      "ichan": 2254,
      "20": 2255,
      "Ġkari": 2256,
      "Ġbis": 2257,
      "cup": 2258,
      "Ġtomboy": 2259,
      "Ġsakur": 2260,
      "kne": 2261,
      "ding": 2262,
      "plo": 2263,
      "Ġph": 2264,
      "tical": 2265,
      "lection": 2266,
      "hime": 2267,
      "Ġfrieren": 2268,
      "dden": 2269,
      "kag": 2270,
      "Ġsports": 2271,
      "Ġna": 2272,
      "erence": 2273,
      "Ġnail": 2274,
      "Ġaz": 2275,
      "oli": 2276,
      "Ġtoes": 2277,
      "afuku": 2278,
      "har": 2279,
      "10": 2280,
      "nose": 2281,
      "Ġproject": 2282,
      "eta": 2283,
      "Ġoniichan": 2284,
      "cock": 2285,
      "ror": 2286,
      "Ġpointing": 2287,
      "Ġbak": 2288,
      "Ġimpl": 2289,
      "fly": 2290,
      "Ġmi": 2291,
      "andy": 2292,
      "Ġimplied": 2293,
      "Ġhairband": 2294,
      "Ġbat": 2295,
      "Ġclit": 2296,
      "anta": 2297,
      "lane": 2298,
      "uni": 2299,
      "Ġnight": 2300,
      "Ġtag": 2301,
      "neckerchief": 2302,
      "Ġbro": 2303,
      "nt": 2304,
      "Ġkariinu": 2305,
      "Ġcor": 2306,
      "Ġtomgirl": 2307,
      "Ġoutdoors": 2308,
      "Ġank": 2309,
      "12": 2310,
      "ere": 2311,
      "Ġpillow": 2312,
      "day": 2313,
      "mast": 2314,
      "Ġfront": 2315,
      "Ġshiny": 2316,
      "way": 2317,
      "oc": 2318,
      "Ġbeach": 2319,
      "Ġkon": 2320,
      "arashi": 2321,
      "ryou": 2322,
      "masturbation": 2323,
      "kon": 2324,
      "Ġfox": 2325,
      "seki": 2326,
      "ãĥ¼": 2327,
      "umu": 2328,
      "Ġcrossdressing": 2329,
      "doll": 2330,
      "fu": 2331,
      "Ġhak": 2332,
      "ite": 2333,
      "ider": 2334,
      "hip": 2335,
      "Ġring": 2336,
      "ibrator": 2337,
      "Ġpregnant": 2338,
      "ely": 2339,
      "oda": 2340,
      "isole": 2341,
      "Ġtentacles": 2342,
      "antai": 2343,
      "æĹ": 2344,
      "sword": 2345,
      "Ġcape": 2346,
      "cat": 2347,
      "Ġfocus": 2348,
      "net": 2349,
      "ging": 2350,
      "Ġpr": 2351,
      "åĪ": 2352,
      "jam": 2353,
      "Ġbir": 2354,
      "Ġwo": 2355,
      "source": 2356,
      "ĠFemale": 2357,
      "Ġis": 2358,
      "fan": 2359,
      "tra": 2360,
      "eyelash": 2361,
      "Ġac": 2362,
      "ella": 2363,
      "Ġcowgirl": 2364,
      "upp": 2365,
      "ah": 2366,
      "ein": 2367,
      "eyelashes": 2368,
      "azawa": 2369,
      "Ġanus": 2370,
      "futanari": 2371,
      "iness": 2372,
      "gap": 2373,
      "Ġpersona": 2374,
      "Ġcosplay": 2375,
      "Ġsquatting": 2376,
      "Ġkin": 2377,
      "Ġtrack": 2378,
      "Ġmiz": 2379,
      "Ġshim": 2380,
      "Ġsweatdrop": 2381,
      "Ġturtleneck": 2382,
      "irst": 2383,
      "ristmas": 2384,
      "Ġfeeding": 2385,
      "user": 2386,
      "lay": 2387,
      "pt": 2388,
      "angel": 2389,
      "Ġbike": 2390,
      "Ġold": 2391,
      "Ġdenim": 2392,
      "cum": 2393,
      "Ġpain": 2394,
      "Ġrib": 2395,
      "Ġlat": 2396,
      "feet": 2397,
      "ublic": 2398,
      "amusume": 2399,
      "Ġgam": 2400,
      "Ġsur": 2401,
      "Ġsanta": 2402,
      "åĪĬ": 2403,
      "Ġandrew": 2404,
      "ield": 2405,
      "va": 2406,
      "ĠAnal": 2407,
      "Ġwings": 2408,
      "ona": 2409,
      "aga": 2410,
      "ĠComedy": 2411,
      "Ġhairclip": 2412,
      "Ġhot": 2413,
      "esticles": 2414,
      "ales": 2415,
      "ifting": 2416,
      "Ġmur": 2417,
      "ico": 2418,
      "isk": 2419,
      "eling": 2420,
      "Ġhos": 2421,
      "Ġeyes": 2422,
      "roach": 2423,
      "amp": 2424,
      "isa": 2425,
      "oung": 2426,
      "halo": 2427,
      "Ġshou": 2428,
      "Ġfaceless": 2429,
      "elmet": 2430,
      "Ġshib": 2431,
      "clo": 2432,
      "Ġcut": 2433,
      "aged": 2434,
      "chain": 2435,
      "ĠUniform": 2436,
      "til": 2437,
      "Ġtow": 2438,
      "aze": 2439,
      "Ġchoker": 2440,
      "cockroach": 2441,
      "Ġandrewcockroach": 2442,
      "hu": 2443,
      "mission": 2444,
      "æĹ¥": 2445,
      "rowed": 2446,
      "dasu": 2447,
      "Ġgok": 2448,
      "Ġflat": 2449,
      "Ġstreet": 2450,
      "Ġmer": 2451,
      "formance": 2452,
      "Ġsnow": 2453,
      "Ġperformance": 2454,
      "Ġgenga": 2455,
      "Ġdeformation": 2456,
      "Ġgrin": 2457,
      "urse": 2458,
      "haru": 2459,
      "yak": 2460,
      "Ġhum": 2461,
      "ension": 2462,
      "hen": 2463,
      "super": 2464,
      "hips": 2465,
      "ĠLoli": 2466,
      "strum": 2467,
      "uba": 2468,
      "mus": 2469,
      "Ġgroping": 2470,
      "Ġkat": 2471,
      "Ġres": 2472,
      "lying": 2473,
      "kyou": 2474,
      "ran": 2475,
      "ena": 2476,
      "Ġeyebrows": 2477,
      "alternate": 2478,
      "ading": 2479,
      "ads": 2480,
      "Ġlifting": 2481,
      "ildo": 2482,
      "Ġson": 2483,
      "adoka": 2484,
      "Ġcir": 2485,
      "Ġbuns": 2486,
      "ogg": 2487,
      "ittara": 2488,
      "mari": 2489,
      "academia": 2490,
      "unch": 2491,
      "game": 2492,
      "honki": 2493,
      "condom": 2494,
      "exual": 2495,
      "control": 2496,
      "nets": 2497,
      "animation": 2498,
      "Ġmecha": 2499,
      "Ġglowing": 2500,
      "Ġyo": 2501,
      "Ġrock": 2502,
      "Ġsteam": 2503,
      "Ġbracelet": 2504,
      "Ġholo": 2505,
      "Ġshiro": 2506,
      "Ġnar": 2507,
      "pr": 2508,
      "ima": 2509,
      "Ġexplo": 2510,
      "Ġfacing": 2511,
      "Ġoh": 2512,
      "ness": 2513,
      "squirting": 2514,
      "Ġfrills": 2515,
      "cking": 2516,
      "ãĥ³ãĤ°": 2517,
      "sama": 2518,
      "Ġmes": 2519,
      "eg": 2520,
      "Ġdancing": 2521,
      "tou": 2522,
      "ates": 2523,
      "abo": 2524,
      "Ġarmpit": 2525,
      "panzer": 2526,
      "ĠDark": 2527,
      "Ġclo": 2528,
      "Ġpaw": 2529,
      "Ġgag": 2530,
      "li": 2531,
      "oriko": 2532,
      "Ġwat": 2533,
      "Ġvertical": 2534,
      "Ġbowtie": 2535,
      "pom": 2536,
      "ube": 2537,
      "note": 2538,
      "rd": 2539,
      "umamusume": 2540,
      "ĠGl": 2541,
      "Ġleash": 2542,
      "Ġpublic": 2543,
      "Ġarmor": 2544,
      "ady": 2545,
      "ado": 2546,
      "watch": 2547,
      "azuki": 2548,
      "jamas": 2549,
      "booru": 2550,
      "chou": 2551,
      "kawa": 2552,
      "Ġhoshi": 2553,
      "ital": 2554,
      "Ġpointy": 2555,
      "connection": 2556,
      "iskirt": 2557,
      "obi": 2558,
      "Ġminiskirt": 2559,
      "iro": 2560,
      "bur": 2561,
      "Ġswe": 2562,
      "omance": 2563,
      "azur": 2564,
      "pack": 2565,
      "ipper": 2566,
      "Ġwor": 2567,
      "Ġshadow": 2568,
      "Ġpencil": 2569,
      "Ġbath": 2570,
      "omiya": 2571,
      "che": 2572,
      "19": 2573,
      "Ġgun": 2574,
      "Ġcup": 2575,
      "tional": 2576,
      "Ġsignature": 2577,
      "tsuna": 2578,
      "cular": 2579,
      "Ġproducer": 2580,
      "rail": 2581,
      "orehead": 2582,
      "fellatio": 2583,
      "Ġsek": 2584,
      "oe": 2585,
      "expo": 2586,
      "len": 2587,
      "Ġtile": 2588,
      "Ġbodysuit": 2589,
      "ĠYoung": 2590,
      "Ġtri": 2591,
      "Ġstring": 2592,
      "Ġfre": 2593,
      "pless": 2594,
      "Ġimpact": 2595,
      "andjob": 2596,
      "Ġanimator": 2597,
      "dai": 2598,
      "Ġlolita": 2599,
      "039": 2600,
      "son": 2601,
      "ãĥĹ": 2602,
      "rose": 2603,
      "ust": 2604,
      "car": 2605,
      "other": 2606,
      "oggles": 2607,
      "Ġsou": 2608,
      "Ġhero": 2609,
      "pillow": 2610,
      "Ġsa": 2611,
      "fri": 2612,
      "barr": 2613,
      "Anal": 2614,
      "vel": 2615,
      "omers": 2616,
      "Ġpresent": 2617,
      "ute": 2618,
      "lan": 2619,
      "Ġfishnets": 2620,
      "&#": 2621,
      "Ġcomic": 2622,
      "cam": 2623,
      "ago": 2624,
      "Ġshik": 2625,
      "Ġpresenting": 2626,
      "moon": 2627,
      "party": 2628,
      "ery": 2629,
      "Ġtowel": 2630,
      "Ġlay": 2631,
      "ãĤ¤ãĥ": 2632,
      "Ġbottom": 2633,
      "sun": 2634,
      "Ġue": 2635,
      "aff": 2636,
      "Ġsensei": 2637,
      "Ġcell": 2638,
      "drip": 2639,
      "Ġhidden": 2640,
      "iding": 2641,
      "erle": 2642,
      "Ġic": 2643,
      "forward": 2644,
      "pec": 2645,
      "Ġmir": 2646,
      "robe": 2647,
      "fur": 2648,
      "outf": 2649,
      "ĠHandjob": 2650,
      "kiss": 2651,
      "ality": 2652,
      "ient": 2653,
      "rists": 2654,
      "Ġspeech": 2655,
      "Ġair": 2656,
      "Ġtachi": 2657,
      "Ġwalk": 2658,
      "cg": 2659,
      "ĠRape": 2660,
      "Ġot": 2661,
      "eur": 2662,
      "blo": 2663,
      "elda": 2664,
      "ĠGlasses": 2665,
      "Ġqu": 2666,
      "Ġsuspen": 2667,
      "udity": 2668,
      "Ġcoat": 2669,
      "Ġkneehighs": 2670,
      "rim": 2671,
      "Big": 2672,
      "ny": 2673,
      "wrists": 2674,
      "Ġfloral": 2675,
      "aigh": 2676,
      "aight": 2677,
      "agawa": 2678,
      "uz": 2679,
      "Ġhin": 2680,
      "Ġtoen": 2681,
      "¤ãĥ³ãĤ°": 2682,
      "strument": 2683,
      "Ġday": 2684,
      "ĠSex": 2685,
      "Ġyou": 2686,
      "ren": 2687,
      "Ġoshi": 2688,
      "Ġuehara": 2689,
      "Ġtear": 2690,
      "oyeur": 2691,
      "oyeurism": 2692,
      "esis": 2693,
      "Ġhooded": 2694,
      "Ġbrid": 2695,
      "ecg": 2696,
      "frieren": 2697,
      "Ġcrop": 2698,
      "Ġburn": 2699,
      "diff": 2700,
      "Ġbell": 2701,
      "difference": 2702,
      "Ġbottomless": 2703,
      "Ġben": 2704,
      "Ġmini": 2705,
      "cycle": 2706,
      "æĹ¥åı·": 2707,
      "Ġsug": 2708,
      "hairstyle": 2709,
      "Ġchristmas": 2710,
      "Ġexplosion": 2711,
      "Ġcellphone": 2712,
      "gawa": 2713,
      "aby": 2714,
      "Ġflying": 2715,
      "Ġmotion": 2716,
      "sheet": 2717,
      "garter": 2718,
      "flag": 2719,
      "Ġsai": 2720,
      "Ġæ": 2721,
      "capelet": 2722,
      "Ġoffice": 2723,
      "manga": 2724,
      "ext": 2725,
      "kaz": 2726,
      "rock": 2727,
      "bris": 2728,
      "Ġhorse": 2729,
      "Ġstraight": 2730,
      "Ġnurse": 2731,
      "isaki": 2732,
      "wer": 2733,
      "Ġele": 2734,
      "Ġcy": 2735,
      "Ġphone": 2736,
      "shoujo": 2737,
      "barrass": 2738,
      "princess": 2739,
      "necklace": 2740,
      "Ġkok": 2741,
      "iant": 2742,
      "Ġset": 2743,
      "Ġit": 2744,
      "ashita": 2745,
      "Ġall": 2746,
      "Ġbox": 2747,
      "Ġ^": 2748,
      "Ġsan": 2749,
      "Ġmahou": 2750,
      "barrassed": 2751,
      "Ġrobot": 2752,
      "Ġgame": 2753,
      "Ġembarrassed": 2754,
      "knee": 2755,
      "Ġstud": 2756,
      "Ġnecklace": 2757,
      "anal": 2758,
      "reath": 2759,
      "Ġdebris": 2760,
      "ĠMale": 2761,
      "Ġerection": 2762,
      "wrist": 2763,
      "ich": 2764,
      "ckles": 2765,
      "cer": 2766,
      "sa": 2767,
      "Ġmuscular": 2768,
      "rem": 2769,
      "Ġcomple": 2770,
      "buster": 2771,
      "bou": 2772,
      "Ġwooden": 2773,
      "Ġribbed": 2774,
      "Ġfinal": 2775,
      "username": 2776,
      "Ġmomo": 2777,
      "11": 2778,
      "untle": 2779,
      "untlets": 2780,
      "igital": 2781,
      "spar": 2782,
      "short": 2783,
      "jima": 2784,
      "nen": 2785,
      "dark": 2786,
      "ifune": 2787,
      "ĠUncensored": 2788,
      "fin": 2789,
      "above": 2790,
      "ĠTh": 2791,
      "straps": 2792,
      "Ġhololive": 2793,
      "file": 2794,
      "Ġkot": 2795,
      "Ġdrill": 2796,
      "Ġgoggles": 2797,
      "shizuku": 2798,
      "pany": 2799,
      "Ġchibi": 2800,
      "button": 2801,
      "ainst": 2802,
      "Ġwolf": 2803,
      "Ġbakemonogatari": 2804,
      "Ġ34": 2805,
      "Ġself": 2806,
      "Ġbisexual": 2807,
      "±åĪĬ": 2808,
      "Ģ±åĪĬ": 2809,
      "zen": 2810,
      "past": 2811,
      "Ġãģ": 2812,
      "Ġwinter": 2813,
      "ayashi": 2814,
      "eekly": 2815,
      "Ġbent": 2816,
      "Ġfingerless": 2817,
      "Ġminami": 2818,
      "idman": 2819,
      "eda": 2820,
      "sparent": 2821,
      "character": 2822,
      "Ġejaculation": 2823,
      "Ġkneeling": 2824,
      "ascension": 2825,
      "ĠTw": 2826,
      "Ġgamecg": 2827,
      "Ġbob": 2828,
      "Ġcatgirl": 2829,
      "train": 2830,
      "world": 2831,
      "ĠGirl": 2832,
      "cr": 2833,
      "Ġgot": 2834,
      "addling": 2835,
      "scale": 2836,
      "Ġsketch": 2837,
      "Ġ37": 2838,
      "Ġry": 2839,
      "iger": 2840,
      "Ġtran": 2841,
      "vision": 2842,
      "tube": 2843,
      "nerae": 2844,
      "tsuki": 2845,
      "strip": 2846,
      "mil": 2847,
      "theme": 2848,
      "Ġloo": 2849,
      "Ġserafuku": 2850,
      "sw": 2851,
      "Ġfat": 2852,
      "away": 2853,
      "bana": 2854,
      "host": 2855,
      "Ġlatex": 2856,
      "actor": 2857,
      "tuber": 2858,
      "Ġayase": 2859,
      "Ġagainst": 2860,
      "tori": 2861,
      "Ġrin": 2862,
      "Ġ26": 2863,
      "ĠRomance": 2864,
      "Ġsoles": 2865,
      "yuk": 2866,
      "water": 2867,
      "Ġdes": 2868,
      "tied": 2869,
      "tely": 2870,
      "Ġtopless": 2871,
      "Ġcompletely": 2872,
      "war": 2873,
      "Ġ35": 2874,
      "Ġice": 2875,
      "Ġky": 2876,
      "Ġnun": 2877,
      "Ġble": 2878,
      "Ġ30": 2879,
      "crotch": 2880,
      "aseball": 2881,
      "oice": 2882,
      "Ġsil": 2883,
      "Ġmifune": 2884,
      "outfit": 2885,
      "Ġore": 2886,
      "Ġ24": 2887,
      "four": 2888,
      "isu": 2889,
      "Ġ18": 2890,
      "Ġhon": 2891,
      "hicle": 2892,
      "azine": 2893,
      "supp": 2894,
      "erspec": 2895,
      "Ġ45": 2896,
      "support": 2897,
      "erspective": 2898,
      "rup": 2899,
      "vangel": 2900,
      "Ġvoyeurism": 2901,
      "Ġ38": 2902,
      "Ġ27": 2903,
      "Ġ31": 2904,
      "Ġtransparent": 2905,
      "Ġ33": 2906,
      "Ġkarin": 2907,
      "Ġ40": 2908,
      "Ġ29": 2909,
      "Ġsplit": 2910,
      "Ġobject": 2911,
      "Ġ43": 2912,
      "Ġbraided": 2913,
      "Ġ32": 2914,
      "Ġ25": 2915,
      "orso": 2916,
      "Ġwak": 2917,
      "Ġstraddling": 2918,
      "Ġforehead": 2919,
      "arai": 2920,
      "Ġkantai": 2921,
      "Ġwindow": 2922,
      "ged": 2923,
      "flation": 2924,
      "vangelion": 2925,
      "Ġmed": 2926,
      "Ġ39": 2927,
      "Ġexplosions": 2928,
      "zelda": 2929,
      "Ġnek": 2930,
      "Ġ19": 2931,
      "tendo": 2932,
      "ĠDr": 2933,
      "sato": 2934,
      "Ġvest": 2935,
      "arc": 2936,
      "colate": 2937,
      "Ġgokkun": 2938,
      "Ġ41": 2939,
      "ukufuku": 2940,
      "Ġmas": 2941,
      "Ġsekoshi": 2942,
      "Ġemma": 2943,
      "patch": 2944,
      "Ġ0": 2945,
      "Ġ42": 2946,
      "Ġskull": 2947,
      "views": 2948,
      "sports": 2949,
      "Ġpa": 2950,
      "Ġleaf": 2951,
      "Ġ22": 2952,
      "Ġheadphones": 2953,
      "ani": 2954,
      "Ġ50": 2955,
      "jutsu": 2956,
      "ĠWeekly": 2957,
      "Ġnintendo": 2958,
      "bat": 2959,
      "chin": 2960,
      "Ġyasu": 2961,
      "ĠHairy": 2962,
      "Ġcircle": 2963,
      "elly": 2964,
      "Ġ21": 2965,
      "navel": 2966,
      "Ġvibrator": 2967,
      "ded": 2968,
      "Ġ44": 2969,
      "Ġspan": 2970,
      "Ġnew": 2971,
      "my": 2972,
      "Ġken": 2973,
      "ĠéĢ±åĪĬ": 2974,
      "Ġtai": 2975,
      "Ġpaper": 2976,
      "Ġ36": 2977,
      "ason": 2978,
      "Ġfingernails": 2979,
      "usha": 2980,
      "ĠFo": 2981,
      "Ġyoshida": 2982,
      "Ġplant": 2983,
      "Ġcloud": 2984,
      "Ġ28": 2985,
      "ader": 2986,
      "..": 2987,
      "Ġhalter": 2988,
      "Ġ48": 2989,
      "Ġsideboob": 2990,
      "Ġthong": 2991,
      "Ġlan": 2992,
      "Ġemo": 2993,
      "table": 2994,
      "Ġ23": 2995,
      "ĠTwintails": 2996,
      "tionless": 2997,
      "aced": 2998,
      "Ġfellatio": 2999,
      "persona": 3000,
      "dsm": 3001,
      "Ġ46": 3002,
      "threesome": 3003,
      "Ġtachibana": 3004,
      "field": 3005,
      "allen": 3006,
      "Ġgroin": 3007,
      "ja": 3008,
      "asket": 3009,
      "Ġswept": 3010,
      "Ġyaoi": 3011,
      "Ġfruit": 3012,
      "Ġfishnet": 3013,
      "blade": 3014,
      "atsum": 3015,
      "bir": 3016,
      "terfly": 3017,
      "Ġreach": 3018,
      "kur": 3019,
      "Ġik": 3020,
      "Ġmet": 3021,
      "Ġãĥ¤ãĥ³ãĤ°": 3022,
      "gag": 3023,
      "Ġpom": 3024,
      "machi": 3025,
      "oshita": 3026,
      "Ġfut": 3027,
      "Ġscarf": 3028,
      "trail": 3029,
      "ucked": 3030,
      "pocket": 3031,
      "Ġvariant": 3032,
      "cure": 3033,
      "Ġkn": 3034,
      "Ġfreckles": 3035,
      "Ġbus": 3036,
      "Ġankle": 3037,
      "mu": 3038,
      "Ġmono": 3039,
      "amo": 3040,
      "Ġkei": 3041,
      "estiality": 3042,
      "Animated": 3043,
      "writing": 3044,
      "och": 3045,
      "ict": 3046,
      "ann": 3047,
      "ĠThreesome": 3048,
      "Ġfrench": 3049,
      "Ġsuz": 3050,
      "headdress": 3051,
      "Ġsunshine": 3052,
      "Ġmel": 3053,
      "Ġhoshino": 3054,
      "cent": 3055,
      "Ġasuna": 3056,
      "je": 3057,
      "tree": 3058,
      "Ġimposs": 3059,
      "Ġimpossible": 3060,
      "anblue": 3061,
      "oris": 3062,
      "Ġsuspender": 3063,
      "Ġ2024": 3064,
      "red": 3065,
      "Ġeyelashes": 3066,
      "Ġchest": 3067,
      "Ġtakasaki": 3068,
      "ĠSwimsuit": 3069,
      "Ġ49": 3070,
      "string": 3071,
      "Ġzet": 3072,
      "aragi": 3073,
      "Ġha": 3074,
      "Ġkob": 3075,
      "Ġwing": 3076,
      "yoshi": 3077,
      "hia": 3078,
      "estern": 3079,
      "Ġ53": 3080,
      "Ġround": 3081,
      "yuri": 3082,
      "academy": 3083,
      "lot": 3084,
      "Ġnakasu": 3085,
      "Ġ47": 3086,
      "Ġbackground": 3087,
      "Ġsunglasses": 3088,
      "mov": 3089,
      "Ġ51": 3090,
      "venient": 3091,
      "ctr": 3092,
      "sai": 3093,
      "Ġgenshin": 3094,
      "Ġkyou": 3095,
      "Ġake": 3096,
      "aro": 3097,
      "amily": 3098,
      "Ġloose": 3099,
      "Ġpasties": 3100,
      "ames": 3101,
      "inted": 3102,
      "Ġcardigan": 3103,
      "sub": 3104,
      "Ġlab": 3105,
      "Ġpixie": 3106,
      "Ġcrown": 3107,
      "Ġfer": 3108,
      "ĠBondage": 3109,
      "Ġsmart": 3110,
      "ĠPonytail": 3111,
      "buttoned": 3112,
      "vy": 3113,
      "men": 3114,
      "Ġ52": 3115,
      "paizuri": 3116,
      "Ġhoodie": 3117,
      "nel": 3118,
      "Ġblaz": 3119,
      "Ġzettai": 3120,
      "Ġmu": 3121,
      "iliation": 3122,
      "ãĥĹãĥ": 3123,
      "Ġton": 3124,
      "Ġhou": 3125,
      "clera": 3126,
      "ley": 3127,
      "Ġboku": 3128,
      "ketsu": 3129,
      "Ġpolice": 3130,
      "crown": 3131,
      "land": 3132,
      "Ġfold": 3133,
      "ĠX": 3134,
      "Ġti": 3135,
      "meg": 3136,
      "anus": 3137,
      "Ġmeme": 3138,
      "Ġbridal": 3139,
      "mir": 3140,
      "Ġbleach": 3141,
      "pris": 3142,
      "ola": 3143,
      "Ġchair": 3144,
      "ousin": 3145,
      "Ġraised": 3146,
      "ĠNetorare": 3147,
      "Ġbaseball": 3148,
      "Ġcandy": 3149,
      "Ġexpos": 3150,
      "Ġzero": 3151,
      "hol": 3152,
      "Ġartistcg": 3153,
      "Ġangel": 3154,
      "Ġcollection": 3155,
      "Ġcheckered": 3156,
      "Ġtext": 3157,
      "Ġ54": 3158,
      "pression": 3159,
      "Ġmix": 3160,
      "Ġnishik": 3161,
      "aruto": 3162,
      "umin": 3163,
      "ĠAs": 3164,
      "ll": 3165,
      "ayaka": 3166,
      "suik": 3167,
      "Ġcumdrip": 3168,
      "sousou": 3169,
      "Ġwr": 3170,
      "bro": 3171,
      "Ġundressing": 3172,
      "fours": 3173,
      "iny": 3174,
      "oblin": 3175,
      "anojo": 3176,
      "Ġsekai": 3177,
      "Ġunderboob": 3178,
      "chanical": 3179,
      "oman": 3180,
      "asual": 3181,
      "Ġlipstick": 3182,
      "rool": 3183,
      "zawa": 3184,
      "phy": 3185,
      "Ġsmartphone": 3186,
      "Ġsne": 3187,
      "Ġbul": 3188,
      "'_": 3189,
      "sized": 3190,
      "sand": 3191,
      "era": 3192,
      "Ġoral": 3193,
      "Ġkasumi": 3194,
      "ayo": 3195,
      "abi": 3196,
      "ĠPen": 3197,
      "card": 3198,
      "Ġsummer": 3199,
      "Ġbloomers": 3200,
      "madoka": 3201,
      "Ġown": 3202,
      "emono": 3203,
      "channel": 3204,
      "get": 3205,
      "Ġbandaged": 3206,
      "lady": 3207,
      "towel": 3208,
      "Ġ201": 3209,
      "Ġmismatch": 3210,
      "ayoi": 3211,
      "Ġfores": 3212,
      "Ġmismatched": 3213,
      "full": 3214,
      "gundam": 3215,
      "curtain": 3216,
      "Ġlayered": 3217,
      "whi": 3218,
      "obu": 3219,
      "stimulation": 3220,
      "Ġconvenient": 3221,
      "Ġshizuku": 3222,
      "suikoden": 3223,
      "Ġgu": 3224,
      "ida": 3225,
      "Ġyuu": 3226,
      "Ġbackless": 3227,
      "size": 3228,
      "chainsaw": 3229,
      "bracelet": 3230,
      "ĠDe": 3231,
      "kar": 3232,
      "Ġap": 3233,
      "vaginal": 3234,
      "Ġ55": 3235,
      "ening": 3236,
      "nakadashi": 3237,
      "ryouiki": 3238,
      "Ġegg": 3239,
      "ze": 3240,
      "01": 3241,
      "inging": 3242,
      "obl": 3243,
      "ced": 3244,
      "uda": 3245,
      "çĶ": 3246,
      "Ġsandals": 3247,
      "Ġrose": 3248,
      "Ġminig": 3249,
      "ppai": 3250,
      "Ġq": 3251,
      "einen": 3252,
      "sid": 3253,
      "Ġfall": 3254,
      "sclera": 3255,
      "anabe": 3256,
      "Ġdoll": 3257,
      "sao": 3258,
      "pin": 3259,
      "Ġdai": 3260,
      "achine": 3261,
      "oo": 3262,
      "Ġperspective": 3263,
      "ifle": 3264,
      "him": 3265,
      "Ġcgi": 3266,
      "bm": 3267,
      "hito": 3268,
      "ative": 3269,
      "Ġ56": 3270,
      "Ġreaching": 3271,
      "hota": 3272,
      "ageset": 3273,
      "fac": 3274,
      "group": 3275,
      "cloak": 3276,
      "superstar": 3277,
      "Ġmob": 3278,
      "Ġtree": 3279,
      "below": 3280,
      "Ġincom": 3281,
      "Ġdraw": 3282,
      "mak": 3283,
      "aman": 3284,
      "chinese": 3285,
      "aditional": 3286,
      "kit": 3287,
      "erser": 3288,
      "aughter": 3289,
      "Ġsneak": 3290,
      "Ġtsur": 3291,
      "sekai": 3292,
      "ashima": 3293,
      "lap": 3294,
      "ķãĥ©": 3295,
      "Ġsparkle": 3296,
      "Ġbird": 3297,
      "Ġ57": 3298,
      "Ġkurosawa": 3299,
      "key": 3300,
      "Ġ58": 3301,
      "Ġmatsu": 3302,
      "iet": 3303,
      "Ġboun": 3304,
      "ĠEn": 3305,
      "Ġ17": 3306,
      "een": 3307,
      "Ġtesticles": 3308,
      "Ġhalterneck": 3309,
      "self": 3310,
      "Ġblank": 3311,
      "owgirl": 3312,
      "antom": 3313,
      "Ġtable": 3314,
      "ashing": 3315,
      "Ġbouncing": 3316,
      "Ġgirls": 3317,
      "ete": 3318,
      "Ġemotionless": 3319,
      "schoolgirl": 3320,
      "uckle": 3321,
      "Ġplaying": 3322,
      "eyed": 3323,
      "Ġfrown": 3324,
      "Ġkonoe": 3325,
      "Ġsousou": 3326,
      "Ġ16": 3327,
      "inner": 3328,
      "Ġwari": 3329,
      "Ġcap": 3330,
      "lave": 3331,
      "layboy": 3332,
      "Ġeyepatch": 3333,
      "raft": 3334,
      "Ġstraw": 3335,
      "Ġ60": 3336,
      "rape": 3337,
      "igaya": 3338,
      "venus": 3339,
      "Ġbutterfly": 3340,
      "Ġtoe": 3341,
      "Ġtoaru": 3342,
      "Ġkai": 3343,
      "osuba": 3344,
      "Ġakebi": 3345,
      "scre": 3346,
      "ekawa": 3347,
      "Ġloli": 3348,
      "stone": 3349,
      "connect": 3350,
      "Ġfurry": 3351,
      "enai": 3352,
      "angan": 3353,
      "Ġorgasms": 3354,
      "airy": 3355,
      "uber": 3356,
      "ãĥĥ": 3357,
      "erleader": 3358,
      "logo": 3359,
      "Ġplug": 3360,
      "toe": 3361,
      "int": 3362,
      "Ġ13": 3363,
      "hal": 3364,
      "ĠCol": 3365,
      "aping": 3366,
      "ervix": 3367,
      "cloth": 3368,
      "mel": 3369,
      "heel": 3370,
      "anda": 3371,
      "ams": 3372,
      "irtual": 3373,
      "Ġprofile": 3374,
      "atte": 3375,
      "tongue": 3376,
      "season": 3377,
      "queen": 3378,
      "ower": 3379,
      "tile": 3380,
      "bathing": 3381,
      "Ġber": 3382,
      "Ġpret": 3383,
      "ser": 3384,
      "Ġneon": 3385,
      "chrome": 3386,
      "hy": 3387,
      "web": 3388,
      "konosuba": 3389,
      "Ġbear": 3390,
      "Ġdildo": 3391,
      "bod": 3392,
      "Ġleather": 3393,
      "zone": 3394,
      "black": 3395,
      "umetsu": 3396,
      "camisole": 3397,
      "ĠFfm": 3398,
      "Ġbocchi": 3399,
      "ĠDou": 3400,
      "hinose": 3401,
      "Ġichinose": 3402,
      "open": 3403,
      "tag": 3404,
      "Ġke": 3405,
      "rot": 3406,
      "Ġfolded": 3407,
      "Ġtiara": 3408,
      "Ġbestiality": 3409,
      "anging": 3410,
      "Ġplayboy": 3411,
      "Ġblazer": 3412,
      "Ġpocket": 3413,
      "Ġgift": 3414,
      "fore": 3415,
      "laced": 3416,
      "Ġyor": 3417,
      "ication": 3418,
      "Ġdom": 3419,
      "Ġdot": 3420,
      "Ġmiyashita": 3421,
      "mik": 3422,
      "odon": 3423,
      "Ġãĥķãĥ©": 3424,
      "Ġsharp": 3425,
      "entation": 3426,
      "indentation": 3427,
      "Ġskindentation": 3428,
      "Ġhim": 3429,
      "ãĤ¸": 3430,
      "athers": 3431,
      "Ġsneakers": 3432,
      "Ġsetsuna": 3433,
      "mismatch": 3434,
      "Ġtwitter": 3435,
      "Ġmot": 3436,
      "Ġmachi": 3437,
      "die": 3438,
      "ney": 3439,
      "yout": 3440,
      "oria": 3441,
      "Ġspo": 3442,
      "ca": 3443,
      "enobl": 3444,
      "hina": 3445,
      "enoblade": 3446,
      "Ġimageset": 3447,
      "Ġ59": 3448,
      "Ġextra": 3449,
      "Ġfuj": 3450,
      "Ġcurtain": 3451,
      "Ġzipper": 3452,
      "flow": 3453,
      "Ġyasuomi": 3454,
      "Ġseri": 3455,
      "ĠPlayboy": 3456,
      "Ġpat": 3457,
      "ury": 3458,
      "umber": 3459,
      "colors": 3460,
      "blowjob": 3461,
      "rol": 3462,
      "esitting": 3463,
      "helmet": 3464,
      "Ġghost": 3465,
      "Ġsor": 3466,
      "hadow": 3467,
      "tur": 3468,
      "Ġbdsm": 3469,
      "Ġexpression": 3470,
      "Ġmass": 3471,
      "ipped": 3472,
      "legends": 3473,
      "koma": 3474,
      "Ġscrunchie": 3475,
      "Ġwariza": 3476,
      "ham": 3477,
      "Ġ12": 3478,
      "Ġhib": 3479,
      "Ġindex": 3480,
      "dle": 3481,
      "Ġayumu": 3482,
      "uild": 3483,
      "nights": 3484,
      "Ġ62": 3485,
      "Ġrub": 3486,
      "ĠMilf": 3487,
      "bling": 3488,
      "rescent": 3489,
      "Ġwatanabe": 3490,
      "Ġgotou": 3491,
      "izu": 3492,
      "Ġage": 3493,
      "ĠSeinen": 3494,
      "cean": 3495,
      "tress": 3496,
      "Ġalice": 3497,
      "Ġdaughter": 3498,
      "Ġmoon": 3499,
      "pat": 3500,
      "ejaculation": 3501,
      "pet": 3502,
      "Ġcervix": 3503,
      "raised": 3504,
      "Ġref": 3505,
      "sakura": 3506,
      "Ġpig": 3507,
      "friends": 3508,
      "Ġdisem": 3509,
      "miku": 3510,
      "ification": 3511,
      "shadow": 3512,
      "Ġtsub": 3513,
      "Ġmonochrome": 3514,
      "gings": 3515,
      "Ġasaka": 3516,
      "Ġbandages": 3517,
      "Ġcarrying": 3518,
      "Ġhugging": 3519,
      "Ġmixed": 3520,
      "Ġhorn": 3521,
      "orset": 3522,
      "ez": 3523,
      "Ġ>": 3524,
      "Ġfalling": 3525,
      "toes": 3526,
      "don": 3527,
      "Ġslave": 3528,
      "andere": 3529,
      "Ġneckerchief": 3530,
      "Ġaoi": 3531,
      "tomo": 3532,
      "stickers": 3533,
      "youtuber": 3534,
      "Ġdok": 3535,
      "Ġ15": 3536,
      "Ġmay": 3537,
      "alking": 3538,
      "yakodon": 3539,
      "Ġstreak": 3540,
      "works": 3541,
      "Ġyamada": 3542,
      "anami": 3543,
      "Ġfuk": 3544,
      "ormal": 3545,
      "Ġsurpris": 3546,
      "tool": 3547,
      "Ġcasual": 3548,
      "Ġcommission": 3549,
      "atsumi": 3550,
      "Ġpretty": 3551,
      "Ġham": 3552,
      "ema": 3553,
      "Ġshared": 3554,
      "illy": 3555,
      "Ġ14": 3556,
      "Ġgreyscale": 3557,
      "Ġzen": 3558,
      "Ġakira": 3559,
      "omata": 3560,
      "23": 3561,
      "arknights": 3562,
      "Ġthird": 3563,
      "Ġstreaked": 3564,
      "Ġsash": 3565,
      "oue": 3566,
      "bodied": 3567,
      "Ġdisembodied": 3568,
      "Ġcousin": 3569,
      "Ġcrescent": 3570,
      "Ġkom": 3571,
      "ĠIncest": 3572,
      "priv": 3573,
      "roid": 3574,
      "Ġpal": 3575,
      "bob": 3576,
      "angu": 3577,
      "aber": 3578,
      "ways": 3579,
      "zomi": 3580,
      "state": 3581,
      "ĠSkin": 3582,
      "erry": 3583,
      "Ġwed": 3584,
      "Ġhir": 3585,
      "rembling": 3586,
      "punk": 3587,
      "sum": 3588,
      "Ġtrembling": 3589,
      "brush": 3590,
      "ĠEx": 3591,
      "cowgirl": 3592,
      "alent": 3593,
      "ãģ¿": 3594,
      "Ġeyewear": 3595,
      "Ġsound": 3596,
      "Ġpee": 3597,
      "Ġswim": 3598,
      "Ġpower": 3599,
      "Ġhumiliation": 3600,
      "Ġexposed": 3601,
      "elv": 3602,
      "kei": 3603,
      "Ġ!": 3604,
      "hil": 3605,
      "Ġelectr": 3606,
      "Ġ?": 3607,
      "umb": 3608,
      "Ġlightning": 3609,
      "ĠShota": 3610,
      "plate": 3611,
      "Ġlips": 3612,
      "omb": 3613,
      "Ġwall": 3614,
      "hole": 3615,
      "tsub": 3616,
      "phantom": 3617,
      "akami": 3618,
      "aint": 3619,
      "ĠLingerie": 3620,
      "nag": 3621,
      "shuu": 3622,
      "alls": 3623,
      "Ġmagical": 3624,
      "tug": 3625,
      "isted": 3626,
      "Ġtaka": 3627,
      "Ġanten": 3628,
      "Ġ11": 3629,
      "Ġcamel": 3630,
      "Ġveiny": 3631,
      "eno": 3632,
      "Ġkas": 3633,
      "Ġju": 3634,
      "dis": 3635,
      "Ġrain": 3636,
      "Ġmechanical": 3637,
      "xiation": 3638,
      "Ġbreath": 3639,
      "anime": 3640,
      "Ġbottle": 3641,
      "phyxiation": 3642,
      "umo": 3643,
      "Ġhipa": 3644,
      "ross": 3645,
      "elia": 3646,
      "Ġoppai": 3647,
      "Ġhachi": 3648,
      "gener": 3649,
      "Ġdrool": 3650,
      "front": 3651,
      "Ġdrooling": 3652,
      "sucking": 3653,
      "Ġbor": 3654,
      "legend": 3655,
      "Ġinvisible": 3656,
      "ideo": 3657,
      "Ġsatou": 3658,
      "tilt": 3659,
      "outo": 3660,
      "Ġpool": 3661,
      "Ġlet": 3662,
      "Ġ61": 3663,
      "Ġlin": 3664,
      "Ġnerv": 3665,
      "ĠAsian": 3666,
      "LA": 3667,
      "nik": 3668,
      "Ġborder": 3669,
      "birth": 3670,
      "Ġ63": 3671,
      "Ġchocolate": 3672,
      "Ġge": 3673,
      "utch": 3674,
      "gem": 3675,
      "uy": 3676,
      "ala": 3677,
      "ĠDefloration": 3678,
      "igar": 3679,
      "Ġbuttons": 3680,
      "ior": 3681,
      "ãĤ·": 3682,
      "Ġtoki": 3683,
      "Ġhik": 3684,
      "Ġgiant": 3685,
      "berpunk": 3686,
      "SH": 3687,
      "kketsu": 3688,
      "vi": 3689,
      "voice": 3690,
      "Ġnij": 3691,
      "trap": 3692,
      "alentine": 3693,
      "Ġfurrowed": 3694,
      "addle": 3695,
      "icle": 3696,
      "aloid": 3697,
      "ocaloid": 3698,
      "Ġund": 3699,
      "Ġheavy": 3700,
      "queez": 3701,
      "Ġbiting": 3702,
      "updo": 3703,
      "Ġmetal": 3704,
      "Ġmiko": 3705,
      "controller": 3706,
      "hak": 3707,
      "Ġtiger": 3708,
      "ĠKemonomimi": 3709,
      "omia": 3710,
      "night": 3711,
      "Ġhanging": 3712,
      "ailable": 3713,
      "available": 3714,
      "LASH": 3715,
      "uto": 3716,
      "ľãĥ¼": 3717,
      "Ġjack": 3718,
      "Ġcameltoe": 3719,
      "ľãĥ¼ãĤ¤": 3720,
      "Ġcard": 3721,
      "Ġfern": 3722,
      "akane": 3723,
      "tsuk": 3724,
      "orean": 3725,
      "loween": 3726,
      "pajamas": 3727,
      "Ahegao": 3728,
      "zhu": 3729,
      "isan": 3730,
      "sticks": 3731,
      "ayome": 3732,
      "new": 3733,
      "cream": 3734,
      "val": 3735,
      "Ġkinoshita": 3736,
      "rs": 3737,
      "Ġ65": 3738,
      "erserk": 3739,
      "ãĤ·ãĥ": 3740,
      "Ġverde": 3741,
      "honkai": 3742,
      "Ġmessy": 3743,
      "Ġnervous": 3744,
      "spl": 3745,
      "xe": 3746,
      "¬ãĤ¤ãĥ": 3747,
      "ãĥĹãĥ¬ãĤ¤ãĥ": 3748,
      "Ġdated": 3749,
      "imura": 3750,
      "minori": 3751,
      "inder": 3752,
      "Ġpor": 3753,
      "shiki": 3754,
      "maidon": 3755,
      "Ġtoenails": 3756,
      "company": 3757,
      "Ġtearing": 3758,
      "dro": 3759,
      "hor": 3760,
      "Ġty": 3761,
      "unter": 3762,
      "shima": 3763,
      "ĠVery": 3764,
      "Ġexpressionless": 3765,
      "Ġclaw": 3766,
      "miy": 3767,
      "Ġkous": 3768,
      "agami": 3769,
      "Ġsib": 3770,
      "Ġdutch": 3771,
      "urai": 3772,
      "Ġram": 3773,
      "ayer": 3774,
      "lings": 3775,
      "Ġchina": 3776,
      "Ġnahia": 3777,
      "Ġsurprised": 3778,
      "paku": 3779,
      "emo": 3780,
      "amaru": 3781,
      "tocking": 3782,
      "Ġmaken": 3783,
      "ãĥĹãĥ¬ãĤ¤ãĥľãĥ¼ãĤ¤": 3784,
      "idolmaster": 3785,
      "gystyle": 3786,
      "ĠDouble": 3787,
      "Ġmassage": 3788,
      "Ġpi": 3789,
      "Ġspider": 3790,
      "ĠMulti": 3791,
      "Ġdead": 3792,
      "straw": 3793,
      "Ġoversized": 3794,
      "Ġla": 3795,
      "Ġdoggystyle": 3796,
      "Ġkiss": 3797,
      "06": 3798,
      "non": 3799,
      "Ġformal": 3800,
      "iga": 3801,
      "Ġpetals": 3802,
      "Ġpin": 3803,
      "alin": 3804,
      "Ġgang": 3805,
      "Ġ66": 3806,
      "granblue": 3807,
      "Ġsubarashi": 3808,
      "warm": 3809,
      "iter": 3810,
      "vent": 3811,
      "ĠAnimated": 3812,
      "Ġswinging": 3813,
      "sunshine": 3814,
      "ascot": 3815,
      "Ġpole": 3816,
      "afers": 3817,
      "bul": 3818,
      "wrap": 3819,
      "hong": 3820,
      "hei": 3821,
      "Ġprostate": 3822,
      "reward": 3823,
      "otjob": 3824,
      "Ġsideways": 3825,
      "ringo": 3826,
      "Ġmom": 3827,
      "ident": 3828,
      "Ġmouse": 3829,
      "Ġsec": 3830,
      "Ġhip": 3831,
      "Ġcheerleader": 3832,
      "Ġsilver": 3833,
      "diebuster": 3834,
      "08": 3835,
      "zuka": 3836,
      "igi": 3837,
      "iii": 3838,
      "Ġkita": 3839,
      "atching": 3840,
      "Ġused": 3841,
      "hort": 3842,
      "Ġhy": 3843,
      "gridman": 3844,
      "Ġyui": 3845,
      "Ġsyukufuku": 3846,
      "Ġsubarashii": 3847,
      "hashi": 3848,
      "Ġkus": 3849,
      "Ġlap": 3850,
      "torso": 3851,
      "Ġpear": 3852,
      "Ġoyakodon": 3853,
      "Ġelectric": 3854,
      "igarette": 3855,
      "kill": 3856,
      "year": 3857,
      "Ġtake": 3858,
      "Ġwaist": 3859,
      "nar": 3860,
      "xx": 3861,
      "etti": 3862,
      "noji": 3863,
      "Ġaged": 3864,
      "Ġhakama": 3865,
      "Ġfacesitting": 3866,
      "iver": 3867,
      "Ġnakazawa": 3868,
      "Ġvis": 3869,
      "puter": 3870,
      "rel": 3871,
      "Ġdevil": 3872,
      "iza": 3873,
      "chromia": 3874,
      "Ġclitoris": 3875,
      "ilia": 3876,
      "yui": 3877,
      "22": 3878,
      "fish": 3879,
      "Ġnana": 3880,
      "Ġmits": 3881,
      "tity": 3882,
      "Ġspanking": 3883,
      "Ġtoned": 3884,
      "wich": 3885,
      "_^": 3886,
      "dream": 3887,
      "evangelion": 3888,
      "anne": 3889,
      "anna": 3890,
      "ãģª": 3891,
      "Ġtennoji": 3892,
      "mp": 3893,
      "monster": 3894,
      "aii": 3895,
      "Ġocean": 3896,
      "aving": 3897,
      "coris": 3898,
      "Ġ^_^": 3899,
      "Ġdar": 3900,
      "Ġwar": 3901,
      "ĠPantyhose": 3902,
      "Ġchainsaw": 3903,
      "Ġloafers": 3904,
      "ĠFLASH": 3905,
      "osuke": 3906,
      "Ġib": 3907,
      "ede": 3908,
      "paint": 3909,
      "Ġyoko": 3910,
      "Ġjo": 3911,
      "wards": 3912,
      "fingernails": 3913,
      "swap": 3914,
      "Ġins": 3915,
      "gauntlets": 3916,
      "brown": 3917,
      "ĠMmf": 3918,
      "takes": 3919,
      "Ġarched": 3920,
      "atteiru": 3921,
      "udao": 3922,
      "Ġ64": 3923,
      "iving": 3924,
      "ene": 3925,
      "buruma": 3926,
      "yam": 3927,
      "psicle": 3928,
      "Ġbusiness": 3929,
      "Ġsiblings": 3930,
      "von": 3931,
      "Ġanimals": 3932,
      "jec": 3933,
      "yan": 3934,
      "inseki": 3935,
      "Ġmobile": 3936,
      "Ġsmeg": 3937,
      "ĠBl": 3938,
      "Ġsmegma": 3939,
      "elvic": 3940,
      "Ġbelly": 3941,
      "dant": 3942,
      "rog": 3943,
      "Ġbroken": 3944,
      "Ġcan": 3945,
      "ashiro": 3946,
      "Ġveins": 3947,
      "Ġpantyshot": 3948,
      "Ġberet": 3949,
      "Ġhime": 3950,
      "Ġsar": 3951,
      "berry": 3952,
      "Ġcamisole": 3953,
      "maki": 3954,
      "xy": 3955,
      "oba": 3956,
      "anguage": 3957,
      "drops": 3958,
      "Ġkak": 3959,
      "veal": 3960,
      "hounen": 3961,
      "Ġpelvic": 3962,
      "itoku": 3963,
      "Ġvirtual": 3964,
      "ĠMasturbation": 3965,
      "Ġhanekawa": 3966,
      "warmers": 3967,
      "Ġray": 3968,
      "agonal": 3969,
      "project": 3970,
      "Ġdiagonal": 3971,
      "14": 3972,
      "bear": 3973,
      "jir": 3974,
      "yr": 3975,
      "Ġcure": 3976,
      "ĠPenetration": 3977,
      "white": 3978,
      "pad": 3979,
      "zora": 3980,
      "koi": 3981,
      "Ġpull": 3982,
      "ĠFootjob": 3983,
      "Ġharu": 3984,
      "Ġyandere": 3985,
      "Ġvideo": 3986,
      "illa": 3987,
      "crack": 3988,
      "intakes": 3989,
      "Ġwestern": 3990,
      "Ġheadband": 3991,
      "bw": 3992,
      "locked": 3993,
      "çĶ°": 3994,
      "Ġter": 3995,
      "Ġhotpants": 3996,
      "ades": 3997,
      "amori": 3998,
      "izumi": 3999,
      "Ġshikishima": 4000,
      "Ġhas": 4001,
      "Ġgaping": 4002,
      "Ġinstrument": 4003,
      "ĠéĢ±åĪĬãĥĹãĥ¬ãĤ¤ãĥľãĥ¼ãĤ¤": 4004,
      "Ġnudity": 4005,
      "onda": 4006,
      "bari": 4007,
      "Ġrol": 4008,
      "Ġhalloween": 4009,
      "sak": 4010,
      "Ġcouch": 4011,
      "aded": 4012,
      "Ġacademia": 4013,
      "Ġrei": 4014,
      "Ġrestrain": 4015,
      "ret": 4016,
      "Ġfantasy": 4017,
      "Ġgoblin": 4018,
      "pei": 4019,
      "aur": 4020,
      "swim": 4021,
      "tor": 4022,
      "ãĤ¢": 4023,
      "ĠDilf": 4024,
      "Ġwai": 4025,
      "frontline": 4026,
      "Ġbasket": 4027,
      "Ġteam": 4028,
      "glove": 4029,
      "Ġcherry": 4030,
      "azaki": 4031,
      "Ġkirigaya": 4032,
      "Ġishi": 4033,
      "Ġgolden": 4034,
      "Ġkousaka": 4035,
      "nis": 4036,
      "Ġfirst": 4037,
      "breathing": 4038,
      "sweatdrops": 4039,
      "twitter": 4040,
      "Ġkaguya": 4041,
      "jectile": 4042,
      "_&": 4043,
      "Ġmat": 4044,
      "Ġlowleg": 4045,
      "13": 4046,
      "Ġhol": 4047,
      "vehicle": 4048,
      "Ġpearl": 4049,
      "Ġmia": 4050,
      "Ġran": 4051,
      "Ġreveal": 4052,
      "ĠKissing": 4053,
      "02": 4054,
      "Ġrail": 4055,
      "vein": 4056,
      "Ġbeer": 4057,
      "ãģĵ": 4058,
      "Ġjul": 4059,
      "Ġinseki": 4060,
      "Ġ67": 4061,
      "Ġfangs": 4062,
      "Ġgudao": 4063,
      "sou": 4064,
      "Ġgod": 4065,
      "itsuka": 4066,
      "mosaic": 4067,
      "Ġshark": 4068,
      "Ġdoor": 4069,
      "Ġrestrained": 4070,
      "Ġtoo": 4071,
      "Ġpot": 4072,
      "Ġshemale": 4073,
      "ryuu": 4074,
      "Ġchika": 4075,
      "punch": 4076,
      "squeez": 4077,
      "Ġä": 4078,
      "Ġshower": 4079,
      "ency": 4080,
      "ĠTo": 4081,
      "Ġsuspenders": 4082,
      "Ġcurtains": 4083,
      "Ġrevealing": 4084,
      "ingshot": 4085,
      "magica": 4086,
      "tucked": 4087,
      "wat": 4088,
      "Ġtied": 4089,
      "Ġclose": 4090,
      "Ġtaku": 4091,
      "enter": 4092,
      "Ġmoun": 4093,
      "inset": 4094,
      "privates": 4095,
      "Ġartbook": 4096,
      "Ġcheek": 4097,
      "Ġinterlocked": 4098,
      "entacle": 4099,
      "Ġij": 4100,
      "tice": 4101,
      "Ġtraditional": 4102,
      "Ġwatermark": 4103,
      "Ġoutside": 4104,
      "elier": 4105,
      "ult": 4106,
      "Ġasphyxiation": 4107,
      "thra": 4108,
      "izon": 4109,
      "abu": 4110,
      "Ġsono": 4111,
      "ronpa": 4112,
      "Ġyuuka": 4113,
      "anganronpa": 4114,
      "gatteiru": 4115,
      "enshot": 4116,
      "Ġazur": 4117,
      "tab": 4118,
      "Ġvtuber": 4119,
      "Ġforeshort": 4120,
      "Ġforeshortening": 4121,
      "tf": 4122,
      "rain": 4123,
      "ushing": 4124,
      "Ġcosplaying": 4125,
      "osis": 4126,
      "Ġtomoe": 4127,
      "Ġheterochromia": 4128,
      "rolled": 4129,
      "Ġpulling": 4130,
      "cot": 4131,
      "grand": 4132,
      "wara": 4133,
      "tite": 4134,
      "Ġsmalldom": 4135,
      "fran": 4136,
      "Ġscan": 4137,
      "Ġshibuya": 4138,
      "Ġyum": 4139,
      "ocking": 4140,
      "inderella": 4141,
      "usei": 4142,
      "Ġbright": 4143,
      "Ġsisters": 4144,
      "Ġpaid": 4145,
      "Ġlil": 4146,
      "ikatsu": 4147,
      "Ġshimaidon": 4148,
      "bles": 4149,
      "peti": 4150,
      "Ġkoi": 4151,
      "ican": 4152,
      "oshin": 4153,
      "Ġmusical": 4154,
      "Ġareola": 4155,
      "æľĪåı·": 4156,
      "Ġgenderswap": 4157,
      "akure": 4158,
      "Ġselfie": 4159,
      "case": 4160,
      "Ġ68": 4161,
      "anashi": 4162,
      "Ġnor": 4163,
      "usu": 4164,
      "inko": 4165,
      "Ġrac": 4166,
      "Ġaction": 4167,
      "Ġoyama": 4168,
      "Ġchar": 4169,
      "ilet": 4170,
      "Ġabs": 4171,
      "Ġlycoris": 4172,
      "class": 4173,
      "Ġslime": 4174,
      "ets": 4175,
      "sash": 4176,
      "Ġryu": 4177,
      "Ġcomputer": 4178,
      "cong": 4179,
      "Ġtales": 4180,
      "tei": 4181,
      "bu": 4182,
      "Ġdrink": 4183,
      "Ġbackpack": 4184,
      "Ġletter": 4185,
      "kok": 4186,
      "Ġkuro": 4187,
      "Ġmission": 4188,
      "itation": 4189,
      "fluff": 4190,
      "areolae": 4191,
      "Ġfuji": 4192,
      "Ġizumi": 4193,
      "Ġwriting": 4194,
      "Ġshr": 4195,
      "docking": 4196,
      "Ġguil": 4197,
      "virginity": 4198,
      "pire": 4199,
      "riad": 4200,
      "atsumoto": 4201,
      "Ġinsertion": 4202,
      "fang": 4203,
      "uplic": 4204,
      "Ġmyriad": 4205,
      "uplicate": 4206,
      "gre": 4207,
      "hum": 4208,
      "sign": 4209,
      "ague": 4210,
      "Ġzhong": 4211,
      "Ġdesk": 4212,
      "oper": 4213,
      "danbooru": 4214,
      "gar": 4215,
      "life": 4216,
      "Ġrem": 4217,
      "Ġparody": 4218,
      "Ġmissionary": 4219,
      "Ġdanganronpa": 4220,
      "ĠMaid": 4221,
      "Ġscat": 4222,
      "Ġkanata": 4223,
      "kasumi": 4224,
      "Ġsam": 4225,
      "Ġshibari": 4226,
      "Ġdual": 4227,
      "Ġtrain": 4228,
      "kochou": 4229,
      "ĠPregnant": 4230,
      "ousuke": 4231,
      "eau": 4232,
      "Ġhelmet": 4233,
      "unworn": 4234,
      "Ġkun": 4235,
      "link": 4236,
      "Ġfan": 4237,
      "Ġarmband": 4238,
      "zumi": 4239,
      "Ġmc": 4240,
      "weak": 4241,
      "ĠShounen": 4242,
      "ffee": 4243,
      "movie": 4244,
      "penises": 4245,
      "Ġmilk": 4246,
      "Ġpaint": 4247,
      "nano": 4248,
      "jitsu": 4249,
      "spread": 4250,
      "estive": 4251,
      "ustr": 4252,
      "Ġmales": 4253,
      "Ġspy": 4254,
      "mpregnation": 4255,
      "pth": 4256,
      "Ġantenna": 4257,
      "dq": 4258,
      "Ġmug": 4259,
      "Ġkats": 4260,
      "Ġunbuttoned": 4261,
      "Ġpon": 4262,
      "adism": 4263,
      "Ġinoue": 4264,
      "Ġ69": 4265,
      "Ġushi": 4266,
      "interior": 4267,
      "hana": 4268,
      "pre": 4269,
      "station": 4270,
      "hiko": 4271,
      "Ġpajamas": 4272,
      "Ġeating": 4273,
      "Ġtakam": 4274,
      "onder": 4275,
      "Ġhats": 4276,
      "Ġchikan": 4277,
      "Ġburuma": 4278,
      "squeezed": 4279,
      "maru": 4280,
      "Ġfuta": 4281,
      "Ġbender": 4282,
      "Ġren": 4283,
      "kot": 4284,
      "not": 4285,
      "Ġumbrella": 4286,
      "Ġbubble": 4287,
      "Ġkitagawa": 4288,
      "Ġsource": 4289,
      "Ġpout": 4290,
      "Ġkobayashi": 4291,
      "Ġmaru": 4292,
      "Ġtar": 4293,
      "Ġnails": 4294,
      "Ġnaruto": 4295,
      "Ġbirth": 4296,
      "Ġmotor": 4297,
      "ergy": 4298,
      "ãĤĬ": 4299,
      "18": 4300,
      "ious": 4301,
      "momo": 4302,
      "olo": 4303,
      "Ġluc": 4304,
      "Ġtoy": 4305,
      "zuru": 4306,
      "merged": 4307,
      "oform": 4308,
      "loroform": 4309,
      "Ġsemi": 4310,
      "Ġru": 4311,
      "Ġcapelet": 4312,
      "congress": 4313,
      "sat": 4314,
      "Ġmaki": 4315,
      "Ġgrass": 4316,
      "Ġç": 4317,
      "Ġsasaki": 4318,
      "coil": 4319,
      "ĠImpregnation": 4320,
      "covered": 4321,
      "Ġcenter": 4322,
      "desk": 4323,
      "across": 4324,
      "kaw": 4325,
      "Ġneko": 4326,
      "Ġmega": 4327,
      "Ġkneepits": 4328,
      "first": 4329,
      "Ġsora": 4330,
      "kagura": 4331,
      "ĠBikini": 4332,
      "Ġcorrup": 4333,
      "Ġlower": 4334,
      "ĠOn": 4335,
      "Ġarrow": 4336,
      "overflow": 4337,
      "Ġdepth": 4338,
      "gle": 4339,
      "may": 4340,
      "assel": 4341,
      "Ġvam": 4342,
      "Ġshioriko": 4343,
      "Ġcake": 4344,
      "Ġrina": 4345,
      "Ġyak": 4346,
      "cont": 4347,
      "cury": 4348,
      "ĠCollar": 4349,
      "igger": 4350,
      "earring": 4351,
      "Ġseiza": 4352,
      "instrument": 4353,
      "Ġpoke": 4354,
      "Ġguilty": 4355,
      "ãĥ£": 4356,
      "Ġwristband": 4357,
      "held": 4358,
      "Ġdon": 4359,
      "ikawa": 4360,
      "aylor": 4361,
      "collection": 4362,
      "rac": 4363,
      "ram": 4364,
      "ugh": 4365,
      "Ġberserk": 4366,
      "Ġinflation": 4367,
      "rik": 4368,
      "Ġsaki": 4369,
      "Ġpale": 4370,
      "Ġder": 4371,
      "Ġsheath": 4372,
      "Ġtentacle": 4373,
      "Ġteitoku": 4374,
      "Ġsparks": 4375,
      "pads": 4376,
      "Ġnis": 4377,
      "Ġnik": 4378,
      "Ġnaugh": 4379,
      "Ġspikes": 4380,
      "Ġsonoda": 4381,
      "generation": 4382,
      "Ġnaughty": 4383,
      "Ġoo": 4384,
      "ibadism": 4385,
      "commission": 4386,
      "Ġ+": 4387,
      "Ġmit": 4388,
      "Ġgan": 4389,
      "stockings": 4390,
      "Ġfamily": 4391,
      "Ġcontrap": 4392,
      "posto": 4393,
      "Ġcontrapposto": 4394,
      "Ġmature": 4395,
      "Ġsmoking": 4396,
      "Ġsquirting": 4397,
      "ikan": 4398,
      "shu": 4399,
      "ombie": 4400,
      "mei": 4401,
      "even": 4402,
      "universe": 4403,
      "tinted": 4404,
      "ryu": 4405,
      "ãĥ«": 4406,
      "Ġarmlet": 4407,
      "creat": 4408,
      "Ġmd": 4409,
      "heroes": 4410,
      "gth": 4411,
      "machine": 4412,
      "nan": 4413,
      "psticks": 4414,
      "Ġtaut": 4415,
      "Ġsuzuki": 4416,
      "challen": 4417,
      "Ġmicrophone": 4418,
      "udio": 4419,
      "Ġboy": 4420,
      "rimless": 4421,
      "ãĥ£ãĥ³": 4422,
      "Ġhana": 4423,
      "Ġ71": 4424,
      "bobbles": 4425,
      "pole": 4426,
      "testicles": 4427,
      "Ġnatsu": 4428,
      "door": 4429,
      "zenless": 4430,
      "nai": 4431,
      "straddle": 4432,
      "_&_": 4433,
      "pasties": 4434,
      "Ġcrow": 4435,
      "Ġryo": 4436,
      "Ġarai": 4437,
      "kom": 4438,
      "ief": 4439,
      "Ġhig": 4440,
      "outarou": 4441,
      "ĠLactation": 4442,
      "ĠToys": 4443,
      "Ġobi": 4444,
      "Ġrai": 4445,
      "ĠMonster": 4446,
      "Ġfujim": 4447,
      "erican": 4448,
      "akari": 4449,
      "hai": 4450,
      "mal": 4451,
      "astity": 4452,
      "chu": 4453,
      "Ġheight": 4454,
      "Ġrot": 4455,
      "cc": 4456,
      "pil": 4457,
      "majutsu": 4458,
      "submerged": 4459,
      "Ġevil": 4460,
      "ula": 4461,
      "osaka": 4462,
      "Ġpanzer": 4463,
      "business": 4464,
      "Ġsag": 4465,
      "use": 4466,
      "Ġmusume": 4467,
      "effects": 4468,
      "Ġfighter": 4469,
      "Ġmirror": 4470,
      "ãĤ¬": 4471,
      "Ġcompeti": 4472,
      "Ġcompetition": 4473,
      "Ġbek": 4474,
      "headphones": 4475,
      "Ġwork": 4476,
      "aster": 4477,
      "Ġao": 4478,
      "trane": 4479,
      "Ġupskirt": 4480,
      "traneous": 4481,
      "gan": 4482,
      "ĠTentacles": 4483,
      "Ġtakar": 4484,
      "riel": 4485,
      "Ġtray": 4486,
      "\",": 4487,
      "elle": 4488,
      "Ġenergy": 4489,
      "challenge": 4490,
      "natsumi": 4491,
      "Ġdarkness": 4492,
      "ien": 4493,
      "rowth": 4494,
      "length": 4495,
      "Ġtriangle": 4496,
      "hang": 4497,
      "raw": 4498,
      "Ġfairy": 4499,
      "ns": 4500,
      "ove": 4501,
      "wak": 4502,
      "24": 4503,
      "hug": 4504,
      "ragon": 4505,
      "Ġom": 4506,
      "Ġryou": 4507,
      "Ġsunlight": 4508,
      "Ġakagi": 4509,
      "Ġhanayome": 4510,
      "bulge": 4511,
      "Ġmario": 4512,
      "kob": 4513,
      "leash": 4514,
      "Ġhu": 4515,
      "Ġchloroform": 4516,
      "ushi": 4517,
      "itar": 4518,
      "Ġsucking": 4519,
      "Ġsin": 4520,
      "Ġloss": 4521,
      "Ġplat": 4522,
      "Ġbeams": 4523,
      "ĠEcchi": 4524,
      "Ġstudio": 4525,
      "Ġie": 4526,
      "Ġsaw": 4527,
      "Ġname": 4528,
      "ĠHar": 4529,
      "nut": 4530,
      "Ġpendant": 4531,
      "ize": 4532,
      "ĠMind": 4533,
      "Ġglass": 4534,
      "language": 4535,
      "Ġwaving": 4536,
      "coon": 4537,
      "oudy": 4538,
      "urou": 4539,
      "ĠSm": 4540,
      "Ġangry": 4541,
      "riding": 4542,
      "akuen": 4543,
      "Ġtape": 4544,
      "Ġcloudy": 4545,
      "Ġvisor": 4546,
      "fumi": 4547,
      "Ġandroid": 4548,
      "akaze": 4549,
      "izuka": 4550,
      "Ġads": 4551,
      "09": 4552,
      "ele": 4553,
      "Ġnier": 4554,
      "jimeru": 4555,
      "online": 4556,
      "Ġuneven": 4557,
      "boxed": 4558,
      "Ġtiles": 4559,
      "makoto": 4560,
      "Ġspoon": 4561,
      "Ġamerican": 4562,
      "thi": 4563,
      "mother": 4564,
      "ucket": 4565,
      "itsuki": 4566,
      "Ġgoat": 4567,
      "stripe": 4568,
      "...": 4569,
      "tweak": 4570,
      "Ġcrossover": 4571,
      "cinderella": 4572,
      "kat": 4573,
      "Ġul": 4574,
      "Ġtassel": 4575,
      "Ġki": 4576,
      "ota": 4577,
      "chika": 4578,
      "Ġrevision": 4579,
      "Ġmatsuura": 4580,
      "zipped": 4581,
      "Ġcou": 4582,
      "Ġwedding": 4583,
      "Ġkey": 4584,
      "stance": 4585,
      "daugh": 4586,
      "Ġtriple": 4587,
      "creature": 4588,
      "daughter": 4589,
      "Ġkay": 4590,
      "boshi": 4591,
      "Ġonline": 4592,
      "udou": 4593,
      "Ġmagic": 4594,
      "summer": 4595,
      "kir": 4596,
      "umiya": 4597,
      "Ġyuru": 4598,
      "rination": 4599,
      "bad": 4600,
      "netorare": 4601,
      "yomi": 4602,
      "Ġkog": 4603,
      "Ġvol": 4604,
      "itro": 4605,
      "plant": 4606,
      "trait": 4607,
      "Ġstaff": 4608,
      "Ġtojo": 4609,
      "lord": 4610,
      "aiba": 4611,
      "Ġhazuki": 4612,
      "bleach": 4613,
      "maidragon": 4614,
      "Ġsteaming": 4615,
      "ci": 4616,
      "mom": 4617,
      "mode": 4618,
      "slee": 4619,
      "Ġlily": 4620,
      "Ġcurvy": 4621,
      "ies": 4622,
      "sister": 4623,
      "tachi": 4624,
      "ãĤ°": 4625,
      "ĠTail": 4626,
      "lipop": 4627,
      "ster": 4628,
      "ssom": 4629,
      "Ġpalm": 4630,
      "precure": 4631,
      "ints": 4632,
      "ics": 4633,
      "Ġasa": 4634,
      "Ġknife": 4635,
      "15": 4636,
      "Ġdol": 4637,
      "ĠDigital": 4638,
      "hilia": 4639,
      "Ġsuru": 4640,
      "slit": 4641,
      "Ġtoilet": 4642,
      "aser": 4643,
      "tial": 4644,
      "Ġuse": 4645,
      "Ġmisaki": 4646,
      "gate": 4647,
      "Ġtomo": 4648,
      "Ġnishikino": 4649,
      "Ġrope": 4650,
      "Ġpainted": 4651,
      "05": 4652,
      "iac": 4653,
      "mid": 4654,
      "sar": 4655,
      "Ġgoto": 4656,
      "multi": 4657,
      "very": 4658,
      "thighhigh": 4659,
      "RI": 4660,
      "Ġatelier": 4661,
      "kemono": 4662,
      "Ġsaku": 4663,
      "ãĥŀ": 4664,
      "fruit": 4665,
      "Ġsakurai": 4666,
      "asawa": 4667,
      "Ġtight": 4668,
      "Ġhen": 4669,
      "Ġ2020": 4670,
      "Ġsnuff": 4671,
      "Ġhiroyuki": 4672,
      "Ġheroine": 4673,
      "headband": 4674,
      "ban": 4675,
      "staff": 4676,
      "Ġcleft": 4677,
      "04": 4678,
      "Ġrag": 4679,
      "ĠFull": 4680,
      "clothing": 4681,
      "tem": 4682,
      "Ġmash": 4683,
      "isuke": 4684,
      "ashion": 4685,
      "Ġsmug": 4686,
      "magical": 4687,
      "Ġmikan": 4688,
      "Ġtoenail": 4689,
      "Ġstrawberry": 4690,
      "hinata": 4691,
      "guitar": 4692,
      "Ġjuliet": 4693,
      "AY": 4694,
      "rifle": 4695,
      "uld": 4696,
      "Ġartoria": 4697,
      "Ġspreading": 4698,
      "@_": 4699,
      "Ġ@_": 4700,
      "Ġmultimouth": 4701,
      "Ġplump": 4702,
      "Ġinterrac": 4703,
      "ĠExhibitionism": 4704,
      "Ġ@_@": 4705,
      "Ġinterracial": 4706,
      "DAY": 4707,
      "Ġed": 4708,
      "amine": 4709,
      "mirror": 4710,
      "shuuhen": 4711,
      "RIDAY": 4712,
      "Ġanime": 4713,
      "ĠShi": 4714,
      "Ġcyberpunk": 4715,
      "Ġruby": 4716,
      "Ġrotation": 4717,
      "16": 4718,
      "eng": 4719,
      "ĠUrination": 4720,
      "blossom": 4721,
      "Ġ...": 4722,
      "Ġpop": 4723,
      "sn": 4724,
      "cohol": 4725,
      "ĠVariant": 4726,
      "rei": 4727,
      "Ġbowl": 4728,
      "kura": 4729,
      "wari": 4730,
      "Ġtwins": 4731,
      "ĠTits": 4732,
      "ikuyo": 4733,
      "Ġsumata": 4734,
      "image": 4735,
      "ishun": 4736,
      "Ġportrait": 4737,
      "classic": 4738,
      "oni": 4739,
      "Ġban": 4740,
      "boku": 4741,
      "Ġhayase": 4742,
      "Ġcorset": 4743,
      "Ġchild": 4744,
      "nanoha": 4745,
      "cond": 4746,
      "Ġisekai": 4747,
      "Ġcity": 4748,
      "Ġdrop": 4749,
      "akawa": 4750,
      "atoro": 4751,
      "Ġpetite": 4752,
      "Ġprecure": 4753,
      "ahoge": 4754,
      "underwear": 4755,
      "Ġdeviluke": 4756,
      "Ġjou": 4757,
      "ocky": 4758,
      "kanata": 4759,
      "Ġuzaki": 4760,
      "PA": 4761,
      "Ġmisaka": 4762,
      "dog": 4763,
      "hane": 4764,
      "Ġdown": 4765,
      "isei": 4766,
      "iragi": 4767,
      "Ġkurosaki": 4768,
      "07": 4769,
      "road": 4770,
      "expos": 4771,
      "geki": 4772,
      "Ġgiantess": 4773,
      "Ġbal": 4774,
      "Ġgem": 4775,
      "Ġgauntlets": 4776,
      "build": 4777,
      "Ġgrowth": 4778,
      "outline": 4779,
      "ternal": 4780,
      "Ġtsuki": 4781,
      "atta": 4782,
      "iggle": 4783,
      "ashii": 4784,
      "Ġske": 4785,
      "Ġminiguy": 4786,
      "aked": 4787,
      "Ġwiz": 4788,
      "Ġararagi": 4789,
      "Ġkote": 4790,
      "guil": 4791,
      "Ġichigo": 4792,
      "mis": 4793,
      "Ġtribadism": 4794,
      "Ġpoint": 4795,
      "Ġstick": 4796,
      "Ġcurly": 4797,
      "Ġborrowed": 4798,
      "Ġah": 4799,
      "Ġfeather": 4800,
      "umping": 4801,
      "vul": 4802,
      "Ġtip": 4803,
      "version": 4804,
      "haruka": 4805,
      "vulva": 4806,
      "final": 4807,
      "ĠBbm": 4808,
      "Ġalcohol": 4809,
      "Ġemp": 4810,
      "sawa": 4811,
      "tight": 4812,
      "Ġmary": 4813,
      "screenshot": 4814,
      "jan": 4815,
      "rum": 4816,
      "zy": 4817,
      "Ġwin": 4818,
      "ifa": 4819,
      "ronic": 4820,
      "Ġtakanashi": 4821,
      "Ġlocker": 4822,
      "sayaka": 4823,
      "ittle": 4824,
      "Ġoto": 4825,
      "undoshi": 4826,
      "mario": 4827,
      "itai": 4828,
      "Ġhitori": 4829,
      "gemstone": 4830,
      "wing": 4831,
      "mae": 4832,
      "Ġfrog": 4833,
      "Ġdirt": 4834,
      "adan": 4835,
      "Ġfeathers": 4836,
      "Ġflag": 4837,
      "Ġizayoi": 4838,
      "sandals": 4839,
      "sam": 4840,
      "switch": 4841,
      "isting": 4842,
      "agh": 4843,
      "Ġhiiragi": 4844,
      "paper": 4845,
      "Ġtime": 4846,
      "lol": 4847,
      "Ġanger": 4848,
      "!_(": 4849,
      "Ġnumber": 4850,
      "artist": 4851,
      "Ġuma": 4852,
      "reon": 4853,
      "Ġextraneous": 4854,
      "parti": 4855,
      "Ġbattle": 4856,
      "Ġpeeing": 4857,
      "Ġrolling": 4858,
      "Ġreflection": 4859,
      "pha": 4860,
      "automata": 4861,
      "Ġshoujo": 4862,
      "bare": 4863,
      "Ġspe": 4864,
      "armpit": 4865,
      "Ġjeans": 4866,
      "Ġtsushima": 4867,
      "ãĥĥãĤ·ãĥ": 4868,
      "ronicles": 4869,
      "ãĥĥãĤ·ãĥ¥": 4870,
      "photo": 4871,
      "Ġpiss": 4872,
      "ayama": 4873,
      "vert": 4874,
      "Ġrecor": 4875,
      "Ġcoffee": 4876,
      "Ġjeanne": 4877,
      "Ġhatsune": 4878,
      "asaka": 4879,
      "asuka": 4880,
      "tect": 4881,
      "Ġgangbang": 4882,
      "drills": 4883,
      "gging": 4884,
      "^^": 4885,
      "mole": 4886,
      "ux": 4887,
      "arti": 4888,
      "slice": 4889,
      "ĠBabe": 4890,
      "Ġmegumin": 4891,
      "Ġ^^^": 4892,
      "moving": 4893,
      "Ġwaitress": 4894,
      "pai": 4895,
      "Ġshaded": 4896,
      "frames": 4897,
      "ensou": 4898,
      "Ġalp": 4899,
      "Ġdenial": 4900,
      "etai": 4901,
      "utor": 4902,
      "ĠMag": 4903,
      "Ġpopsicle": 4904,
      "icture": 4905,
      "Ġincoming": 4906,
      "pers": 4907,
      "anet": 4908,
      "vers": 4909,
      "Ġtoh": 4910,
      "Ġdanbooru": 4911,
      "Ġmasked": 4912,
      "Ġhuman": 4913,
      "Ġpatreon": 4914,
      "kana": 4915,
      "Ġkis": 4916,
      "Ġkoto": 4917,
      "Ġdoujin": 4918,
      "ichirou": 4919,
      "magic": 4920,
      "ĠDrama": 4921,
      "pot": 4922,
      "Ġkim": 4923,
      "aph": 4924,
      "Ġempty": 4925,
      "mug": 4926,
      "Ġarg": 4927,
      "Ġtakami": 4928,
      "dess": 4929,
      "igiri": 4930,
      "track": 4931,
      "cal": 4932,
      "uras": 4933,
      "Ġprojectile": 4934,
      "guard": 4935,
      "etsu": 4936,
      "nana": 4937,
      "uten": 4938,
      "aven": 4939,
      "imetsu": 4940,
      "Ġenema": 4941,
      "rai": 4942,
      "Ġcigarette": 4943,
      "stalk": 4944,
      "Ġonii": 4945,
      "phin": 4946,
      "Ġvehicle": 4947,
      "stalkers": 4948,
      "uiki": 4949,
      "ubuki": 4950,
      "ĠFemdom": 4951,
      "Ġsleep": 4952,
      "Ġ76": 4953,
      "Ġiori": 4954,
      "abydoll": 4955,
      "Ġpointless": 4956,
      "horn": 4957,
      "Ġkik": 4958,
      "ĠFRIDAY": 4959,
      "Ġroad": 4960,
      "Ġ70": 4961,
      "fingering": 4962,
      "Ġcriss": 4963,
      "jirou": 4964,
      "plete": 4965,
      "bis": 4966,
      "ved": 4967,
      "arts": 4968,
      "iyama": 4969,
      "nect": 4970,
      "sides": 4971,
      "Ġtor": 4972,
      "remov": 4973,
      "Ġtoshi": 4974,
      "ĠGravure": 4975,
      "ĠLong": 4976,
      "Ġtamag": 4977,
      "Ġmountain": 4978,
      "removed": 4979,
      "Ġmiku": 4980,
      "Ġwink": 4981,
      "rease": 4982,
      "ques": 4983,
      "rub": 4984,
      "taka": 4985,
      "Ġmika": 4986,
      "Ġraccoon": 4987,
      "emed": 4988,
      "Ġsuperstar": 4989,
      "index": 4990,
      "Ġ:>": 4991,
      "gane": 4992,
      "musume": 4993,
      "Ġgar": 4994,
      "Ġep": 4995,
      "take": 4996,
      "hic": 4997,
      "Ġspagh": 4998,
      "Ġspaghetti": 4999
    },
    "merges": [
      [
        "i",
        "n"
      ],
      [
        "Ġ",
        "s"
      ],
      [
        "a",
        "n"
      ],
      [
        "l",
        "e"
      ],
      [
        "o",
        "n"
      ],
      [
        "a",
        "r"
      ],
      [
        "h",
        "i"
      ],
      [
        "Ġ",
        "b"
      ],
      [
        "e",
        "r"
      ],
      [
        "e",
        "s"
      ],
      [
        "a",
        "t"
      ],
      [
        "o",
        "r"
      ],
      [
        "a",
        "i"
      ],
      [
        "in",
        "g"
      ],
      [
        "e",
        "n"
      ],
      [
        "o",
        "u"
      ],
      [
        "Ġ",
        "m"
      ],
      [
        "a",
        "s"
      ],
      [
        "Ġ",
        "c"
      ],
      [
        "e",
        "d"
      ],
      [
        "Ġ",
        "t"
      ],
      [
        "Ġ",
        "p"
      ],
      [
        "r",
        "e"
      ],
      [
        "l",
        "o"
      ],
      [
        "a",
        "c"
      ],
      [
        "Ġ",
        "f"
      ],
      [
        "Ġ",
        "h"
      ],
      [
        "a",
        "l"
      ],
      [
        "o",
        "l"
      ],
      [
        "Ġ",
        "d"
      ],
      [
        "i",
        "s"
      ],
      [
        "a",
        "k"
      ],
      [
        "Ġ",
        "g"
      ],
      [
        "u",
        "n"
      ],
      [
        "Ġ",
        "n"
      ],
      [
        "t",
        "s"
      ],
      [
        "_",
        "("
      ],
      [
        "ai",
        "r"
      ],
      [
        "i",
        "g"
      ],
      [
        "s",
        "hi"
      ],
      [
        "o",
        "m"
      ],
      [
        "e",
        "m"
      ],
      [
        "t",
        "i"
      ],
      [
        "i",
        "r"
      ],
      [
        "u",
        "r"
      ],
      [
        "i",
        "m"
      ],
      [
        "a",
        "le"
      ],
      [
        "t",
        "h"
      ],
      [
        "h",
        "o"
      ],
      [
        "a",
        "d"
      ],
      [
        "Ġ",
        "k"
      ],
      [
        "a",
        "m"
      ],
      [
        "r",
        "o"
      ],
      [
        "e",
        "l"
      ],
      [
        "e",
        "t"
      ],
      [
        "ac",
        "k"
      ],
      [
        "i",
        "t"
      ],
      [
        "a",
        "p"
      ],
      [
        "Ġb",
        "l"
      ],
      [
        "o",
        "le"
      ],
      [
        "u",
        "s"
      ],
      [
        "Ġ",
        "â"
      ],
      [
        "Ġâ",
        "Ļ"
      ],
      [
        "h",
        "air"
      ],
      [
        "u",
        "m"
      ],
      [
        "Ġ",
        "w"
      ],
      [
        "i",
        "c"
      ],
      [
        "Ġ",
        "r"
      ],
      [
        "a",
        "g"
      ],
      [
        "re",
        "as"
      ],
      [
        "an",
        "d"
      ],
      [
        "Ġ",
        "l"
      ],
      [
        "ĠâĻ",
        "Ģ"
      ],
      [
        "b",
        "o"
      ],
      [
        "i",
        "l"
      ],
      [
        "c",
        "k"
      ],
      [
        "Ġs",
        "ole"
      ],
      [
        "i",
        "d"
      ],
      [
        "i",
        "on"
      ],
      [
        "e",
        "ar"
      ],
      [
        "t",
        "er"
      ],
      [
        "t",
        "o"
      ],
      [
        "u",
        "l"
      ],
      [
        "s",
        "e"
      ],
      [
        "v",
        "e"
      ],
      [
        "g",
        "h"
      ],
      [
        "e",
        "y"
      ],
      [
        "reas",
        "ts"
      ],
      [
        "Ġd",
        "ou"
      ],
      [
        "ir",
        "l"
      ],
      [
        "at",
        "ed"
      ],
      [
        "o",
        "k"
      ],
      [
        "em",
        "ale"
      ],
      [
        "i",
        "k"
      ],
      [
        "j",
        "in"
      ],
      [
        "c",
        "h"
      ],
      [
        "ai",
        "l"
      ],
      [
        "at",
        "ion"
      ],
      [
        "jin",
        "shi"
      ],
      [
        "lo",
        "w"
      ],
      [
        "t",
        "e"
      ],
      [
        "o",
        "b"
      ],
      [
        "Ġ",
        "an"
      ],
      [
        "hi",
        "gh"
      ],
      [
        "Ġdou",
        "jinshi"
      ],
      [
        "t",
        "r"
      ],
      [
        "u",
        "k"
      ],
      [
        "Ġ",
        "y"
      ],
      [
        "a",
        "y"
      ],
      [
        "g",
        "irl"
      ],
      [
        "h",
        "e"
      ],
      [
        "o",
        "w"
      ],
      [
        "o",
        "s"
      ],
      [
        "i",
        "f"
      ],
      [
        "Ġt",
        "r"
      ],
      [
        "u",
        "e"
      ],
      [
        "s",
        "l"
      ],
      [
        "an",
        "g"
      ],
      [
        "is",
        "h"
      ],
      [
        "r",
        "es"
      ],
      [
        "Ġf",
        "emale"
      ],
      [
        "p",
        "le"
      ],
      [
        "Ġ",
        "ar"
      ],
      [
        "Ġb",
        "reasts"
      ],
      [
        "Ġ",
        "lo"
      ],
      [
        "o",
        "t"
      ],
      [
        "r",
        "ou"
      ],
      [
        "u",
        "p"
      ],
      [
        "g",
        "l"
      ],
      [
        "an",
        "sl"
      ],
      [
        "i",
        "p"
      ],
      [
        "as",
        "hi"
      ],
      [
        "Ġ",
        "un"
      ],
      [
        "c",
        "ho"
      ],
      [
        "Ġtr",
        "ansl"
      ],
      [
        "a",
        "b"
      ],
      [
        "Ġ",
        "j"
      ],
      [
        "en",
        "s"
      ],
      [
        "v",
        "er"
      ],
      [
        "s",
        "u"
      ],
      [
        "Ġh",
        "air"
      ],
      [
        "Ġm",
        "ale"
      ],
      [
        "as",
        "s"
      ],
      [
        "gl",
        "ish"
      ],
      [
        "Ġ",
        "o"
      ],
      [
        "Ġ",
        "or"
      ],
      [
        "en",
        "glish"
      ],
      [
        "Ġtransl",
        "ated"
      ],
      [
        "ol",
        "d"
      ],
      [
        "Ġbl",
        "ack"
      ],
      [
        "j",
        "ob"
      ],
      [
        "cho",
        "ol"
      ],
      [
        "or",
        "m"
      ],
      [
        "d",
        "er"
      ],
      [
        "Ġb",
        "ig"
      ],
      [
        "ey",
        "es"
      ],
      [
        "v",
        "es"
      ],
      [
        "Ġs",
        "h"
      ],
      [
        "en",
        "t"
      ],
      [
        "lo",
        "th"
      ],
      [
        "s",
        "h"
      ],
      [
        "es",
        "e"
      ],
      [
        "u",
        "t"
      ],
      [
        "t",
        "ail"
      ],
      [
        "Ġn",
        "ak"
      ],
      [
        "e",
        "c"
      ],
      [
        "o",
        "d"
      ],
      [
        "er",
        "i"
      ],
      [
        "Ġw",
        "hi"
      ],
      [
        "ens",
        "or"
      ],
      [
        "s",
        "s"
      ],
      [
        "an",
        "t"
      ],
      [
        "on",
        "e"
      ],
      [
        "in",
        "al"
      ],
      [
        "if",
        "orm"
      ],
      [
        "Ġwhi",
        "te"
      ],
      [
        "Ġbl",
        "ue"
      ],
      [
        "Ġ",
        "a"
      ],
      [
        "on",
        "g"
      ],
      [
        "e",
        "x"
      ],
      [
        "u",
        "b"
      ],
      [
        "Ġc",
        "h"
      ],
      [
        "Ġ",
        "english"
      ],
      [
        "w",
        "e"
      ],
      [
        "le",
        "g"
      ],
      [
        "Ġ",
        "in"
      ],
      [
        "n",
        "d"
      ],
      [
        "t",
        "ing"
      ],
      [
        "ar",
        "k"
      ],
      [
        "s",
        "k"
      ],
      [
        "ad",
        "ashi"
      ],
      [
        "ing",
        "s"
      ],
      [
        "old",
        "ing"
      ],
      [
        "ro",
        "w"
      ],
      [
        "res",
        "s"
      ],
      [
        "Ġh",
        "olding"
      ],
      [
        "c",
        "hi"
      ],
      [
        "or",
        "n"
      ],
      [
        "ap",
        "an"
      ],
      [
        "ow",
        "n"
      ],
      [
        "Ġg",
        "re"
      ],
      [
        "f",
        "f"
      ],
      [
        "a",
        "w"
      ],
      [
        "apan",
        "ese"
      ],
      [
        "loth",
        "es"
      ],
      [
        "b",
        "ack"
      ],
      [
        "ul",
        "l"
      ],
      [
        "i",
        "b"
      ],
      [
        "Ġr",
        "ed"
      ],
      [
        "ul",
        "ti"
      ],
      [
        "al",
        "l"
      ],
      [
        "r",
        "t"
      ],
      [
        "ar",
        "i"
      ],
      [
        "ti",
        "on"
      ],
      [
        "ak",
        "i"
      ],
      [
        "w",
        "ear"
      ],
      [
        "ig",
        "inal"
      ],
      [
        "s",
        "t"
      ],
      [
        "Ġ",
        "1"
      ],
      [
        "Ġan",
        "im"
      ],
      [
        "in",
        "i"
      ],
      [
        "n",
        "e"
      ],
      [
        "Ġ",
        "2"
      ],
      [
        "su",
        "it"
      ],
      [
        "Ġm",
        "ulti"
      ],
      [
        "g",
        "e"
      ],
      [
        "Ġh",
        "and"
      ],
      [
        "ir",
        "t"
      ],
      [
        "low",
        "job"
      ],
      [
        "Ġnak",
        "adashi"
      ],
      [
        "Ġs",
        "t"
      ],
      [
        "Ġc",
        "ol"
      ],
      [
        "in",
        "k"
      ],
      [
        "Ġor",
        "iginal"
      ],
      [
        "p",
        "en"
      ],
      [
        "r",
        "a"
      ],
      [
        "Ġ",
        "S"
      ],
      [
        "n",
        "o"
      ],
      [
        "ig",
        "h"
      ],
      [
        "Ġn",
        "o"
      ],
      [
        "id",
        "e"
      ],
      [
        "ik",
        "ini"
      ],
      [
        "p",
        "an"
      ],
      [
        "le",
        "e"
      ],
      [
        "q",
        "u"
      ],
      [
        "Ġs",
        "chool"
      ],
      [
        "eri",
        "es"
      ],
      [
        "ai",
        "d"
      ],
      [
        "r",
        "y"
      ],
      [
        "Ġs",
        "m"
      ],
      [
        "c",
        "lothes"
      ],
      [
        "om",
        "e"
      ],
      [
        "ar",
        "d"
      ],
      [
        "Ġp",
        "en"
      ],
      [
        "Ġs",
        "p"
      ],
      [
        "ey",
        "e"
      ],
      [
        "at",
        "e"
      ],
      [
        "es",
        "t"
      ],
      [
        "Ġ",
        "v"
      ],
      [
        "i",
        "e"
      ],
      [
        "g",
        "rou"
      ],
      [
        "in",
        "d"
      ],
      [
        "Ġs",
        "hi"
      ],
      [
        "ur",
        "i"
      ],
      [
        "Ġs",
        "k"
      ],
      [
        "on",
        "d"
      ],
      [
        "Ġb",
        "lowjob"
      ],
      [
        "i",
        "ve"
      ],
      [
        "grou",
        "nd"
      ],
      [
        "ac",
        "h"
      ],
      [
        "e",
        "k"
      ],
      [
        "Ġt",
        "o"
      ],
      [
        "Ġj",
        "apanese"
      ],
      [
        "shi",
        "rt"
      ],
      [
        "r",
        "in"
      ],
      [
        "th",
        "er"
      ],
      [
        "em",
        "on"
      ],
      [
        "b",
        "le"
      ],
      [
        "ac",
        "e"
      ],
      [
        "l",
        "ar"
      ],
      [
        "w",
        "im"
      ],
      [
        "d",
        "ress"
      ],
      [
        "o",
        "ver"
      ],
      [
        "g",
        "a"
      ],
      [
        "c",
        "ol"
      ],
      [
        "uk",
        "i"
      ],
      [
        "Ġ",
        "hi"
      ],
      [
        "shi",
        "p"
      ],
      [
        "Ġc",
        "ensor"
      ],
      [
        "row",
        "n"
      ],
      [
        "Ġ",
        "high"
      ],
      [
        "back",
        "ground"
      ],
      [
        "an",
        "o"
      ],
      [
        "f",
        "o"
      ],
      [
        "Ġ",
        "on"
      ],
      [
        "Ġt",
        "w"
      ],
      [
        "ai",
        "c"
      ],
      [
        "wim",
        "suit"
      ],
      [
        "ti",
        "es"
      ],
      [
        "Ġan",
        "al"
      ],
      [
        "we",
        "at"
      ],
      [
        "id",
        "ol"
      ],
      [
        "is",
        "t"
      ],
      [
        "ã",
        "ĥ"
      ],
      [
        "ou",
        "th"
      ],
      [
        "ou",
        "t"
      ],
      [
        "ag",
        "e"
      ],
      [
        "Ġf",
        "r"
      ],
      [
        "ar",
        "e"
      ],
      [
        "Ġar",
        "m"
      ],
      [
        "bo",
        "y"
      ],
      [
        "Ġp",
        "ink"
      ],
      [
        "Ġun",
        "iform"
      ],
      [
        "ap",
        "e"
      ],
      [
        "a",
        "z"
      ],
      [
        "le",
        "ss"
      ],
      [
        "Ġanim",
        "ated"
      ],
      [
        "Ġ",
        "e"
      ],
      [
        "er",
        "s"
      ],
      [
        "Ġl",
        "ong"
      ],
      [
        "ear",
        "s"
      ],
      [
        "u",
        "re"
      ],
      [
        "u",
        "g"
      ],
      [
        "on",
        "o"
      ],
      [
        "ang",
        "a"
      ],
      [
        "bo",
        "w"
      ],
      [
        "b",
        "reasts"
      ],
      [
        "Ġcensor",
        "ship"
      ],
      [
        "rou",
        "p"
      ],
      [
        "os",
        "aic"
      ],
      [
        "Ġs",
        "tr"
      ],
      [
        "sk",
        "irt"
      ],
      [
        "b",
        "on"
      ],
      [
        "Ġf",
        "ull"
      ],
      [
        "u",
        "d"
      ],
      [
        "i",
        "z"
      ],
      [
        "w",
        "or"
      ],
      [
        "ass",
        "es"
      ],
      [
        "l",
        "y"
      ],
      [
        "Ġ",
        "B"
      ],
      [
        "Ġgre",
        "en"
      ],
      [
        "Ġ",
        "M"
      ],
      [
        "m",
        "outh"
      ],
      [
        "to",
        "ck"
      ],
      [
        "ar",
        "u"
      ],
      [
        "igh",
        "t"
      ],
      [
        "Ġlo",
        "ve"
      ],
      [
        "Ġd",
        "e"
      ],
      [
        "il",
        "f"
      ],
      [
        "i",
        "y"
      ],
      [
        "lo",
        "ves"
      ],
      [
        "b",
        "l"
      ],
      [
        "Ġb",
        "rown"
      ],
      [
        "ak",
        "e"
      ],
      [
        "a",
        "v"
      ],
      [
        "Ġ",
        "3"
      ],
      [
        "am",
        "e"
      ],
      [
        "tock",
        "ings"
      ],
      [
        "ant",
        "y"
      ],
      [
        "he",
        "ad"
      ],
      [
        "us",
        "h"
      ],
      [
        "or",
        "t"
      ],
      [
        "Ġt",
        "h"
      ],
      [
        "high",
        "s"
      ],
      [
        "lee",
        "ves"
      ],
      [
        "i",
        "a"
      ],
      [
        "ok",
        "ing"
      ],
      [
        "ack",
        "et"
      ],
      [
        "Ġg",
        "roup"
      ],
      [
        "p",
        "i"
      ],
      [
        "Ġg",
        "l"
      ],
      [
        "ho",
        "t"
      ],
      [
        "on",
        "y"
      ],
      [
        "or",
        "ts"
      ],
      [
        "a",
        "in"
      ],
      [
        "ar",
        "t"
      ],
      [
        "Ġp",
        "ur"
      ],
      [
        "b",
        "ikini"
      ],
      [
        "el",
        "l"
      ],
      [
        "in",
        "e"
      ],
      [
        "Ġc",
        "um"
      ],
      [
        "ib",
        "bon"
      ],
      [
        "Ġpur",
        "ple"
      ],
      [
        "p",
        "l"
      ],
      [
        "ur",
        "a"
      ],
      [
        "Ġd",
        "ark"
      ],
      [
        "ar",
        "ac"
      ],
      [
        "et",
        "r"
      ],
      [
        "arac",
        "ter"
      ],
      [
        "ai",
        "z"
      ],
      [
        "Ġcol",
        "or"
      ],
      [
        "ony",
        "tail"
      ],
      [
        "ti",
        "e"
      ],
      [
        "c",
        "e"
      ],
      [
        "Ġ",
        "re"
      ],
      [
        "Ġo",
        "pen"
      ],
      [
        "Ġs",
        "o"
      ],
      [
        "s",
        "eries"
      ],
      [
        "Ġ",
        "4"
      ],
      [
        "l",
        "ive"
      ],
      [
        "Ġ",
        "im"
      ],
      [
        "Ġlo",
        "oking"
      ],
      [
        "is",
        "s"
      ],
      [
        "f",
        "r"
      ],
      [
        "u",
        "u"
      ],
      [
        "Ġ",
        "x"
      ],
      [
        "ar",
        "a"
      ],
      [
        "aw",
        "a"
      ],
      [
        "Ġc",
        "ro"
      ],
      [
        "m",
        "as"
      ],
      [
        "ar",
        "m"
      ],
      [
        "Ġ",
        "idol"
      ],
      [
        "girl",
        "s"
      ],
      [
        "f",
        "l"
      ],
      [
        "ip",
        "ple"
      ],
      [
        "Ġm",
        "osaic"
      ],
      [
        "Ġm",
        "anga"
      ],
      [
        "s",
        "leeves"
      ],
      [
        "re",
        "es"
      ],
      [
        "o",
        "f"
      ],
      [
        "rees",
        "ome"
      ],
      [
        "un",
        "iform"
      ],
      [
        "aiz",
        "uri"
      ],
      [
        "Ġgl",
        "asses"
      ],
      [
        "Ġd",
        "r"
      ],
      [
        "s",
        "y"
      ],
      [
        "Ġschool",
        "girl"
      ],
      [
        "Ġar",
        "t"
      ],
      [
        "Ġch",
        "aracter"
      ],
      [
        "Ġs",
        "tockings"
      ],
      [
        "Ġy",
        "el"
      ],
      [
        "ho",
        "se"
      ],
      [
        "tail",
        "s"
      ],
      [
        "anty",
        "hose"
      ],
      [
        "am",
        "i"
      ],
      [
        "pan",
        "ties"
      ],
      [
        "Ġyel",
        "low"
      ],
      [
        "o",
        "shi"
      ],
      [
        "b",
        "e"
      ],
      [
        "m",
        "a"
      ],
      [
        "Ġ",
        "le"
      ],
      [
        "'",
        "s"
      ],
      [
        "ar",
        "y"
      ],
      [
        "s",
        "tr"
      ],
      [
        "ak",
        "a"
      ],
      [
        "j",
        "i"
      ],
      [
        "or",
        "i"
      ],
      [
        "r",
        "ay"
      ],
      [
        "ã",
        "Ĥ"
      ],
      [
        "i",
        "le"
      ],
      [
        "Ġ",
        "5"
      ],
      [
        "s",
        "chool"
      ],
      [
        "um",
        "e"
      ],
      [
        "!",
        "_"
      ],
      [
        "in",
        "tails"
      ],
      [
        "Ġpen",
        "is"
      ],
      [
        "Ġs",
        "ex"
      ],
      [
        "un",
        "k"
      ],
      [
        "Ġg",
        "r"
      ],
      [
        "am",
        "a"
      ],
      [
        "f",
        "emale"
      ],
      [
        "ano",
        "ther"
      ],
      [
        "l",
        "ic"
      ],
      [
        "wor",
        "k"
      ],
      [
        "c",
        "ensor"
      ],
      [
        "Ġ",
        "ass"
      ],
      [
        "d",
        "y"
      ],
      [
        "t",
        "om"
      ],
      [
        "Ġgre",
        "y"
      ],
      [
        "un",
        "n"
      ],
      [
        "ĠâĻ",
        "Ĥ"
      ],
      [
        "ou",
        "l"
      ],
      [
        "j",
        "acket"
      ],
      [
        "ne",
        "ck"
      ],
      [
        "leg",
        "s"
      ],
      [
        "Ġmulti",
        "ple"
      ],
      [
        "c",
        "os"
      ],
      [
        "Ġh",
        "e"
      ],
      [
        "p",
        "h"
      ],
      [
        "Ġsh",
        "ort"
      ],
      [
        "ga",
        "o"
      ],
      [
        "um",
        "i"
      ],
      [
        "ing",
        "er"
      ],
      [
        "Ġp",
        "ro"
      ],
      [
        "h",
        "and"
      ],
      [
        "k",
        "o"
      ],
      [
        "Ġth",
        "reesome"
      ],
      [
        "reas",
        "t"
      ],
      [
        "c",
        "le"
      ],
      [
        "rin",
        "t"
      ],
      [
        "Ġf",
        "o"
      ],
      [
        "c",
        "us"
      ],
      [
        "etr",
        "ation"
      ],
      [
        "Ġp",
        "l"
      ],
      [
        "as",
        "aki"
      ],
      [
        "Ġ2",
        "0"
      ],
      [
        "he",
        "gao"
      ],
      [
        "i",
        "j"
      ],
      [
        "ou",
        "r"
      ],
      [
        "o",
        "ck"
      ],
      [
        "Ġart",
        "ist"
      ],
      [
        "es",
        "s"
      ],
      [
        "ts",
        "u"
      ],
      [
        "o",
        "g"
      ],
      [
        "s",
        "ed"
      ],
      [
        "Ġcol",
        "lar"
      ],
      [
        "ac",
        "t"
      ],
      [
        "th",
        "e"
      ],
      [
        "ic",
        "e"
      ],
      [
        "Ġc",
        "he"
      ],
      [
        "u",
        "ff"
      ],
      [
        "at",
        "h"
      ],
      [
        "oul",
        "der"
      ],
      [
        "k",
        "i"
      ],
      [
        "ic",
        "k"
      ],
      [
        "h",
        "in"
      ],
      [
        "r",
        "ibbon"
      ],
      [
        "s",
        "ho"
      ],
      [
        "at",
        "ing"
      ],
      [
        "ac",
        "ting"
      ],
      [
        "b",
        "and"
      ],
      [
        "Ġc",
        "om"
      ],
      [
        "Ġs",
        "eries"
      ],
      [
        "Ġb",
        "e"
      ],
      [
        "Ġ",
        "as"
      ],
      [
        "ec",
        "t"
      ],
      [
        "Ġr",
        "ape"
      ],
      [
        "Ġs",
        "weat"
      ],
      [
        "s",
        "wimsuit"
      ],
      [
        "g",
        "loves"
      ],
      [
        "k",
        "a"
      ],
      [
        "er",
        "o"
      ],
      [
        "b",
        "ra"
      ],
      [
        "Ġg",
        "irl"
      ],
      [
        "Ġsk",
        "in"
      ],
      [
        "Ġb",
        "ikini"
      ],
      [
        "high",
        "highs"
      ],
      [
        "Ġp",
        "aizuri"
      ],
      [
        "bo",
        "dy"
      ],
      [
        "Ġ",
        "C"
      ],
      [
        "b",
        "r"
      ],
      [
        "Ġb",
        "r"
      ],
      [
        "s",
        "c"
      ],
      [
        "Ġn",
        "e"
      ],
      [
        "Ġso",
        "lo"
      ],
      [
        "ak",
        "u"
      ],
      [
        "Ġa",
        "hegao"
      ],
      [
        "Ġ",
        "P"
      ],
      [
        "b",
        "ig"
      ],
      [
        "to",
        "p"
      ],
      [
        "Ġhigh",
        "res"
      ],
      [
        "Ġdou",
        "ble"
      ],
      [
        "e",
        "e"
      ],
      [
        "Ġ",
        "z"
      ],
      [
        "ear",
        "t"
      ],
      [
        "Ġ",
        "6"
      ],
      [
        "Ġ",
        "N"
      ],
      [
        "at",
        "a"
      ],
      [
        "Ġ",
        "ex"
      ],
      [
        "et",
        "or"
      ],
      [
        "Ġs",
        "c"
      ],
      [
        "c",
        "l"
      ],
      [
        "ang",
        "e"
      ],
      [
        "Ġm",
        "us"
      ],
      [
        "Ġp",
        "o"
      ],
      [
        "h",
        "at"
      ],
      [
        "chi",
        "ve"
      ],
      [
        "ou",
        "s"
      ],
      [
        "g",
        "r"
      ],
      [
        "Ġtw",
        "intails"
      ],
      [
        "re",
        "g"
      ],
      [
        "Ġ",
        "al"
      ],
      [
        "c",
        "est"
      ],
      [
        "an",
        "a"
      ],
      [
        "Ġc",
        "l"
      ],
      [
        "d",
        "o"
      ],
      [
        "el",
        "t"
      ],
      [
        "ot",
        "ard"
      ],
      [
        "Ġn",
        "ipple"
      ],
      [
        "Ġp",
        "onytail"
      ],
      [
        "etor",
        "are"
      ],
      [
        "orn",
        "s"
      ],
      [
        "ac",
        "on"
      ],
      [
        "lic",
        "on"
      ],
      [
        "reg",
        "n"
      ],
      [
        "hot",
        "acon"
      ],
      [
        "u",
        "al"
      ],
      [
        "sh",
        "orts"
      ],
      [
        "s",
        "weat"
      ],
      [
        "Ġ",
        "F"
      ],
      [
        "v",
        "ie"
      ],
      [
        "i",
        "v"
      ],
      [
        "ac",
        "hi"
      ],
      [
        "Ġ",
        "ro"
      ],
      [
        "s",
        "ide"
      ],
      [
        "ab",
        "b"
      ],
      [
        "as",
        "t"
      ],
      [
        "il",
        "s"
      ],
      [
        "y",
        "a"
      ],
      [
        "as",
        "h"
      ],
      [
        "ter",
        "n"
      ],
      [
        "Ġlo",
        "licon"
      ],
      [
        "am",
        "ent"
      ],
      [
        "up",
        "ils"
      ],
      [
        "il",
        "l"
      ],
      [
        "Ġs",
        "wimsuit"
      ],
      [
        "ok",
        "emon"
      ],
      [
        "m",
        "ent"
      ],
      [
        "fo",
        "cus"
      ],
      [
        "lo",
        "sed"
      ],
      [
        "ip",
        "ed"
      ],
      [
        "Ġs",
        "hotacon"
      ],
      [
        "Ġs",
        "ide"
      ],
      [
        "Ġ",
        "T"
      ],
      [
        "orn",
        "ament"
      ],
      [
        "m",
        "an"
      ],
      [
        "us",
        "sy"
      ],
      [
        "fo",
        "ot"
      ],
      [
        "an",
        "k"
      ],
      [
        "i",
        "er"
      ],
      [
        "pl",
        "ay"
      ],
      [
        "le",
        "t"
      ],
      [
        ")",
        "_("
      ],
      [
        "is",
        "m"
      ],
      [
        "Ġ20",
        "2"
      ],
      [
        "Ġp",
        "an"
      ],
      [
        "Ġpen",
        "etration"
      ],
      [
        "Ġ",
        "G"
      ],
      [
        "Ġhair",
        "y"
      ],
      [
        "uk",
        "u"
      ],
      [
        "i",
        "re"
      ],
      [
        "sk",
        "in"
      ],
      [
        "in",
        "a"
      ],
      [
        "Ġs",
        "lee"
      ],
      [
        "y",
        "ou"
      ],
      [
        "ond",
        "om"
      ],
      [
        "un",
        "der"
      ],
      [
        "Ġim",
        "p"
      ],
      [
        "if",
        "t"
      ],
      [
        "Ġ",
        "ver"
      ],
      [
        "col",
        "lar"
      ],
      [
        "at",
        "s"
      ],
      [
        "s",
        "ti"
      ],
      [
        "Ġhe",
        "ad"
      ],
      [
        "Ġor",
        "ange"
      ],
      [
        "Ġt",
        "he"
      ],
      [
        "an",
        "e"
      ],
      [
        "low",
        "er"
      ],
      [
        "c",
        "o"
      ],
      [
        "n",
        "own"
      ],
      [
        "Ġbl",
        "ush"
      ],
      [
        "unk",
        "nown"
      ],
      [
        "ff",
        "ec"
      ],
      [
        "vie",
        "w"
      ],
      [
        "Ġb",
        "o"
      ],
      [
        "ffec",
        "ts"
      ],
      [
        "bl",
        "ue"
      ],
      [
        "ment",
        "ary"
      ],
      [
        "i",
        "um"
      ],
      [
        "Ġf",
        "inger"
      ],
      [
        "o",
        "ts"
      ],
      [
        "t",
        "le"
      ],
      [
        "i",
        "al"
      ],
      [
        "m",
        "e"
      ],
      [
        ":",
        "_"
      ],
      [
        "ou",
        "nd"
      ],
      [
        "y",
        "u"
      ],
      [
        "Ġc",
        "on"
      ],
      [
        "sh",
        "oulder"
      ],
      [
        "o",
        "to"
      ],
      [
        "r",
        "on"
      ],
      [
        "c",
        "om"
      ],
      [
        "Ġin",
        "cest"
      ],
      [
        "c",
        "ing"
      ],
      [
        "or",
        "ation"
      ],
      [
        "le",
        "d"
      ],
      [
        "col",
        "or"
      ],
      [
        "d",
        "om"
      ],
      [
        "p",
        "rint"
      ],
      [
        "p",
        "er"
      ],
      [
        "Ġ",
        "A"
      ],
      [
        "ic",
        "hi"
      ],
      [
        "is",
        "hi"
      ],
      [
        "Ġh",
        "o"
      ],
      [
        "Ġcro",
        "ss"
      ],
      [
        "y",
        "s"
      ],
      [
        "Ġe",
        "ffects"
      ],
      [
        "ij",
        "ig"
      ],
      [
        "Ġh",
        "eart"
      ],
      [
        "fl",
        "oration"
      ],
      [
        "Ġb",
        "ad"
      ],
      [
        "Ġn",
        "etorare"
      ],
      [
        "ijig",
        "asaki"
      ],
      [
        "Ġy",
        "u"
      ],
      [
        "a",
        "e"
      ],
      [
        "Ġb",
        "b"
      ],
      [
        "Ġanim",
        "al"
      ],
      [
        "ed",
        "ium"
      ],
      [
        "se",
        "x"
      ],
      [
        "b",
        "ang"
      ],
      [
        "Ġt",
        "ak"
      ],
      [
        "Ġ",
        "H"
      ],
      [
        "j",
        "ect"
      ],
      [
        "Ġun",
        "der"
      ],
      [
        "p",
        "e"
      ],
      [
        "ing",
        "le"
      ],
      [
        "y",
        "m"
      ],
      [
        "ag",
        "i"
      ],
      [
        "Ġm",
        "o"
      ],
      [
        "h",
        "ind"
      ],
      [
        "Ġc",
        "le"
      ],
      [
        "it",
        "y"
      ],
      [
        "Ġs",
        "u"
      ],
      [
        "p",
        "ull"
      ],
      [
        "bo",
        "t"
      ],
      [
        "eye",
        "wear"
      ],
      [
        "ud",
        "e"
      ],
      [
        "Ġ",
        "D"
      ],
      [
        "at",
        "ari"
      ],
      [
        "at",
        "su"
      ],
      [
        "f",
        "m"
      ],
      [
        "uk",
        "a"
      ],
      [
        "Ġt",
        "e"
      ],
      [
        "im",
        "i"
      ],
      [
        "Ġc",
        "over"
      ],
      [
        "Ġ",
        "one"
      ],
      [
        "Ġc",
        "hi"
      ],
      [
        "be",
        "hind"
      ],
      [
        "censor",
        "ed"
      ],
      [
        "p",
        "ing"
      ],
      [
        "h",
        "a"
      ],
      [
        "i",
        "o"
      ],
      [
        "l",
        "ift"
      ],
      [
        "ã",
        "ģ"
      ],
      [
        "b",
        "i"
      ],
      [
        "Ġc",
        "loth"
      ],
      [
        "Ġb",
        "ow"
      ],
      [
        "Ġ",
        "("
      ],
      [
        "w",
        "a"
      ],
      [
        "ic",
        "al"
      ],
      [
        "t",
        "en"
      ],
      [
        "t",
        "highhighs"
      ],
      [
        "Ġm",
        "e"
      ],
      [
        "as",
        "e"
      ],
      [
        "se",
        "i"
      ],
      [
        "ik",
        "o"
      ],
      [
        "Ġs",
        "ingle"
      ],
      [
        "Ġsk",
        "irt"
      ],
      [
        "ail",
        "s"
      ],
      [
        "Ġstr",
        "iped"
      ],
      [
        "ag",
        "on"
      ],
      [
        "c",
        "on"
      ],
      [
        "view",
        "er"
      ],
      [
        "f",
        "ace"
      ],
      [
        "Ġo",
        "ff"
      ],
      [
        "Ġ",
        ":"
      ],
      [
        "p",
        "o"
      ],
      [
        "ch",
        "an"
      ],
      [
        "Ġb",
        "are"
      ],
      [
        "Ġ",
        "V"
      ],
      [
        "Ġd",
        "ilf"
      ],
      [
        "Ġhand",
        "s"
      ],
      [
        "pan",
        "ts"
      ],
      [
        "le",
        "s"
      ],
      [
        "ho",
        "to"
      ],
      [
        "ur",
        "b"
      ],
      [
        "iss",
        "ing"
      ],
      [
        "Ġc",
        "at"
      ],
      [
        "ond",
        "age"
      ],
      [
        "Ġc",
        "ow"
      ],
      [
        "f",
        "ate"
      ],
      [
        "Ġf",
        "e"
      ],
      [
        "Ġp",
        "antyhose"
      ],
      [
        "regn",
        "ation"
      ],
      [
        "Ġc",
        "ondom"
      ],
      [
        "et",
        "we"
      ],
      [
        "in",
        "ese"
      ],
      [
        "etwe",
        "en"
      ],
      [
        "j",
        "o"
      ],
      [
        "bang",
        "s"
      ],
      [
        "urb",
        "ation"
      ],
      [
        "Ġde",
        "floration"
      ],
      [
        "Ġche",
        "ating"
      ],
      [
        "Ġne",
        "ck"
      ],
      [
        "a",
        "o"
      ],
      [
        "em",
        "dom"
      ],
      [
        "Ġb",
        "reast"
      ],
      [
        "Ġshi",
        "rt"
      ],
      [
        "k",
        "u"
      ],
      [
        "qu",
        "est"
      ],
      [
        "t",
        "ume"
      ],
      [
        "Ġf",
        "ur"
      ],
      [
        "in",
        "s"
      ],
      [
        "u",
        "c"
      ],
      [
        "ec",
        "e"
      ],
      [
        "al",
        "le"
      ],
      [
        "mas",
        "ter"
      ],
      [
        "ar",
        "chive"
      ],
      [
        "Ġk",
        "ne"
      ],
      [
        "a",
        "ut"
      ],
      [
        "Ġm",
        "in"
      ],
      [
        "or",
        "s"
      ],
      [
        "Ġs",
        "e"
      ],
      [
        "r",
        "ing"
      ],
      [
        "t",
        "y"
      ],
      [
        "em",
        "e"
      ],
      [
        "Ġ",
        "L"
      ],
      [
        "Ġm",
        "ind"
      ],
      [
        "Ġsm",
        "all"
      ],
      [
        "re",
        "ad"
      ],
      [
        "l",
        "in"
      ],
      [
        "ra",
        "v"
      ],
      [
        "Ġf",
        "fm"
      ],
      [
        "ar",
        "ge"
      ],
      [
        "Ġtw",
        "o"
      ],
      [
        "k",
        "an"
      ],
      [
        "Ġ",
        "el"
      ],
      [
        "tr",
        "im"
      ],
      [
        "qu",
        "a"
      ],
      [
        "h",
        "ou"
      ],
      [
        "un",
        "d"
      ],
      [
        "u",
        "ge"
      ],
      [
        "Ġc",
        "o"
      ],
      [
        "rou",
        "gh"
      ],
      [
        "at",
        "ch"
      ],
      [
        "Ġp",
        "hoto"
      ],
      [
        "Ġk",
        "ur"
      ],
      [
        "Ġin",
        "ter"
      ],
      [
        "Ġl",
        "arge"
      ],
      [
        "ck",
        "s"
      ],
      [
        "cos",
        "tume"
      ],
      [
        "im",
        "ono"
      ],
      [
        "ers",
        "on"
      ],
      [
        "chi",
        "e"
      ],
      [
        "Ġf",
        "l"
      ],
      [
        "4",
        "5"
      ],
      [
        "Ġ",
        "em"
      ],
      [
        "t",
        "a"
      ],
      [
        "a",
        "f"
      ],
      [
        "s",
        "ur"
      ],
      [
        "le",
        "otard"
      ],
      [
        "b",
        "row"
      ],
      [
        "r",
        "ings"
      ],
      [
        "Ġ",
        "ab"
      ],
      [
        "Ġa",
        "qua"
      ],
      [
        "as",
        "u"
      ],
      [
        "d",
        "r"
      ],
      [
        "t",
        "ch"
      ],
      [
        "Ġver",
        "y"
      ],
      [
        "Ġg",
        "loves"
      ],
      [
        "il",
        "led"
      ],
      [
        "sweat",
        "er"
      ],
      [
        "s",
        "p"
      ],
      [
        "m",
        "o"
      ],
      [
        "Ġfr",
        "illed"
      ],
      [
        "c",
        "ut"
      ],
      [
        "Ġt",
        "om"
      ],
      [
        "at",
        "o"
      ],
      [
        "boy",
        "s"
      ],
      [
        "Ġf",
        "emdom"
      ],
      [
        "n",
        "a"
      ],
      [
        "leg",
        "wear"
      ],
      [
        "on",
        "s"
      ],
      [
        "an",
        "im"
      ],
      [
        "Ġto",
        "ys"
      ],
      [
        "t",
        "ed"
      ],
      [
        "um",
        "a"
      ],
      [
        "Ġimp",
        "regnation"
      ],
      [
        "p",
        "antyhose"
      ],
      [
        "tern",
        "ate"
      ],
      [
        "el",
        "se"
      ],
      [
        "rav",
        "ure"
      ],
      [
        "p",
        "p"
      ],
      [
        "ak",
        "o"
      ],
      [
        "Ġl",
        "ive"
      ],
      [
        "Ġd",
        "ress"
      ],
      [
        "ub",
        "ic"
      ],
      [
        "re",
        "quest"
      ],
      [
        "Ġh",
        "ar"
      ],
      [
        "is",
        "ter"
      ],
      [
        "Ġch",
        "inese"
      ],
      [
        "tr",
        "ol"
      ],
      [
        "d",
        "ou"
      ],
      [
        "Ġs",
        "ak"
      ],
      [
        "b",
        "un"
      ],
      [
        "th",
        "rough"
      ],
      [
        "pi",
        "ece"
      ],
      [
        "Ġb",
        "ack"
      ],
      [
        "it",
        "ting"
      ],
      [
        "Ġst",
        "ar"
      ],
      [
        "or",
        "e"
      ],
      [
        "Ġh",
        "uge"
      ],
      [
        "y",
        "aru"
      ],
      [
        "Ġ",
        "7"
      ],
      [
        "Ġm",
        "edium"
      ],
      [
        "ok",
        "u"
      ],
      [
        "Ġbb",
        "m"
      ],
      [
        "d",
        "a"
      ],
      [
        "Ġun",
        "censored"
      ],
      [
        "ap",
        "ron"
      ],
      [
        "pen",
        "is"
      ],
      [
        "in",
        "o"
      ],
      [
        "it",
        "ch"
      ],
      [
        "Ġ",
        "leg"
      ],
      [
        "m",
        "ale"
      ],
      [
        "Ġk",
        "o"
      ],
      [
        "Ġidol",
        "master"
      ],
      [
        "r",
        "ist"
      ],
      [
        "Ġg",
        "en"
      ],
      [
        "s",
        "ole"
      ],
      [
        "tom",
        "i"
      ],
      [
        "u",
        "ck"
      ],
      [
        "b",
        "all"
      ],
      [
        "Ġphoto",
        "sho"
      ],
      [
        "Ġs",
        "ho"
      ],
      [
        "Ġ",
        "eye"
      ],
      [
        "Ġ",
        "up"
      ],
      [
        "ble",
        "m"
      ],
      [
        "cos",
        "play"
      ],
      [
        "j",
        "apanese"
      ],
      [
        "iy",
        "a"
      ],
      [
        "d",
        "e"
      ],
      [
        "k",
        "er"
      ],
      [
        "i",
        "x"
      ],
      [
        "Ġm",
        "ark"
      ],
      [
        "Ġb",
        "ondage"
      ],
      [
        "Ġs",
        "un"
      ],
      [
        "om",
        "ach"
      ],
      [
        "Ġ",
        "|"
      ],
      [
        "gr",
        "ab"
      ],
      [
        "n",
        "ails"
      ],
      [
        "Ġ",
        "am"
      ],
      [
        "p",
        "upils"
      ],
      [
        "Ġfr",
        "om"
      ],
      [
        "al",
        "s"
      ],
      [
        "om",
        "imi"
      ],
      [
        "Ġt",
        "ail"
      ],
      [
        "ail",
        "or"
      ],
      [
        "Ġsm",
        "ears"
      ],
      [
        "aut",
        "y"
      ],
      [
        "p",
        "y"
      ],
      [
        "Ġh",
        "al"
      ],
      [
        "lo",
        "ve"
      ],
      [
        "n",
        "ame"
      ],
      [
        "foot",
        "wear"
      ],
      [
        "ob",
        "ject"
      ],
      [
        "un",
        "a"
      ],
      [
        "ear",
        "rings"
      ],
      [
        "color",
        "ed"
      ],
      [
        "eri",
        "e"
      ],
      [
        "Ġc",
        "losed"
      ],
      [
        "Ġg",
        "ravure"
      ],
      [
        "y",
        "o"
      ],
      [
        "Ġpan",
        "ties"
      ],
      [
        "ul",
        "ation"
      ],
      [
        "g",
        "atari"
      ],
      [
        "Ġb",
        "and"
      ],
      [
        "l",
        "ip"
      ],
      [
        "emon",
        "omimi"
      ],
      [
        "w",
        "el"
      ],
      [
        "hand",
        "s"
      ],
      [
        "Ġsm",
        "ile"
      ],
      [
        "Ġc",
        "lothes"
      ],
      [
        "ap",
        "ed"
      ],
      [
        "t",
        "at"
      ],
      [
        "h",
        "ara"
      ],
      [
        "ves",
        "t"
      ],
      [
        "ing",
        "erie"
      ],
      [
        "em",
        "blem"
      ],
      [
        "an",
        "ce"
      ],
      [
        "ok",
        "a"
      ],
      [
        "ast",
        "urbation"
      ],
      [
        "ono",
        "gatari"
      ],
      [
        "Ġstr",
        "ap"
      ],
      [
        "om",
        "i"
      ],
      [
        "av",
        "el"
      ],
      [
        "en",
        "d"
      ],
      [
        "c",
        "our"
      ],
      [
        "at",
        "er"
      ],
      [
        "Ġf",
        "ac"
      ],
      [
        "cour",
        "se"
      ],
      [
        "p",
        "s"
      ],
      [
        "Ġ",
        "ak"
      ],
      [
        "ut",
        "an"
      ],
      [
        "b",
        "etween"
      ],
      [
        "at",
        "or"
      ],
      [
        "ĠS",
        "ole"
      ],
      [
        "Ġnipple",
        "s"
      ],
      [
        "alle",
        "ry"
      ],
      [
        "Ġphotosho",
        "ot"
      ],
      [
        "Ġ1",
        "0"
      ],
      [
        "lin",
        "es"
      ],
      [
        "Ġho",
        "od"
      ],
      [
        "to",
        "o"
      ],
      [
        "w",
        "orn"
      ],
      [
        "Ġt",
        "high"
      ],
      [
        "p",
        "u"
      ],
      [
        "w",
        "ings"
      ],
      [
        "Ġ",
        "K"
      ],
      [
        "Ġl",
        "ight"
      ],
      [
        "Ġk",
        "an"
      ],
      [
        "Ġsp",
        "read"
      ],
      [
        "sh",
        "aped"
      ],
      [
        "brow",
        "s"
      ],
      [
        "it",
        "a"
      ],
      [
        "Ġ",
        "u"
      ],
      [
        "Ġhi",
        "tomi"
      ],
      [
        "il",
        "ing"
      ],
      [
        "Ġg",
        "yaru"
      ],
      [
        "m",
        "f"
      ],
      [
        "ph",
        "one"
      ],
      [
        "ib",
        "le"
      ],
      [
        "Ġst",
        "and"
      ],
      [
        "Ġslee",
        "ve"
      ],
      [
        "unn",
        "y"
      ],
      [
        "iy",
        "uu"
      ],
      [
        "h",
        "orns"
      ],
      [
        "od",
        "y"
      ],
      [
        "Ġstand",
        "ing"
      ],
      [
        "v",
        "is"
      ],
      [
        "arm",
        "s"
      ],
      [
        "p",
        "os"
      ],
      [
        "re",
        "ak"
      ],
      [
        "Ġp",
        "ar"
      ],
      [
        "ĠV",
        "A"
      ],
      [
        "b",
        "ol"
      ],
      [
        "cl",
        "ub"
      ],
      [
        "Ġj",
        "e"
      ],
      [
        "Ġmulti",
        "colored"
      ],
      [
        "f",
        "lower"
      ],
      [
        "Ġarm",
        "s"
      ],
      [
        "Ġbe",
        "auty"
      ],
      [
        "Ġsh",
        "in"
      ],
      [
        "ok",
        "e"
      ],
      [
        "l",
        "ing"
      ],
      [
        "b",
        "reast"
      ],
      [
        "ou",
        "n"
      ],
      [
        "ong",
        "ue"
      ],
      [
        "Ġ",
        "U"
      ],
      [
        "s",
        "ock"
      ],
      [
        "ab",
        "le"
      ],
      [
        "d",
        "own"
      ],
      [
        "ens",
        "hin"
      ],
      [
        "Ġt",
        "an"
      ],
      [
        "v",
        "en"
      ],
      [
        "Ġg",
        "allery"
      ],
      [
        "as",
        "k"
      ],
      [
        "Ġt",
        "orn"
      ],
      [
        "Ġ",
        "low"
      ],
      [
        "l",
        "a"
      ],
      [
        "Ġs",
        "itting"
      ],
      [
        "Ġf",
        "ire"
      ],
      [
        "y",
        "le"
      ],
      [
        "on",
        "ly"
      ],
      [
        "p",
        "okemon"
      ],
      [
        "str",
        "ap"
      ],
      [
        "Ġf",
        "ace"
      ],
      [
        "sur",
        "d"
      ],
      [
        "Ġp",
        "ussy"
      ],
      [
        "c",
        "over"
      ],
      [
        "b",
        "er"
      ],
      [
        "es",
        "ti"
      ],
      [
        "br",
        "aid"
      ],
      [
        "r",
        "ic"
      ],
      [
        "å",
        "¹"
      ],
      [
        "Ġinter",
        "course"
      ],
      [
        "Ġsleeve",
        "less"
      ],
      [
        "ond",
        "e"
      ],
      [
        "Ġ",
        "ad"
      ],
      [
        "bo",
        "ots"
      ],
      [
        "f",
        "orm"
      ],
      [
        "Ġs",
        "ister"
      ],
      [
        "utan",
        "ari"
      ],
      [
        "Ġd",
        "emon"
      ],
      [
        "m",
        "ed"
      ],
      [
        "Ġgr",
        "abb"
      ],
      [
        "m",
        "ark"
      ],
      [
        "m",
        "aid"
      ],
      [
        "å¹",
        "´"
      ],
      [
        "Ġs",
        "en"
      ],
      [
        "Ġab",
        "surd"
      ],
      [
        "t",
        "one"
      ],
      [
        "Ġy",
        "uri"
      ],
      [
        "Ġgrabb",
        "ing"
      ],
      [
        "sock",
        "s"
      ],
      [
        "Ġal",
        "ternate"
      ],
      [
        "up",
        "er"
      ],
      [
        "Ġp",
        "okemon"
      ],
      [
        "r",
        "is"
      ],
      [
        "ay",
        "a"
      ],
      [
        "Ġ",
        "R"
      ],
      [
        "j",
        "u"
      ],
      [
        "Ġm",
        "asturbation"
      ],
      [
        "ad",
        "i"
      ],
      [
        "se",
        "iyuu"
      ],
      [
        "es",
        "hi"
      ],
      [
        "Ġm",
        "ole"
      ],
      [
        "Ġunder",
        "wear"
      ],
      [
        "or",
        "y"
      ],
      [
        "Ġcom",
        "mentary"
      ],
      [
        "Ġbl",
        "onde"
      ],
      [
        "iling",
        "us"
      ],
      [
        "Ġr",
        "ibbon"
      ],
      [
        "or",
        "a"
      ],
      [
        "i",
        "ts"
      ],
      [
        "bow",
        "tie"
      ],
      [
        "Ġun",
        "worn"
      ],
      [
        "ach",
        "er"
      ],
      [
        "ak",
        "adashi"
      ],
      [
        "ons",
        "ter"
      ],
      [
        "a",
        "u"
      ],
      [
        "Ġ",
        "E"
      ],
      [
        "Ġabsurd",
        "res"
      ],
      [
        "å",
        "ı"
      ],
      [
        "Ġm",
        "an"
      ],
      [
        "Ġfo",
        "od"
      ],
      [
        "Ġb",
        "ut"
      ],
      [
        "ok",
        "o"
      ],
      [
        "g",
        "o"
      ],
      [
        "p",
        "onytail"
      ],
      [
        "el",
        "f"
      ],
      [
        "Ġm",
        "ilf"
      ],
      [
        "Ġcloth",
        "ed"
      ],
      [
        "av",
        "age"
      ],
      [
        "Ġb",
        "elt"
      ],
      [
        "ar",
        "ter"
      ],
      [
        "hi",
        "bi"
      ],
      [
        "im",
        "p"
      ],
      [
        "al",
        "d"
      ],
      [
        "k",
        "ai"
      ],
      [
        "t",
        "u"
      ],
      [
        "te",
        "e"
      ],
      [
        "ar",
        "ound"
      ],
      [
        "Ġf",
        "u"
      ],
      [
        "ĠB",
        "ig"
      ],
      [
        "ik",
        "i"
      ],
      [
        "b",
        "ag"
      ],
      [
        "Ġfinger",
        "ing"
      ],
      [
        "hair",
        "band"
      ],
      [
        "s",
        "m"
      ],
      [
        "åı",
        "·"
      ],
      [
        "Ġk",
        "emonomimi"
      ],
      [
        "Ġh",
        "orns"
      ],
      [
        "Ġd",
        "ick"
      ],
      [
        "p",
        "ussy"
      ],
      [
        "all",
        "y"
      ],
      [
        "ap",
        "on"
      ],
      [
        "e",
        "i"
      ],
      [
        "n",
        "ijigasaki"
      ],
      [
        "Ġh",
        "at"
      ],
      [
        "j",
        "ou"
      ],
      [
        "hibi",
        "tion"
      ],
      [
        "t",
        "w"
      ],
      [
        "hibition",
        "ism"
      ],
      [
        "Ġcon",
        "trol"
      ],
      [
        "r",
        "un"
      ],
      [
        "i",
        "an"
      ],
      [
        "i",
        "th"
      ],
      [
        "unn",
        "ilingus"
      ],
      [
        "ti",
        "c"
      ],
      [
        "m",
        "in"
      ],
      [
        "Ġcle",
        "avage"
      ],
      [
        "ab",
        "ric"
      ],
      [
        "us",
        "ual"
      ],
      [
        "b",
        "elt"
      ],
      [
        "g",
        "u"
      ],
      [
        "Ġp",
        "res"
      ],
      [
        "re",
        "at"
      ],
      [
        "Ġh",
        "an"
      ],
      [
        "ad",
        "e"
      ],
      [
        "e",
        "p"
      ],
      [
        "Ġpl",
        "aid"
      ],
      [
        "ik",
        "u"
      ],
      [
        "com",
        "mentary"
      ],
      [
        "ur",
        "u"
      ],
      [
        "l",
        "ong"
      ],
      [
        "trim",
        "med"
      ],
      [
        "ick",
        "ing"
      ],
      [
        "Ġm",
        "aid"
      ],
      [
        "Ġar",
        "e"
      ],
      [
        "Ġon",
        "ly"
      ],
      [
        "z",
        "u"
      ],
      [
        "i",
        "i"
      ],
      [
        "ãĥ",
        "³"
      ],
      [
        "im",
        "ple"
      ],
      [
        "im",
        "e"
      ],
      [
        "m",
        "ilf"
      ],
      [
        "cut",
        "out"
      ],
      [
        "i",
        "ed"
      ],
      [
        "ol",
        "ae"
      ],
      [
        "or",
        "u"
      ],
      [
        "or",
        "der"
      ],
      [
        "act",
        "ation"
      ],
      [
        "abb",
        "it"
      ],
      [
        "if",
        "f"
      ],
      [
        "ub",
        "ble"
      ],
      [
        "Ġl",
        "ingerie"
      ],
      [
        "co",
        "at"
      ],
      [
        "wor",
        "d"
      ],
      [
        "head",
        "wear"
      ],
      [
        "ag",
        "inal"
      ],
      [
        "c",
        "tion"
      ],
      [
        "d",
        "uc"
      ],
      [
        "ho",
        "od"
      ],
      [
        "Ġa",
        "f"
      ],
      [
        "uk",
        "e"
      ],
      [
        "Ġn",
        "avel"
      ],
      [
        "k",
        "ing"
      ],
      [
        "Ġf",
        "abric"
      ],
      [
        "Ġk",
        "issing"
      ],
      [
        "Ġm",
        "mf"
      ],
      [
        "Ġsc",
        "ar"
      ],
      [
        "ad",
        "a"
      ],
      [
        "n",
        "i"
      ],
      [
        "Ġt",
        "en"
      ],
      [
        "lip",
        "s"
      ],
      [
        "n",
        "ipple"
      ],
      [
        "ro",
        "p"
      ],
      [
        "Ġfo",
        "ot"
      ],
      [
        "Ġf",
        "ish"
      ],
      [
        "Ġ",
        "I"
      ],
      [
        "ek",
        "ai"
      ],
      [
        "s",
        "an"
      ],
      [
        "n",
        "ude"
      ],
      [
        "Ġpo",
        "in"
      ],
      [
        "ho",
        "ku"
      ],
      [
        "Ġt",
        "ongue"
      ],
      [
        "Ġpro",
        "duc"
      ],
      [
        "y",
        "ama"
      ],
      [
        "Ġ",
        "legs"
      ],
      [
        "c",
        "losed"
      ],
      [
        "Ġp",
        "ol"
      ],
      [
        "Ġ",
        "ai"
      ],
      [
        "st",
        "yle"
      ],
      [
        "l",
        "ine"
      ],
      [
        "e",
        "ek"
      ],
      [
        "ik",
        "a"
      ],
      [
        "Ġdick",
        "girl"
      ],
      [
        "m",
        "er"
      ],
      [
        "imp",
        "act"
      ],
      [
        "tee",
        "th"
      ],
      [
        "sti",
        "tu"
      ],
      [
        "fr",
        "ame"
      ],
      [
        "neck",
        "tie"
      ],
      [
        "stitu",
        "tion"
      ],
      [
        "Ġm",
        "ar"
      ],
      [
        "el",
        "s"
      ],
      [
        "Ġf",
        "ate"
      ],
      [
        "c",
        "ess"
      ],
      [
        "art",
        "ed"
      ],
      [
        "Ġt",
        "s"
      ],
      [
        "Ġ202",
        "3"
      ],
      [
        "p",
        "ubic"
      ],
      [
        "h",
        "an"
      ],
      [
        "do",
        "ors"
      ],
      [
        "ik",
        "e"
      ],
      [
        "s",
        "en"
      ],
      [
        "un",
        "e"
      ],
      [
        "Ġb",
        "ra"
      ],
      [
        "r",
        "i"
      ],
      [
        "Ġm",
        "a"
      ],
      [
        "ant",
        "as"
      ],
      [
        "dou",
        "jinshi"
      ],
      [
        "m",
        "ing"
      ],
      [
        "Ġp",
        "rint"
      ],
      [
        "Ġs",
        "imple"
      ],
      [
        "Ġl",
        "i"
      ],
      [
        "Ġn",
        "ijigasaki"
      ],
      [
        "h",
        "on"
      ],
      [
        "Ġaf",
        "ter"
      ],
      [
        "r",
        "u"
      ],
      [
        "Ġp",
        "upils"
      ],
      [
        "Ġ",
        "ur"
      ],
      [
        "Ġw",
        "et"
      ],
      [
        "und",
        "am"
      ],
      [
        "igh",
        "ting"
      ],
      [
        "Ġdr",
        "agon"
      ],
      [
        "st",
        "ar"
      ],
      [
        "sho",
        "es"
      ],
      [
        "wel",
        "ry"
      ],
      [
        "Ġl",
        "icking"
      ],
      [
        "ten",
        "sei"
      ],
      [
        "Ġr",
        "abbit"
      ],
      [
        "c",
        "ape"
      ],
      [
        "Ġl",
        "y"
      ],
      [
        "Ġfe",
        "et"
      ],
      [
        "Ġm",
        "il"
      ],
      [
        "om",
        "o"
      ],
      [
        "sk",
        "y"
      ],
      [
        "Ġ",
        "ay"
      ],
      [
        "Ġn",
        "ude"
      ],
      [
        "Ġte",
        "acher"
      ],
      [
        "Ġb",
        "ald"
      ],
      [
        "ry",
        "ing"
      ],
      [
        "Ġt",
        "hi"
      ],
      [
        "uff",
        "y"
      ],
      [
        "Ġbr",
        "aid"
      ],
      [
        "qu",
        "id"
      ],
      [
        "Ġex",
        "hibitionism"
      ],
      [
        "Ġs",
        "n"
      ],
      [
        "Ġs",
        "ti"
      ],
      [
        "Ġkne",
        "e"
      ],
      [
        "p",
        "a"
      ],
      [
        "cho",
        "ker"
      ],
      [
        "Ġsh",
        "orts"
      ],
      [
        "en",
        "ce"
      ],
      [
        "Ġsweat",
        "ing"
      ],
      [
        "Ġy",
        "oshi"
      ],
      [
        "Ġm",
        "id"
      ],
      [
        "Ġk",
        "ir"
      ],
      [
        "eye",
        "brows"
      ],
      [
        "Ġt",
        "ank"
      ],
      [
        "ig",
        "an"
      ],
      [
        "Ġk",
        "ip"
      ],
      [
        "Ġb",
        "lo"
      ],
      [
        "Ġf",
        "ake"
      ],
      [
        "Ġc",
        "ho"
      ],
      [
        "er",
        "u"
      ],
      [
        "ic",
        "ial"
      ],
      [
        "ab",
        "e"
      ],
      [
        "g",
        "y"
      ],
      [
        "Ġkip",
        "pu"
      ],
      [
        "Ġpar",
        "ti"
      ],
      [
        "Ġcl",
        "ub"
      ],
      [
        "g",
        "enshin"
      ],
      [
        "antas",
        "y"
      ],
      [
        "ĠU",
        "n"
      ],
      [
        "æ",
        "ľ"
      ],
      [
        "o",
        "h"
      ],
      [
        "g",
        "un"
      ],
      [
        "ig",
        "n"
      ],
      [
        "q",
        "ue"
      ],
      [
        "un",
        "ge"
      ],
      [
        "el",
        "d"
      ],
      [
        "Ġw",
        "ater"
      ],
      [
        "Ġup",
        "per"
      ],
      [
        "nipple",
        "s"
      ],
      [
        "uk",
        "o"
      ],
      [
        "w",
        "ard"
      ],
      [
        "ai",
        "st"
      ],
      [
        "ch",
        "ed"
      ],
      [
        "Ġm",
        "iy"
      ],
      [
        "m",
        "ai"
      ],
      [
        "ch",
        "est"
      ],
      [
        "hi",
        "ro"
      ],
      [
        "k",
        "imono"
      ],
      [
        "Ġj",
        "acket"
      ],
      [
        "Ġcover",
        "ed"
      ],
      [
        "Ġw",
        "a"
      ],
      [
        "Ġmus",
        "hoku"
      ],
      [
        "Ġb",
        "ody"
      ],
      [
        "t",
        "ub"
      ],
      [
        "pp",
        "ed"
      ],
      [
        "ĠM",
        "osaic"
      ],
      [
        "or",
        "o"
      ],
      [
        "Ġje",
        "welry"
      ],
      [
        "Ġst",
        "omach"
      ],
      [
        "s",
        "hot"
      ],
      [
        "run",
        "chie"
      ],
      [
        "m",
        "eme"
      ],
      [
        "Ġun",
        "usual"
      ],
      [
        "Ġn",
        "i"
      ],
      [
        "ol",
        "l"
      ],
      [
        "bot",
        "tom"
      ],
      [
        "Ġsm",
        "oke"
      ],
      [
        "g",
        "in"
      ],
      [
        "Ġ",
        "en"
      ],
      [
        "c",
        "ro"
      ],
      [
        "o",
        "i"
      ],
      [
        "t",
        "ain"
      ],
      [
        "Ġc",
        "unnilingus"
      ],
      [
        "Ġp",
        "uffy"
      ],
      [
        "ok",
        "i"
      ],
      [
        "unge",
        "on"
      ],
      [
        "Ġk",
        "az"
      ],
      [
        "Ġhar",
        "em"
      ],
      [
        "n",
        "er"
      ],
      [
        "rin",
        "cess"
      ],
      [
        "ad",
        "ow"
      ],
      [
        "ĠN",
        "akadashi"
      ],
      [
        "Ġp",
        "arted"
      ],
      [
        "g",
        "er"
      ],
      [
        "Ġ",
        "out"
      ],
      [
        "Ġ",
        "Y"
      ],
      [
        "Ġs",
        "qu"
      ],
      [
        "Ġ",
        "8"
      ],
      [
        "Ġc",
        "reat"
      ],
      [
        "Ġar",
        "chive"
      ],
      [
        "ro",
        "om"
      ],
      [
        "Ġpro",
        "stitution"
      ],
      [
        "an",
        "ing"
      ],
      [
        "Ġare",
        "olae"
      ],
      [
        "Ġle",
        "otard"
      ],
      [
        "y",
        "uu"
      ],
      [
        "ym",
        "m"
      ],
      [
        "Ġd",
        "og"
      ],
      [
        "Ġtransl",
        "ation"
      ],
      [
        "Ġt",
        "highhighs"
      ],
      [
        "le",
        "r"
      ],
      [
        "to",
        "ge"
      ],
      [
        "re",
        "e"
      ],
      [
        "!",
        ")"
      ],
      [
        "a",
        "lo"
      ],
      [
        "Ġb",
        "reak"
      ],
      [
        "Ġli",
        "quid"
      ],
      [
        "ĠB",
        "lowjob"
      ],
      [
        "Ġhal",
        "f"
      ],
      [
        "on",
        "t"
      ],
      [
        "ver",
        "se"
      ],
      [
        "Ġl",
        "actation"
      ],
      [
        "Ġ",
        "ou"
      ],
      [
        "vis",
        "ible"
      ],
      [
        "toge",
        "ther"
      ],
      [
        "Ġc",
        "am"
      ],
      [
        "Ġoff",
        "icial"
      ],
      [
        "il",
        "ming"
      ],
      [
        "ent",
        "ac"
      ],
      [
        "col",
        "le"
      ],
      [
        "p",
        "erson"
      ],
      [
        "il",
        "low"
      ],
      [
        "ir",
        "gin"
      ],
      [
        "n",
        "al"
      ],
      [
        "Ġ",
        "er"
      ],
      [
        "etr",
        "ical"
      ],
      [
        "ymm",
        "etrical"
      ],
      [
        "ach",
        "ed"
      ],
      [
        "lo",
        "cks"
      ],
      [
        "d",
        "en"
      ],
      [
        "Ġt",
        "ou"
      ],
      [
        "as",
        "ide"
      ],
      [
        "sc",
        "ar"
      ],
      [
        "w",
        "ith"
      ],
      [
        "et",
        "ached"
      ],
      [
        "Ġslee",
        "ping"
      ],
      [
        "Ġde",
        "ep"
      ],
      [
        "ier",
        "en"
      ],
      [
        "Ġnak",
        "ed"
      ],
      [
        "hand",
        "job"
      ],
      [
        "m",
        "ulation"
      ],
      [
        "Ġ202",
        "2"
      ],
      [
        "c",
        "y"
      ],
      [
        "sy",
        "m"
      ],
      [
        "Ġ",
        "and"
      ],
      [
        "Ġs",
        "ome"
      ],
      [
        "Ġf",
        "or"
      ],
      [
        "Ġcolor",
        "ed"
      ],
      [
        "ur",
        "es"
      ],
      [
        "Ġon",
        "i"
      ],
      [
        "ĠN",
        "o"
      ],
      [
        "Ġm",
        "onster"
      ],
      [
        "f",
        "ire"
      ],
      [
        "ink",
        "ing"
      ],
      [
        "Ġ",
        "ve"
      ],
      [
        "m",
        "ail"
      ],
      [
        "Ġm",
        "ag"
      ],
      [
        "Ġc",
        "ar"
      ],
      [
        "Ġmus",
        "cle"
      ],
      [
        "Ġmo",
        "ther"
      ],
      [
        "sti",
        "ck"
      ],
      [
        "Ġcloth",
        "ing"
      ],
      [
        "dress",
        "ing"
      ],
      [
        "y",
        "uki"
      ],
      [
        "Ġcensor",
        "ed"
      ],
      [
        "at",
        "io"
      ],
      [
        "w",
        "o"
      ],
      [
        "c",
        "ap"
      ],
      [
        "uk",
        "k"
      ],
      [
        "Ġparti",
        "ally"
      ],
      [
        "j",
        "im"
      ],
      [
        "Ġs",
        "al"
      ],
      [
        "Ġd",
        "ungeon"
      ],
      [
        "b",
        "re"
      ],
      [
        "s",
        "ailor"
      ],
      [
        "bl",
        "ush"
      ],
      [
        "al",
        "k"
      ],
      [
        "Ġcover",
        "ing"
      ],
      [
        "s",
        "ome"
      ],
      [
        "er",
        "ed"
      ],
      [
        "pi",
        "ts"
      ],
      [
        "hin",
        "o"
      ],
      [
        "k",
        "en"
      ],
      [
        "k",
        "e"
      ],
      [
        "Ġp",
        "erson"
      ],
      [
        "Ġw",
        "e"
      ],
      [
        "g",
        "as"
      ],
      [
        "Ġb",
        "ur"
      ],
      [
        "ĠS",
        "chool"
      ],
      [
        "Ġ",
        "os"
      ],
      [
        "ok",
        "en"
      ],
      [
        "Ġf",
        "lower"
      ],
      [
        "Ġfac",
        "ial"
      ],
      [
        "un",
        "t"
      ],
      [
        "Ġb",
        "ang"
      ],
      [
        "bo",
        "x"
      ],
      [
        "pi",
        "er"
      ],
      [
        "Ġd",
        "en"
      ],
      [
        "Ġcreat",
        "ures"
      ],
      [
        "Ġschool",
        "boy"
      ],
      [
        "uff",
        "s"
      ],
      [
        "Ġsp",
        "oken"
      ],
      [
        "in",
        "ation"
      ],
      [
        "ho",
        "ge"
      ],
      [
        "Ġ",
        "ag"
      ],
      [
        "er",
        "tion"
      ],
      [
        "Ġ",
        "us"
      ],
      [
        "Ġy",
        "am"
      ],
      [
        "Ġs",
        "te"
      ],
      [
        "ukk",
        "ake"
      ],
      [
        "Ġs",
        "ee"
      ],
      [
        "b",
        "ed"
      ],
      [
        "Ġsu",
        "it"
      ],
      [
        "ur",
        "ry"
      ],
      [
        "b",
        "ell"
      ],
      [
        "as",
        "a"
      ],
      [
        "Ġg",
        "old"
      ],
      [
        "m",
        "at"
      ],
      [
        "Ġp",
        "anty"
      ],
      [
        "igh",
        "ter"
      ],
      [
        "sh",
        "ou"
      ],
      [
        "Ġcro",
        "pped"
      ],
      [
        "ec",
        "tion"
      ],
      [
        "Ġm",
        "ak"
      ],
      [
        "ard",
        "igan"
      ],
      [
        "Ġs",
        "l"
      ],
      [
        "Ġhand",
        "job"
      ],
      [
        "Ġ",
        "W"
      ],
      [
        "x",
        "t"
      ],
      [
        "it",
        "ing"
      ],
      [
        "Ġsh",
        "oulder"
      ],
      [
        "u",
        "chi"
      ],
      [
        "f",
        "old"
      ],
      [
        "Ġg",
        "ro"
      ],
      [
        "pier",
        "cing"
      ],
      [
        "anim",
        "al"
      ],
      [
        "b",
        "ar"
      ],
      [
        "b",
        "one"
      ],
      [
        "Ġd",
        "etached"
      ],
      [
        "Ġf",
        "ighting"
      ],
      [
        "Ġt",
        "su"
      ],
      [
        "ro",
        "at"
      ],
      [
        "t",
        "on"
      ],
      [
        "l",
        "ace"
      ],
      [
        "irgin",
        "ity"
      ],
      [
        "shoulder",
        "s"
      ],
      [
        "r",
        "ight"
      ],
      [
        "Ġlo",
        "l"
      ],
      [
        "Ġsweat",
        "er"
      ],
      [
        "f",
        "inger"
      ],
      [
        "Ġl",
        "ace"
      ],
      [
        "Ġv",
        "aginal"
      ],
      [
        "unn",
        "ing"
      ],
      [
        "sym",
        "bol"
      ],
      [
        "Ġas",
        "ymmetrical"
      ],
      [
        "z",
        "uki"
      ],
      [
        "x",
        "iv"
      ],
      [
        "Ġstrap",
        "less"
      ],
      [
        "tat",
        "too"
      ],
      [
        "Ġf",
        "ilming"
      ],
      [
        "Ġpo",
        "v"
      ],
      [
        "!",
        "!"
      ],
      [
        "b",
        "a"
      ],
      [
        "Ġ",
        "J"
      ],
      [
        "et",
        "ero"
      ],
      [
        "Ġm",
        "or"
      ],
      [
        "Ġblack",
        "mail"
      ],
      [
        "chie",
        "f"
      ],
      [
        "av",
        "y"
      ],
      [
        "is",
        "ekai"
      ],
      [
        "t",
        "ak"
      ],
      [
        "bo",
        "ob"
      ],
      [
        "Ġcross",
        "ed"
      ],
      [
        "th",
        "roat"
      ],
      [
        "adi",
        "ent"
      ],
      [
        "Ġr",
        "unning"
      ],
      [
        "ad",
        "em"
      ],
      [
        "ier",
        "cing"
      ],
      [
        "g",
        "i"
      ],
      [
        "m",
        "eshi"
      ],
      [
        "at",
        "ure"
      ],
      [
        "ic",
        "ro"
      ],
      [
        "Ġgr",
        "adient"
      ],
      [
        "ar",
        "ou"
      ],
      [
        "if",
        "e"
      ],
      [
        "Ġm",
        "ake"
      ],
      [
        "g",
        "g"
      ],
      [
        "Ġo",
        "ver"
      ],
      [
        "Ġc",
        "ur"
      ],
      [
        "f",
        "t"
      ],
      [
        "Ġh",
        "etero"
      ],
      [
        "te",
        "xt"
      ],
      [
        "l",
        "d"
      ],
      [
        "Ġb",
        "ed"
      ],
      [
        "fr",
        "om"
      ],
      [
        "ek",
        "o"
      ],
      [
        "Ġle",
        "aning"
      ],
      [
        "um",
        "ed"
      ],
      [
        "f",
        "lo"
      ],
      [
        "re",
        "am"
      ],
      [
        "p",
        "ress"
      ],
      [
        "Ġbo",
        "ots"
      ],
      [
        "Ġk",
        "iz"
      ],
      [
        "c",
        "hair"
      ],
      [
        "bo",
        "ok"
      ],
      [
        "Ġpres",
        "umed"
      ],
      [
        "pi",
        "xiv"
      ],
      [
        "Ġs",
        "uper"
      ],
      [
        "w",
        "aist"
      ],
      [
        "mas",
        "k"
      ],
      [
        "ou",
        "gh"
      ],
      [
        "im",
        "job"
      ],
      [
        "d",
        "ot"
      ],
      [
        "Ġt",
        "all"
      ],
      [
        "Ġw",
        "ind"
      ],
      [
        "Ġk",
        "ag"
      ],
      [
        "ac",
        "adem"
      ],
      [
        "censor",
        "ing"
      ],
      [
        "Ġp",
        "er"
      ],
      [
        "p",
        "art"
      ],
      [
        "Ġd",
        "an"
      ],
      [
        "Ġw",
        "rist"
      ],
      [
        "gl",
        "asses"
      ],
      [
        "lo",
        "ck"
      ],
      [
        "Ġn",
        "on"
      ],
      [
        "er",
        "chief"
      ],
      [
        "b",
        "ubble"
      ],
      [
        "f",
        "e"
      ],
      [
        "ell",
        "atio"
      ],
      [
        "f",
        "or"
      ],
      [
        "Ġw",
        "ide"
      ],
      [
        "Ġto",
        "p"
      ],
      [
        "m",
        "ag"
      ],
      [
        "Ġsp",
        "ik"
      ],
      [
        "Ġm",
        "ask"
      ],
      [
        "ind",
        "fold"
      ],
      [
        "d",
        "rop"
      ],
      [
        "Ġm",
        "onogatari"
      ],
      [
        "am",
        "ed"
      ],
      [
        "Ġg",
        "undam"
      ],
      [
        "ir",
        "i"
      ],
      [
        "Ġt",
        "at"
      ],
      [
        "bo",
        "ard"
      ],
      [
        "n",
        "ed"
      ],
      [
        "tr",
        "ansl"
      ],
      [
        "ĠB",
        "reasts"
      ],
      [
        "Ġp",
        "e"
      ],
      [
        "k",
        "un"
      ],
      [
        "Ġ",
        "ãĥ"
      ],
      [
        "us",
        "ume"
      ],
      [
        "Ġg",
        "arter"
      ],
      [
        "Ġpol",
        "ka"
      ],
      [
        "j",
        "us"
      ],
      [
        "Ġthi",
        "ck"
      ],
      [
        "Ġb",
        "ar"
      ],
      [
        "Ġou",
        "ts"
      ],
      [
        "Ġhigh",
        "leg"
      ],
      [
        "ãĤ",
        "¤"
      ],
      [
        "z",
        "a"
      ],
      [
        "regn",
        "ant"
      ],
      [
        "kan",
        "colle"
      ],
      [
        "o",
        "y"
      ],
      [
        "ap",
        "py"
      ],
      [
        "Ġt",
        "ata"
      ],
      [
        "gas",
        "m"
      ],
      [
        "Ġar",
        "c"
      ],
      [
        "ut",
        "a"
      ],
      [
        "um",
        "p"
      ],
      [
        "p",
        "it"
      ],
      [
        "ace",
        "let"
      ],
      [
        "Ġpan",
        "ts"
      ],
      [
        "Ġf",
        "utanari"
      ],
      [
        "et",
        "te"
      ],
      [
        "Ġ",
        "ear"
      ],
      [
        "ĠM",
        "anga"
      ],
      [
        "k",
        "in"
      ],
      [
        "an",
        "s"
      ],
      [
        "Ġbl",
        "urry"
      ],
      [
        "p",
        "ol"
      ],
      [
        "g",
        "en"
      ],
      [
        "Ġs",
        "ailor"
      ],
      [
        "ch",
        "a"
      ],
      [
        "Ġt",
        "ur"
      ],
      [
        "ir",
        "a"
      ],
      [
        "t",
        "highs"
      ],
      [
        "Ġst",
        "ory"
      ],
      [
        "l",
        "ight"
      ],
      [
        "æľ",
        "Ī"
      ],
      [
        "Ġcollar",
        "ed"
      ],
      [
        "entac",
        "les"
      ],
      [
        "ir",
        "ting"
      ],
      [
        "hood",
        "ie"
      ],
      [
        "Ġf",
        "ang"
      ],
      [
        "sc",
        "runchie"
      ],
      [
        "am",
        "ura"
      ],
      [
        "Ġb",
        "ag"
      ],
      [
        "Ġn",
        "ishi"
      ],
      [
        "on",
        "es"
      ],
      [
        "scar",
        "f"
      ],
      [
        "aic",
        "e"
      ],
      [
        "Ġf",
        "lo"
      ],
      [
        "Ġlo",
        "ck"
      ],
      [
        "con",
        "n"
      ],
      [
        "Ġm",
        "outh"
      ],
      [
        "u",
        "ya"
      ],
      [
        "Ġ",
        ";"
      ],
      [
        "end",
        "s"
      ],
      [
        "er",
        "v"
      ],
      [
        "Ġsho",
        "es"
      ],
      [
        "tat",
        "aice"
      ],
      [
        "b",
        "us"
      ],
      [
        "body",
        "suit"
      ],
      [
        "Ġdeep",
        "throat"
      ],
      [
        "u",
        "it"
      ],
      [
        "0",
        "3"
      ],
      [
        "Ġ",
        "O"
      ],
      [
        "us",
        "a"
      ],
      [
        "w",
        "itch"
      ],
      [
        "Ġk",
        "imono"
      ],
      [
        "z",
        "uku"
      ],
      [
        "ĠP",
        "aizuri"
      ],
      [
        "Ġp",
        "le"
      ],
      [
        "Ġk",
        "ar"
      ],
      [
        "n",
        "ched"
      ],
      [
        "Ġcle",
        "nched"
      ],
      [
        "Ġa",
        "hoge"
      ],
      [
        "Ġp",
        "iercing"
      ],
      [
        "Ġad",
        "jus"
      ],
      [
        "s",
        "ion"
      ],
      [
        "od",
        "en"
      ],
      [
        "Ġg",
        "a"
      ],
      [
        "Ġpl",
        "ay"
      ],
      [
        "Ġadjus",
        "ting"
      ],
      [
        "ti",
        "ve"
      ],
      [
        "Ġb",
        "unny"
      ],
      [
        "re",
        "tch"
      ],
      [
        "flo",
        "or"
      ],
      [
        "Ġm",
        "icro"
      ],
      [
        "ver",
        "ted"
      ],
      [
        "b",
        "y"
      ],
      [
        "Ġ",
        "earrings"
      ],
      [
        "v",
        "il"
      ],
      [
        "pe",
        "ek"
      ],
      [
        "Ġtan",
        "lines"
      ],
      [
        "Ġh",
        "or"
      ],
      [
        "ou",
        "bon"
      ],
      [
        "or",
        "iginal"
      ],
      [
        "Ġt",
        "ee"
      ],
      [
        "z",
        "ero"
      ],
      [
        "m",
        "ar"
      ],
      [
        "it",
        "ary"
      ],
      [
        "Ġtee",
        "th"
      ],
      [
        "Ġso",
        "cks"
      ],
      [
        "mat",
        "eri"
      ],
      [
        "our",
        "ce"
      ],
      [
        "ill",
        "s"
      ],
      [
        "Ġs",
        "at"
      ],
      [
        "b",
        "order"
      ],
      [
        "Ġb",
        "ot"
      ],
      [
        "Ġm",
        "ik"
      ],
      [
        "Ġb",
        "ukkake"
      ],
      [
        "Ġp",
        "ubic"
      ],
      [
        "z",
        "er"
      ],
      [
        "iv",
        "a"
      ],
      [
        "Ġh",
        "ug"
      ],
      [
        "to",
        "y"
      ],
      [
        "Ġsak",
        "ura"
      ],
      [
        "o",
        "p"
      ],
      [
        "Ġm",
        "on"
      ],
      [
        "c",
        "uffs"
      ],
      [
        "ath",
        "ing"
      ],
      [
        "f",
        "antasy"
      ],
      [
        "Ġh",
        "appy"
      ],
      [
        "j",
        "ac"
      ],
      [
        "Ġhi",
        "ro"
      ],
      [
        "Ġk",
        "ono"
      ],
      [
        "k",
        "ou"
      ],
      [
        "Ġp",
        "et"
      ],
      [
        "Ġproduc",
        "tion"
      ],
      [
        "Ġband",
        "aid"
      ],
      [
        "in",
        "ter"
      ],
      [
        "Ġk",
        "am"
      ],
      [
        "as",
        "umi"
      ],
      [
        "we",
        "apon"
      ],
      [
        "ĠSchool",
        "girl"
      ],
      [
        "ĠG",
        "roup"
      ],
      [
        "sl",
        "ip"
      ],
      [
        "ir",
        "u"
      ],
      [
        "Ġly",
        "ing"
      ],
      [
        "Ġ",
        "aki"
      ],
      [
        "um",
        "onogatari"
      ],
      [
        "Ġkiz",
        "umonogatari"
      ],
      [
        "ad",
        "d"
      ],
      [
        "Ġmake",
        "up"
      ],
      [
        "iss",
        "ion"
      ],
      [
        "Ġbare",
        "foot"
      ],
      [
        "n",
        "ing"
      ],
      [
        "w",
        "all"
      ],
      [
        "z",
        "aki"
      ],
      [
        "au",
        "gh"
      ],
      [
        "Ġside",
        "locks"
      ],
      [
        "i",
        "tion"
      ],
      [
        "Ġre",
        "verse"
      ],
      [
        "Ġm",
        "y"
      ],
      [
        "t",
        "an"
      ],
      [
        "Ġs",
        "word"
      ],
      [
        "Ġple",
        "ated"
      ],
      [
        "transl",
        "ated"
      ],
      [
        "materi",
        "als"
      ],
      [
        "ats",
        "uki"
      ],
      [
        "ĠS",
        "tockings"
      ],
      [
        "he",
        "els"
      ],
      [
        "n",
        "im"
      ],
      [
        "ou",
        "se"
      ],
      [
        "as",
        "c"
      ],
      [
        "om",
        "a"
      ],
      [
        "st",
        "omach"
      ],
      [
        "u",
        "i"
      ],
      [
        "ensor",
        "ship"
      ],
      [
        "ĠC",
        "ensorship"
      ],
      [
        "Ġdr",
        "inking"
      ],
      [
        "Ġp",
        "re"
      ],
      [
        "Ġc",
        "os"
      ],
      [
        "Ġt",
        "am"
      ],
      [
        "po",
        "se"
      ],
      [
        "Ġsal",
        "iva"
      ],
      [
        "ou",
        "ch"
      ],
      [
        "igh",
        "ts"
      ],
      [
        "ĠH",
        "air"
      ],
      [
        "ap",
        "art"
      ],
      [
        "is",
        "e"
      ],
      [
        "0",
        "0"
      ],
      [
        "cover",
        "ing"
      ],
      [
        "m",
        "i"
      ],
      [
        "ins",
        "ertion"
      ],
      [
        "Ġs",
        "leeves"
      ],
      [
        "ap",
        "er"
      ],
      [
        "p",
        "ed"
      ],
      [
        "in",
        "u"
      ],
      [
        "Ġm",
        "is"
      ],
      [
        "it",
        "t"
      ],
      [
        "m",
        "et"
      ],
      [
        "Ġ",
        "9"
      ],
      [
        "p",
        "ro"
      ],
      [
        "h",
        "old"
      ],
      [
        "m",
        "edium"
      ],
      [
        "Ġch",
        "ain"
      ],
      [
        "f",
        "uku"
      ],
      [
        "cl",
        "ip"
      ],
      [
        "Ġtank",
        "oubon"
      ],
      [
        "ph",
        "ones"
      ],
      [
        "uff",
        "ed"
      ],
      [
        "Ġin",
        "verted"
      ],
      [
        "Ġc",
        "rying"
      ],
      [
        "arm",
        "or"
      ],
      [
        "jac",
        "ulation"
      ],
      [
        "Ġs",
        "um"
      ],
      [
        "Ġb",
        "all"
      ],
      [
        "il",
        "y"
      ],
      [
        "Ġb",
        "un"
      ],
      [
        "Ġur",
        "ination"
      ],
      [
        "ãĥ³",
        "ãĤ"
      ],
      [
        "k",
        "n"
      ],
      [
        "Ġy",
        "uki"
      ],
      [
        "ug",
        "s"
      ],
      [
        "Ġr",
        "imjob"
      ],
      [
        "s",
        "et"
      ],
      [
        "Ġdr",
        "unk"
      ],
      [
        "ĠI",
        "n"
      ],
      [
        "Ġblo",
        "od"
      ],
      [
        "Ġcollar",
        "bone"
      ],
      [
        "Ġ",
        "at"
      ],
      [
        "ĠJ",
        "apanese"
      ],
      [
        "fo",
        "od"
      ],
      [
        "w",
        "r"
      ],
      [
        "pol",
        "ish"
      ],
      [
        "ath",
        "er"
      ],
      [
        "Ġcro",
        "tch"
      ],
      [
        "Ġs",
        "ym"
      ],
      [
        "ous",
        "ou"
      ],
      [
        "Ġbl",
        "unt"
      ],
      [
        "ch",
        "eek"
      ],
      [
        "f",
        "ighter"
      ],
      [
        "Ġno",
        "se"
      ],
      [
        "Ġs",
        "er"
      ],
      [
        "Ġmid",
        "r"
      ],
      [
        "tw",
        "intails"
      ],
      [
        "skin",
        "ned"
      ],
      [
        "ey",
        "el"
      ],
      [
        "Ġmidr",
        "iff"
      ],
      [
        "b",
        "ut"
      ],
      [
        "Ġg",
        "o"
      ],
      [
        "Ġl",
        "ip"
      ],
      [
        "sh",
        "in"
      ],
      [
        "ug",
        "i"
      ],
      [
        "s",
        "iz"
      ],
      [
        "ock",
        "et"
      ],
      [
        "ju",
        "ice"
      ],
      [
        "Ġd",
        "i"
      ],
      [
        "Ġarm",
        "pits"
      ],
      [
        "ur",
        "o"
      ],
      [
        "re",
        "et"
      ],
      [
        "Ġc",
        "r"
      ],
      [
        "or",
        "al"
      ],
      [
        "ak",
        "ura"
      ],
      [
        "bot",
        "tle"
      ],
      [
        "Ġel",
        "bow"
      ],
      [
        "Ġv",
        "irginity"
      ],
      [
        "Ġs",
        "and"
      ],
      [
        "Ġsm",
        "ell"
      ],
      [
        "ang",
        "le"
      ],
      [
        "ing",
        "ers"
      ],
      [
        "Ġy",
        "uk"
      ],
      [
        "os",
        "s"
      ],
      [
        "c",
        "or"
      ],
      [
        "u",
        "il"
      ],
      [
        "Ġbut",
        "t"
      ],
      [
        "l",
        "la"
      ],
      [
        "Ġm",
        "ari"
      ],
      [
        "Ġsk",
        "y"
      ],
      [
        "Ġfoot",
        "job"
      ],
      [
        "Ġt",
        "highs"
      ],
      [
        "Ġflo",
        "ating"
      ],
      [
        "Ġ",
        "apron"
      ],
      [
        "tle",
        "neck"
      ],
      [
        "en",
        "ch"
      ],
      [
        "it",
        "o"
      ],
      [
        "Ġsym",
        "bol"
      ],
      [
        "ab",
        "a"
      ],
      [
        "Ġsp",
        "ark"
      ],
      [
        "emon",
        "og"
      ],
      [
        "emonog",
        "atari"
      ],
      [
        "ic",
        "a"
      ],
      [
        "Ġnak",
        "ano"
      ],
      [
        "pen",
        "etration"
      ],
      [
        "k",
        "issing"
      ],
      [
        "Ġel",
        "f"
      ],
      [
        "Ġk",
        "a"
      ],
      [
        "form",
        "ation"
      ],
      [
        "ag",
        "es"
      ],
      [
        "un",
        "o"
      ],
      [
        "Ġshi",
        "r"
      ],
      [
        "s",
        "qu"
      ],
      [
        "fr",
        "amed"
      ],
      [
        "Ġos",
        "aka"
      ],
      [
        "Ġtat",
        "too"
      ],
      [
        "Ġfemale",
        "s"
      ],
      [
        "ai",
        "t"
      ],
      [
        "Ġneck",
        "tie"
      ],
      [
        "t",
        "high"
      ],
      [
        "sweat",
        "ing"
      ],
      [
        "ao",
        "i"
      ],
      [
        "Ġcow",
        "boy"
      ],
      [
        "min",
        "ent"
      ],
      [
        "Ġim",
        "minent"
      ],
      [
        "low",
        "ing"
      ],
      [
        "s",
        "he"
      ],
      [
        "str",
        "iped"
      ],
      [
        "Ġh",
        "alo"
      ],
      [
        "ed",
        "ing"
      ],
      [
        "Ġwe",
        "apon"
      ],
      [
        "c",
        "chi"
      ],
      [
        "Ġp",
        "ix"
      ],
      [
        "Ġn",
        "in"
      ],
      [
        "Ġsti",
        "mulation"
      ],
      [
        "Ġtou",
        "hou"
      ],
      [
        "Ġ",
        "é"
      ],
      [
        "am",
        "oto"
      ],
      [
        "Ġsh",
        "ar"
      ],
      [
        "Ġspik",
        "ed"
      ],
      [
        "g",
        "ear"
      ],
      [
        "c",
        "il"
      ],
      [
        "s",
        "aw"
      ],
      [
        "um",
        "bre"
      ],
      [
        "ism",
        "atch"
      ],
      [
        "ai",
        "sed"
      ],
      [
        "Ġn",
        "ag"
      ],
      [
        "m",
        "on"
      ],
      [
        "esti",
        "cle"
      ],
      [
        "Ġg",
        "ym"
      ],
      [
        "Ġ",
        "ok"
      ],
      [
        "umbre",
        "lla"
      ],
      [
        "sh",
        "ine"
      ],
      [
        "Ġd",
        "o"
      ],
      [
        "od",
        "e"
      ],
      [
        "Ġ",
        "i"
      ],
      [
        "Ġt",
        "ears"
      ],
      [
        "Ġ",
        "å"
      ],
      [
        "i",
        "ation"
      ],
      [
        "us",
        "pen"
      ],
      [
        "Ġbo",
        "ok"
      ],
      [
        "Ġb",
        "ound"
      ],
      [
        "ib",
        "r"
      ],
      [
        "t",
        "ai"
      ],
      [
        "Ġp",
        "rincess"
      ],
      [
        "Ġbb",
        "w"
      ],
      [
        "Ġk",
        "ou"
      ],
      [
        "Ġor",
        "gasm"
      ],
      [
        "Ġgr",
        "and"
      ],
      [
        "Ġche",
        "ck"
      ],
      [
        "ari",
        "ant"
      ],
      [
        "Ġ",
        "iz"
      ],
      [
        "Ġyu",
        "uki"
      ],
      [
        "nim",
        "ated"
      ],
      [
        "Ġs",
        "w"
      ],
      [
        "Ġd",
        "is"
      ],
      [
        "py",
        "right"
      ],
      [
        "pos",
        "ition"
      ],
      [
        "Ġk",
        "u"
      ],
      [
        "Ġst",
        "uffed"
      ],
      [
        "ul",
        "ar"
      ],
      [
        "Ġ",
        "ir"
      ],
      [
        "ed",
        "y"
      ],
      [
        "dr",
        "agon"
      ],
      [
        "ol",
        "f"
      ],
      [
        "b",
        "unny"
      ],
      [
        "Ġk",
        "it"
      ],
      [
        "Ġdr",
        "ugs"
      ],
      [
        "Ġw",
        "avy"
      ],
      [
        "Ġ",
        "ichi"
      ],
      [
        "Ġkne",
        "es"
      ],
      [
        "oshi",
        "mai"
      ],
      [
        "k",
        "y"
      ],
      [
        "Ġbl",
        "indfold"
      ],
      [
        "Ġmil",
        "itary"
      ],
      [
        "Ġgen",
        "der"
      ],
      [
        "l",
        "or"
      ],
      [
        "braid",
        "s"
      ],
      [
        "gl",
        "ass"
      ],
      [
        "Ġtw",
        "in"
      ],
      [
        "re",
        "w"
      ],
      [
        "h",
        "eart"
      ],
      [
        "f",
        "ingers"
      ],
      [
        "t",
        "ank"
      ],
      [
        "Ġco",
        "pyright"
      ],
      [
        "l",
        "it"
      ],
      [
        "ĠC",
        "om"
      ],
      [
        "Ġo",
        "f"
      ],
      [
        "h",
        "ero"
      ],
      [
        "p",
        "ar"
      ],
      [
        "Ġs",
        "ub"
      ],
      [
        "t",
        "retch"
      ],
      [
        "res",
        "t"
      ],
      [
        "cro",
        "ss"
      ],
      [
        ".",
        "_"
      ],
      [
        "d",
        "an"
      ],
      [
        "tretch",
        "ed"
      ],
      [
        "et",
        "ch"
      ],
      [
        "Ġouts",
        "tretched"
      ],
      [
        "Ġs",
        "he"
      ],
      [
        "as",
        "ties"
      ],
      [
        "c",
        "ur"
      ],
      [
        "Ġt",
        "ok"
      ],
      [
        "it",
        "ter"
      ],
      [
        "Ġr",
        "ough"
      ],
      [
        "Ġs",
        "ign"
      ],
      [
        "Ġk",
        "aw"
      ],
      [
        "Ġme",
        "g"
      ],
      [
        "d",
        "es"
      ],
      [
        "Ġin",
        "doors"
      ],
      [
        "Ġor",
        "der"
      ],
      [
        "Ġin",
        "d"
      ],
      [
        "Ġan",
        "g"
      ],
      [
        "c",
        "an"
      ],
      [
        "c",
        "t"
      ],
      [
        "Ġts",
        "uk"
      ],
      [
        "Ġn",
        "an"
      ],
      [
        "Ġb",
        "etween"
      ],
      [
        "at",
        "ting"
      ],
      [
        "ch",
        "r"
      ],
      [
        "ee",
        "ch"
      ],
      [
        "em",
        "i"
      ],
      [
        "sm",
        "ile"
      ],
      [
        "c",
        "ardigan"
      ],
      [
        "ek",
        "i"
      ],
      [
        "Ġkur",
        "os"
      ],
      [
        "ou",
        "d"
      ],
      [
        "ishi",
        "ma"
      ],
      [
        "ãĥ",
        "©"
      ],
      [
        "Ġh",
        "ay"
      ],
      [
        "Ġw",
        "itch"
      ],
      [
        "Ġs",
        "y"
      ],
      [
        "ic",
        "han"
      ],
      [
        "2",
        "0"
      ],
      [
        "Ġk",
        "ari"
      ],
      [
        "Ġb",
        "is"
      ],
      [
        "c",
        "up"
      ],
      [
        "Ġtom",
        "boy"
      ],
      [
        "Ġsak",
        "ur"
      ],
      [
        "k",
        "ne"
      ],
      [
        "d",
        "ing"
      ],
      [
        "p",
        "lo"
      ],
      [
        "Ġp",
        "h"
      ],
      [
        "tic",
        "al"
      ],
      [
        "le",
        "ction"
      ],
      [
        "hi",
        "me"
      ],
      [
        "Ġfr",
        "ieren"
      ],
      [
        "d",
        "den"
      ],
      [
        "k",
        "ag"
      ],
      [
        "Ġsp",
        "orts"
      ],
      [
        "Ġn",
        "a"
      ],
      [
        "er",
        "ence"
      ],
      [
        "Ġn",
        "ail"
      ],
      [
        "Ġa",
        "z"
      ],
      [
        "ol",
        "i"
      ],
      [
        "Ġto",
        "es"
      ],
      [
        "af",
        "uku"
      ],
      [
        "h",
        "ar"
      ],
      [
        "1",
        "0"
      ],
      [
        "no",
        "se"
      ],
      [
        "Ġpro",
        "ject"
      ],
      [
        "et",
        "a"
      ],
      [
        "Ġoni",
        "ichan"
      ],
      [
        "c",
        "ock"
      ],
      [
        "r",
        "or"
      ],
      [
        "Ġpoin",
        "ting"
      ],
      [
        "Ġb",
        "ak"
      ],
      [
        "Ġim",
        "pl"
      ],
      [
        "f",
        "ly"
      ],
      [
        "Ġm",
        "i"
      ],
      [
        "and",
        "y"
      ],
      [
        "Ġimpl",
        "ied"
      ],
      [
        "Ġhair",
        "band"
      ],
      [
        "Ġb",
        "at"
      ],
      [
        "Ġcl",
        "it"
      ],
      [
        "ant",
        "a"
      ],
      [
        "l",
        "ane"
      ],
      [
        "un",
        "i"
      ],
      [
        "Ġn",
        "ight"
      ],
      [
        "Ġt",
        "ag"
      ],
      [
        "neck",
        "erchief"
      ],
      [
        "Ġb",
        "ro"
      ],
      [
        "n",
        "t"
      ],
      [
        "Ġkari",
        "inu"
      ],
      [
        "Ġc",
        "or"
      ],
      [
        "Ġtom",
        "girl"
      ],
      [
        "Ġout",
        "doors"
      ],
      [
        "Ġan",
        "k"
      ],
      [
        "1",
        "2"
      ],
      [
        "er",
        "e"
      ],
      [
        "Ġp",
        "illow"
      ],
      [
        "d",
        "ay"
      ],
      [
        "mas",
[...]
