{
  "version": "1.0",
  "truncation": null,
  "padding": null,
  "added_tokens": [
    {
      "id": 0,
      "content": "[PAD]",
      "single_word": false,
      "lstrip": false,
      "rstrip": false,
      "normalized": false,
      "special": true
    },
    {
      "id": 1,
      "content": "[SEP]",
      "single_word": false,
      "lstrip": false,
      "rstrip": false,
      "normalized": false,
      "special": true
    },
    {
      "id": 2,
      "content": "[UNK]",
      "single_word": false,
      "lstrip": false,
      "rstrip": false,
      "normalized": false,
      "special": true
    }
  ],
  "normalizer": null,
  "pre_tokenizer": {
    "type": "ByteLevel",
    "add_prefix_space": false,
    "trim_offsets": true,
    "use_regex": true
  },
  "post_processor": null,
  "decoder": {
    "type": "ByteLevel",
    "add_prefix_space": true,
    "trim_offsets": true,
    "use_regex": true
  },
  "model": {
    "type": "BPE",
    "dropout": null,
    "unk_token": "[UNK]",
    "continuing_subword_prefix": null,
    "end_of_word_suffix": null,
    "fuse_unk": false,
    "byte_fallback": false,
    "ignore_merges": false,
    "vocab": {
      "[PAD]": 0,
      "[SEP]": 1,
      "[UNK]": 2,
      "!": 3,
      "\"": 4,
      "#": 5,
      "$": 6,
      "%": 7,
      "&": 8,
      "'": 9,
      "(": 10,
      ")": 11,
      "+": 12,
      ",": 13,
      "-": 14,
      ".": 15,
      "/": 16,
      "0": 17,
      "1": 18,
      "2": 19,
      "3": 20,
      "4": 21,
      "5": 22,
      "6": 23,
      "7": 24,
      "8": 25,
      "9": 26,
      ":": 27,
      ";": 28,
      "<": 29,
      "=": 30,
      ">": 31,
      "?": 32,
      "@": 33,
      "A": 34,
      "B": 35,
      "C": 36,
      "D": 37,
      "E": 38,
      "F": 39,
      "G": 40,
      "H": 41,
      "I": 42,
      "J": 43,
      "K": 44,
      "L": 45,
      "M": 46,
      "N": 47,
      "O": 48,
      "P": 49,
      "Q": 50,
      "R": 51,
      "S": 52,
      "T": 53,
      "U": 54,
      "V": 55,
      "W": 56,
      "X": 57,
      "Y": 58,
      "Z": 59,
      "\\": 60,
      "^": 61,
      "_": 62,
      "a": 63,
      "b": 64,
      "c": 65,
      "d": 66,
      "e": 67,
      "f": 68,
      "g": 69,
      "h": 70,
      "i": 71,
      "j": 72,
      "k": 73,
      "l": 74,
      "m": 75,
      "n": 76,
      "o": 77,
      "p": 78,
      "q": 79,
      "r": 80,
      "s": 81,
      "t": 82,
      "u": 83,
      "v": 84,
      "w": 85,
      "x": 86,
      "y": 87,
      "z": 88,
      "{": 89,
      "|": 90,
      "}": 91,
      "~": 92,
      "¡": 93,
      "¢": 94,
      "£": 95,
      "¤": 96,
      "¥": 97,
      "¦": 98,
      "§": 99,
      "¨": 100,
      "©": 101,
      "ª": 102,
      "«": 103,
      "¬": 104,
      "®": 105,
      "¯": 106,
      "°": 107,
      "±": 108,
      "²": 109,
      "³": 110,
      "´": 111,
      "µ": 112,
      "¶": 113,
      "·": 114,
      "¸": 115,
      "¹": 116,
      "º": 117,
      "»": 118,
      "¼": 119,
      "½": 120,
      "¾": 121,
      "¿": 122,
      "Â": 123,
      "Ã": 124,
      "Î": 125,
      "â": 126,
      "ã": 127,
      "ä": 128,
      "å": 129,
      "æ": 130,
      "ç": 131,
      "è": 132,
      "é": 133,
      "ì": 134,
      "í": 135,
      "ï": 136,
      "Ġ": 137,
      "Ģ": 138,
      "ģ": 139,
      "Ĥ": 140,
      "ĥ": 141,
      "Ħ": 142,
      "ħ": 143,
      "Ĩ": 144,
      "ĩ": 145,
      "Ī": 146,
      "ī": 147,
      "Ĭ": 148,
      "ĭ": 149,
      "Į": 150,
      "į": 151,
      "İ": 152,
      "ı": 153,
      "Ĳ": 154,
      "ĳ": 155,
      "Ĵ": 156,
      "ĵ": 157,
      "Ķ": 158,
      "ķ": 159,
      "ĸ": 160,
      "Ĺ": 161,
      "ĺ": 162,
      "Ļ": 163,
      "ļ": 164,
      "Ľ": 165,
      "ľ": 166,
      "Ŀ": 167,
      "ŀ": 168,
      "Ł": 169,
      "ł": 170,
      "Ń": 171,
      "in": 172,
      "Ġs": 173,
      "an": 174,
      "le": 175,
      "on": 176,
      "ar": 177,
      "Ġb": 178,
      "hi": 179,
      "er": 180,
      "es": 181,
      "at": 182,
      "or": 183,
      "ai": 184,
      "ing": 185,
      "en": 186,
      "ou": 187,
      "Ġm": 188,
      "as": 189,
      "Ġc": 190,
      "ed": 191,
      "Ġt": 192,
      "Ġp": 193,
      "re": 194,
      "lo": 195,
      "ac": 196,
      "Ġf": 197,
      "Ġh": 198,
      "al": 199,
      "ol": 200,
      "Ġd": 201,
      "is": 202,
      "ak": 203,
      "Ġg": 204,
      "un": 205,
      "ts": 206,
      "Ġn": 207,
      "_(": 208,
      "air": 209,
      "ig": 210,
      "ro": 211,
      "shi": 212,
      "ti": 213,
      "em": 214,
      "ra": 215,
      "ir": 216,
      "im": 217,
      "th": 218,
      "om": 219,
      "ale": 220,
      "ch": 221,
      "Ġk": 222,
      "ad": 223,
      "ri": 224,
      "el": 225,
      "am": 226,
      "ack": 227,
      "et": 228,
      "Ġbl": 229,
      "it": 230,
      "ole": 231,
      "ot": 232,
      "us": 233,
      "um": 234,
      "hair": 235,
      "Ġâ": 236,
      "ĠâĻ": 237,
      "Ġw": 238,
      "ck": 239,
      "reas": 240,
      "os": 241,
      "and": 242,
      "Ġl": 243,
      "ur": 244,
      "ok": 245,
      "ĠâĻĢ": 246,
      "ow": 247,
      "ag": 248,
      "ear": 249,
      "ap": 250,
      "Ġsole": 251,
      "ter": 252,
      "ion": 253,
      "gh": 254,
      "ey": 255,
      "ul": 256,
      "ve": 257,
      "reasts": 258,
      "id": 259,
      "irl": 260,
      "ated": 261,
      "Ġdou": 262,
      "il": 263,
      "emale": 264,
      "ail": 265,
      "jin": 266,
      "ic": 267,
      "ik": 268,
      "low": 269,
      "ob": 270,
      "ation": 271,
      "Ġst": 272,
      "Ġan": 273,
      "high": 274,
      "jinshi": 275,
      "Ġr": 276,
      "uk": 277,
      "Ġy": 278,
      "girl": 279,
      "Ġdoujinshi": 280,
      "ran": 281,
      "he": 282,
      "te": 283,
      "ue": 284,
      "res": 285,
      "ple": 286,
      "ish": 287,
      "Ġsh": 288,
      "sl": 289,
      "sh": 290,
      "if": 291,
      "se": 292,
      "bo": 293,
      "Ġfemale": 294,
      "Ġar": 295,
      "Ġbreasts": 296,
      "Ġlo": 297,
      "ang": 298,
      "rou": 299,
      "gl": 300,
      "up": 301,
      "ransl": 302,
      "Ġun": 303,
      "ashi": 304,
      "Ġj": 305,
      "Ġtransl": 306,
      "su": 307,
      "Ġhair": 308,
      "ver": 309,
      "ass": 310,
      "glish": 311,
      "ay": 312,
      "Ġor": 313,
      "ool": 314,
      "english": 315,
      "Ġmale": 316,
      "old": 317,
      "Ġblack": 318,
      "Ġo": 319,
      "Ġtranslated": 320,
      "st": 321,
      "chool": 322,
      "orm": 323,
      "job": 324,
      "der": 325,
      "to": 326,
      "eyes": 327,
      "Ġa": 328,
      "ves": 329,
      "Ġbig": 330,
      "ent": 331,
      "ens": 332,
      "loth": 333,
      "ese": 334,
      "Ġch": 335,
      "ut": 336,
      "tail": 337,
      "ec": 338,
      "Ġwhi": 339,
      "od": 340,
      "Ġnak": 341,
      "eri": 342,
      "ip": 343,
      "ss": 344,
      "one": 345,
      "Ġwhite": 346,
      "ensor": 347,
      "ant": 348,
      "ting": 349,
      "inal": 350,
      "Ġblue": 351,
      "iform": 352,
      "ong": 353,
      "ub": 354,
      "ex": 355,
      "we": 356,
      "Ġenglish": 357,
      "leg": 358,
      "nd": 359,
      "ff": 360,
      "Ġin": 361,
      "ress": 362,
      "sk": 363,
      "row": 364,
      "ark": 365,
      "olding": 366,
      "ble": 367,
      "Ġholding": 368,
      "adashi": 369,
      "orn": 370,
      "own": 371,
      "aki": 372,
      "apan": 373,
      "ings": 374,
      "Ġgre": 375,
      "back": 376,
      "chi": 377,
      "Ġred": 378,
      "apanese": 379,
      "lothes": 380,
      "rt": 381,
      "ulti": 382,
      "ull": 383,
      "Ġ1": 384,
      "all": 385,
      "wear": 386,
      "Ġanim": 387,
      "ari": 388,
      "tion": 389,
      "iginal": 390,
      "ini": 391,
      "ge": 392,
      "Ġ2": 393,
      "ne": 394,
      "Ġmulti": 395,
      "irt": 396,
      "suit": 397,
      "Ġhand": 398,
      "ock": 399,
      "Ġnakadashi": 400,
      "lowjob": 401,
      "Ġcol": 402,
      "ink": 403,
      "Ġoriginal": 404,
      "pen": 405,
      "bb": 406,
      "igh": 407,
      "lee": 408,
      "aw": 409,
      "qu": 410,
      "ikini": 411,
      "pan": 412,
      "ry": 413,
      "ide": 414,
      "Ġsm": 415,
      "Ġschool": 416,
      "aid": 417,
      "eries": 418,
      "est": 419,
      "clothes": 420,
      "eye": 421,
      "Ġsp": 422,
      "ard": 423,
      "Ġpen": 424,
      "ate": 425,
      "grou": 426,
      "ome": 427,
      "Ġv": 428,
      "Ġshi": 429,
      "uri": 430,
      "Ġsk": 431,
      "no": 432,
      "ind": 433,
      "ond": 434,
      "ground": 435,
      "ive": 436,
      "ie": 437,
      "Ġblowjob": 438,
      "Ġno": 439,
      "ek": 440,
      "shirt": 441,
      "ach": 442,
      "Ġjapanese": 443,
      "rin": 444,
      "ĠS": 445,
      "ose": 446,
      "emon": 447,
      "ther": 448,
      "ace": 449,
      "Ġto": 450,
      "wim": 451,
      "dress": 452,
      "lar": 453,
      "ga": 454,
      "over": 455,
      "col": 456,
      "rap": 457,
      "uki": 458,
      "rown": 459,
      "Ġhigh": 460,
      "Ġhi": 461,
      "background": 462,
      "fo": 463,
      "Ġon": 464,
      "ano": 465,
      "ship": 466,
      "wimsuit": 467,
      "Ġtw": 468,
      "ties": 469,
      "Ġcensor": 470,
      "ist": 471,
      "ab": 472,
      "outh": 473,
      "weat": 474,
      "aic": 475,
      "out": 476,
      "Ġanal": 477,
      "Ġarm": 478,
      "idol": 479,
      "ush": 480,
      "are": 481,
      "boy": 482,
      "Ġpink": 483,
      "age": 484,
      "Ġuniform": 485,
      "Ġanimated": 486,
      "az": 487,
      "ãĥ": 488,
      "Ġlong": 489,
      "Ġe": 490,
      "ers": 491,
      "ears": 492,
      "ug": 493,
      "ure": 494,
      "bow": 495,
      "skirt": 496,
      "ono": 497,
      "breasts": 498,
      "roup": 499,
      "bl": 500,
      "Ġfull": 501,
      "Ġgreen": 502,
      "mouth": 503,
      "Ġcensorship": 504,
      "ud": 505,
      "asses": 506,
      "osaic": 507,
      "iz": 508,
      "ly": 509,
      "wor": 510,
      "Ġlove": 511,
      "ĠB": 512,
      "Ġbrown": 513,
      "ight": 514,
      "yu": 515,
      "ort": 516,
      "loves": 517,
      "aru": 518,
      "ilf": 519,
      "Ġde": 520,
      "Ġ3": 521,
      "pi": 522,
      "ribb": 523,
      "ho": 524,
      "less": 525,
      "ura": 526,
      "av": 527,
      "ake": 528,
      "highs": 529,
      "anty": 530,
      "oking": 531,
      "head": 532,
      "leeves": 533,
      "acket": 534,
      "Ġth": 535,
      "Ġgroup": 536,
      "art": 537,
      "Ġgl": 538,
      "orts": 539,
      "tr": 540,
      "ony": 541,
      "urple": 542,
      "ine": 543,
      "bikini": 544,
      "ribbon": 545,
      "anga": 546,
      "Ġpurple": 547,
      "ell": 548,
      "ia": 549,
      "arac": 550,
      "Ġcum": 551,
      "pl": 552,
      "aracter": 553,
      "Ġopen": 554,
      "Ġlooking": 555,
      "Ġdark": 556,
      "tie": 557,
      "live": 558,
      "ya": 559,
      "onytail": 560,
      "Ġ4": 561,
      "Ġre": 562,
      "ray": 563,
      "series": 564,
      "Ġcolor": 565,
      "iss": 566,
      "girls": 567,
      "Ġcro": 568,
      "ami": 569,
      "aiz": 570,
      "awa": 571,
      "Ġim": 572,
      "arm": 573,
      "of": 574,
      "mas": 575,
      "Ġx": 576,
      "ped": 577,
      "sleeves": 578,
      "ara": 579,
      "uniform": 580,
      "ce": 581,
      "be": 582,
      "Ġidol": 583,
      "ji": 584,
      "ĠM": 585,
      "fl": 586,
      "Ġglasses": 587,
      "Ġcharacter": 588,
      "Ġmosaic": 589,
      "Ġart": 590,
      "rees": 591,
      "reesome": 592,
      "ma": 593,
      "Ġmanga": 594,
      "oshi": 595,
      "ockings": 596,
      "ori": 597,
      "Ġyel": 598,
      "sy": 599,
      "ipple": 600,
      "Ġschoolgirl": 601,
      "hose": 602,
      "Ġyellow": 603,
      "panties": 604,
      "antyhose": 605,
      "ary": 606,
      "aizuri": 607,
      "tails": 608,
      "Ġstockings": 609,
      "ile": 610,
      "Ġle": 611,
      "me": 612,
      "!_": 613,
      "aka": 614,
      "Ġ5": 615,
      "'s": 616,
      "olo": 617,
      "ame": 618,
      "Ġgra": 619,
      "ume": 620,
      "school": 621,
      "unk": 622,
      "intails": 623,
      "Ġsex": 624,
      "ph": 625,
      "another": 626,
      "Ġpenis": 627,
      "ain": 628,
      "umi": 629,
      "dy": 630,
      "ãĤ": 631,
      "Ġass": 632,
      "censor": 633,
      "Ġgrey": 634,
      "oul": 635,
      "female": 636,
      "Ġshort": 637,
      "neck": 638,
      "Ġmultiple": 639,
      "tom": 640,
      "legs": 641,
      "jacket": 642,
      "unn": 643,
      "work": 644,
      "Ġhe": 645,
      "cos": 646,
      "ĠâĻĤ": 647,
      "Ġpro": 648,
      "ration": 649,
      "ama": 650,
      "hand": 651,
      "inger": 652,
      "gao": 653,
      "rint": 654,
      "ki": 655,
      "Ġfo": 656,
      "cus": 657,
      "Ġthreesome": 658,
      "lic": 659,
      "cle": 660,
      "ko": 661,
      "reast": 662,
      "Ġartist": 663,
      "sei": 664,
      "og": 665,
      "asaki": 666,
      "sed": 667,
      "Ġpl": 668,
      "tsu": 669,
      "Ġ20": 670,
      "the": 671,
      "etration": 672,
      "hegao": 673,
      "rape": 674,
      "Ġcollar": 675,
      "uff": 676,
      "op": 677,
      "act": 678,
      "oulder": 679,
      "ij": 680,
      "Ġche": 681,
      "ka": 682,
      "ath": 683,
      "ron": 684,
      "Ġcom": 685,
      "acting": 686,
      "band": 687,
      "ating": 688,
      "our": 689,
      "Ġbe": 690,
      "Ġsweat": 691,
      "gloves": 692,
      "oku": 693,
      "Ġas": 694,
      "Ġsolo": 695,
      "swimsuit": 696,
      "highhighs": 697,
      "ect": 698,
      "Ġhighres": 699,
      "rom": 700,
      "bra": 701,
      "ice": 702,
      "ril": 703,
      "Ġseries": 704,
      "big": 705,
      "body": 706,
      "Ġne": 707,
      "br": 708,
      "ero": 709,
      "Ġrape": 710,
      "Ġbikini": 711,
      "Ġskin": 712,
      "Ġgirl": 713,
      "ee": 714,
      "sc": 715,
      "ess": 716,
      "aku": 717,
      "ata": 718,
      "Ġahegao": 719,
      "eart": 720,
      "Ġpaizuri": 721,
      "Ġ6": 722,
      "cl": 723,
      "Ġz": 724,
      "Ġex": 725,
      "Ġsc": 726,
      "hat": 727,
      "Ġdouble": 728,
      "elt": 729,
      "ange": 730,
      "ana": 731,
      "ous": 732,
      "ick": 733,
      "etor": 734,
      "chive": 735,
      "ash": 736,
      "Ġal": 737,
      "ina": 738,
      "Ġtwintails": 739,
      "ĠP": 740,
      "do": 741,
      "Ġro": 742,
      "top": 743,
      "Ġcl": 744,
      "Ġponytail": 745,
      "otard": 746,
      "gn": 747,
      "orns": 748,
      "otac": 749,
      "vie": 750,
      "cest": 751,
      "Ġnipple": 752,
      "shorts": 753,
      "etorare": 754,
      "sweat": 755,
      "okemon": 756,
      "side": 757,
      "ric": 758,
      "ast": 759,
      "ual": 760,
      "otacon": 761,
      "ament": 762,
      "ment": 763,
      "regn": 764,
      "focus": 765,
      "losed": 766,
      "licon": 767,
      "tern": 768,
      "man": 769,
      "ils": 770,
      "ring": 771,
      "upils": 772,
      "oto": 773,
      "ĠN": 774,
      "foot": 775,
      "Ġside": 776,
      "ornament": 777,
      "Ġswimsuit": 778,
      "uku": 779,
      "achi": 780,
      "Ġlolicon": 781,
      "Ġpan": 782,
      "riped": 783,
      "play": 784,
      "skin": 785,
      "Ġshotacon": 786,
      "you": 787,
      "ussy": 788,
      "Ġslee": 789,
      "med": 790,
      ")_(": 791,
      "Ġyu": 792,
      "Ġ202": 793,
      "ire": 794,
      "Ġorange": 795,
      "Ġhead": 796,
      "view": 797,
      "nown": 798,
      "ism": 799,
      "Ġblush": 800,
      "ift": 801,
      "unknown": 802,
      "mentary": 803,
      "collar": 804,
      "Ġver": 805,
      "under": 806,
      "lower": 807,
      "ondom": 808,
      "let": 809,
      "Ġhairy": 810,
      "Ġpenetration": 811,
      "chan": 812,
      "ium": 813,
      "atsu": 814,
      "ffec": 815,
      "sti": 816,
      "ĠF": 817,
      "ffects": 818,
      "ots": 819,
      "Ġimp": 820,
      "blue": 821,
      "ank": 822,
      "Ġbo": 823,
      "tle": 824,
      "Ġfinger": 825,
      "ound": 826,
      "yuu": 827,
      "ĠC": 828,
      "Ġthe": 829,
      "shoulder": 830,
      "com": 831,
      ":_": 832,
      "ial": 833,
      "iv": 834,
      "Ġbad": 835,
      "cing": 836,
      "ĠG": 837,
      "led": 838,
      "Ġph": 839,
      "color": 840,
      "Ġcon": 841,
      "Ġmi": 842,
      "ĠT": 843,
      "print": 844,
      "Ġcross": 845,
      "co": 846,
      "ane": 847,
      "ape": 848,
      "Ġincest": 849,
      "ishi": 850,
      "oration": 851,
      "Ġeffects": 852,
      "Ġheart": 853,
      "dom": 854,
      "ta": 855,
      "ijig": 856,
      "ichi": 857,
      "Ġanimal": 858,
      "ijigasaki": 859,
      "bang": 860,
      "Ġnetorare": 861,
      "rag": 862,
      "Ġbb": 863,
      "Ġtak": 864,
      "Ġunder": 865,
      "Ġcle": 866,
      "bi": 867,
      "floration": 868,
      "Ġone": 869,
      "ats": 870,
      "sex": 871,
      "pe": 872,
      "hind": 873,
      "imi": 874,
      "ject": 875,
      "ym": 876,
      "ingle": 877,
      "Ġsu": 878,
      "eyewear": 879,
      "ity": 880,
      "ae": 881,
      "Ġfril": 882,
      "ino": 883,
      "pull": 884,
      "behind": 885,
      "Ġmo": 886,
      "uka": 887,
      "Ġcover": 888,
      "per": 889,
      "wa": 890,
      "Ġchi": 891,
      "ude": 892,
      "Ġte": 893,
      "Ġbow": 894,
      "lift": 895,
      "fm": 896,
      "censored": 897,
      "ys": 898,
      "ha": 899,
      "Ġpo": 900,
      "thighhighs": 901,
      "bot": 902,
      "Ġskirt": 903,
      "Ġdr": 904,
      "Ġcloth": 905,
      "Ġbr": 906,
      "atari": 907,
      "viewer": 908,
      "Ġme": 909,
      "ping": 910,
      "ten": 911,
      "ails": 912,
      "Ġoff": 913,
      "ase": 914,
      "ãģ": 915,
      "Ġ(": 916,
      "Ġbare": 917,
      "Ġsingle": 918,
      "Ġ:": 919,
      "ood": 920,
      "Ġhands": 921,
      "Ġmed": 922,
      "Ġstriped": 923,
      "face": 924,
      "issing": 925,
      "inese": 926,
      "con": 927,
      "Ġcat": 928,
      "ocks": 929,
      "ĠV": 930,
      "les": 931,
      "Ġfe": 932,
      "etwe": 933,
      "etween": 934,
      "pants": 935,
      "bangs": 936,
      "ĠA": 937,
      "ĠH": 938,
      "Ġneck": 939,
      "urb": 940,
      "Ġcow": 941,
      "Ġshirt": 942,
      "Ġpantyhose": 943,
      "Ġdilf": 944,
      "Ġcondom": 945,
      "quest": 946,
      "shin": 947,
      "45": 948,
      "ondage": 949,
      "fate": 950,
      "ched": 951,
      "Ġcheating": 952,
      "Ġkne": 953,
      "ece": 954,
      "urbation": 955,
      "Ġdefloration": 956,
      "tume": 957,
      "Ġbreast": 958,
      "ors": 959,
      "emdom": 960,
      "jo": 961,
      "regnation": 962,
      "archive": 963,
      "Ġgen": 964,
      "ins": 965,
      "Ġfur": 966,
      "uc": 967,
      "eme": 968,
      "Ġku": 969,
      "Ġel": 970,
      "Ġmin": 971,
      "Ġsmall": 972,
      "alle": 973,
      "lin": 974,
      "Ġmus": 975,
      "master": 976,
      "qua": 977,
      "Ġra": 978,
      "read": 979,
      "sp": 980,
      "aut": 981,
      "Ġse": 982,
      "ĠD": 983,
      "ty": 984,
      "Ġtwo": 985,
      "ao": 986,
      "agi": 987,
      "und": 988,
      "trim": 989,
      "rough": 990,
      "arge": 991,
      "else": 992,
      "kan": 993,
      "Ġffm": 994,
      "sur": 995,
      "costume": 996,
      "Ġmind": 997,
      "io": 998,
      "rings": 999,
      "Ġlarge": 1000,
      "chie": 1001,
      "Ġfl": 1002,
      "gra": 1003,
      "brow": 1004,
      "fra": 1005,
      "Ġinter": 1006,
      "erson": 1007,
      "uge": 1008,
      "Ġem": 1009,
      "imono": 1010,
      "Ġgloves": 1011,
      "af": 1012,
      "Ġaqua": 1013,
      "ragon": 1014,
      "de": 1015,
      "leotard": 1016,
      "omi": 1017,
      "Ġvery": 1018,
      "iko": 1019,
      "cut": 1020,
      "sweater": 1021,
      "Ġfrilled": 1022,
      "legwear": 1023,
      "oes": 1024,
      "anim": 1025,
      "boys": 1026,
      "ato": 1027,
      "asu": 1028,
      "Ġdress": 1029,
      "pantyhose": 1030,
      "di": 1031,
      "na": 1032,
      "uma": 1033,
      "ternate": 1034,
      "Ġfemdom": 1035,
      "request": 1036,
      "Ġsak": 1037,
      "Ġtom": 1038,
      "Ġtoys": 1039,
      "ted": 1040,
      "ons": 1041,
      "da": 1042,
      "through": 1043,
      "ubic": 1044,
      "Ġlive": 1045,
      "piece": 1046,
      "bun": 1047,
      "Ġmedium": 1048,
      "itting": 1049,
      "ii": 1050,
      "Ġab": 1051,
      "gen": 1052,
      "vure": 1053,
      "Ġimpregnation": 1054,
      "Ġhar": 1055,
      "ako": 1056,
      "Ġchinese": 1057,
      "Ġstar": 1058,
      "lock": 1059,
      "Ġback": 1060,
      "trol": 1061,
      "osho": 1062,
      "Ġ7": 1063,
      "ister": 1064,
      "penis": 1065,
      "otosho": 1066,
      "Ġuncensored": 1067,
      "Ġup": 1068,
      "mo": 1069,
      "apron": 1070,
      "ier": 1071,
      "ore": 1072,
      "Ġhuge": 1073,
      "itch": 1074,
      "Ġbbm": 1075,
      "uck": 1076,
      "pu": 1077,
      "Ġleg": 1078,
      "rist": 1079,
      "hou": 1080,
      "name": 1081,
      "yo": 1082,
      "ball": 1083,
      "yaru": 1084,
      "Ġphotosho": 1085,
      "nails": 1086,
      "cosplay": 1087,
      "blem": 1088,
      "Ġfrom": 1089,
      "Ġeye": 1090,
      "Ġidolmaster": 1091,
      "male": 1092,
      "ĠL": 1093,
      "ailor": 1094,
      "Ġsun": 1095,
      "end": 1096,
      "als": 1097,
      "japanese": 1098,
      "ling": 1099,
      "Ġri": 1100,
      "atch": 1101,
      "omach": 1102,
      "footwear": 1103,
      "pupils": 1104,
      "Ġsmile": 1105,
      "eren": 1106,
      "tomi": 1107,
      "Ġtail": 1108,
      "grab": 1109,
      "la": 1110,
      "Ġmark": 1111,
      "oker": 1112,
      "Ġclosed": 1113,
      "Ġbondage": 1114,
      "ru": 1115,
      "Ġam": 1116,
      "Ġ|": 1117,
      "earrings": 1118,
      "Ġhal": 1119,
      "lip": 1120,
      "Ġsmears": 1121,
      "met": 1122,
      "colored": 1123,
      "love": 1124,
      "Ġband": 1125,
      "oka": 1126,
      "object": 1127,
      "Ġpanties": 1128,
      "ody": 1129,
      "auty": 1130,
      "omimi": 1131,
      "una": 1132,
      "hands": 1133,
      "ator": 1134,
      "vest": 1135,
      "hara": 1136,
      "emblem": 1137,
      "Ġgravure": 1138,
      "Ġclothes": 1139,
      "avel": 1140,
      "ulation": 1141,
      "between": 1142,
      "Ġ10": 1143,
      "ater": 1144,
      "erie": 1145,
      "wings": 1146,
      "asturbation": 1147,
      "Ġthigh": 1148,
      "tat": 1149,
      "Ġfac": 1150,
      "emonomimi": 1151,
      "Ġphotoshoot": 1152,
      "cour": 1153,
      "course": 1154,
      "gatari": 1155,
      "aped": 1156,
      "utan": 1157,
      "worn": 1158,
      "Ġhood": 1159,
      "Ġstand": 1160,
      "brows": 1161,
      "pos": 1162,
      "phone": 1163,
      "Ġlight": 1164,
      "Ġu": 1165,
      "Ġsleeve": 1166,
      "shaped": 1167,
      "Ġkan": 1168,
      "lines": 1169,
      "onogatari": 1170,
      "ible": 1171,
      "Ġstanding": 1172,
      "ven": 1173,
      "Ġspread": 1174,
      "allery": 1175,
      "oke": 1176,
      "iling": 1177,
      "ju": 1178,
      "Ġnipples": 1179,
      "too": 1180,
      "Ġko": 1181,
      "Ġstra": 1182,
      "vis": 1183,
      "ĠVA": 1184,
      "bol": 1185,
      "arms": 1186,
      "mf": 1187,
      "Ġje": 1188,
      "Ġarms": 1189,
      "Ġmulticolored": 1190,
      "Ġhitomi": 1191,
      "Ġi": 1192,
      "horns": 1193,
      "club": 1194,
      "ĠSole": 1195,
      "Ġgyaru": 1196,
      "Ġshin": 1197,
      "Ġpar": 1198,
      "unny": 1199,
      "flower": 1200,
      "oko": 1201,
      "pokemon": 1202,
      "Ġsitting": 1203,
      "rop": 1204,
      "reak": 1205,
      "ita": 1206,
      "ber": 1207,
      "ongue": 1208,
      "surd": 1209,
      "Ġbeauty": 1210,
      "ask": 1211,
      "down": 1212,
      "onde": 1213,
      "breast": 1214,
      "Ġfire": 1215,
      "Ġtorn": 1216,
      "Ġtan": 1217,
      "shot": 1218,
      "only": 1219,
      "ingerie": 1220,
      "strap": 1221,
      "oun": 1222,
      "Ġgallery": 1223,
      "Ġlow": 1224,
      "Ġsleeveless": 1225,
      "boots": 1226,
      "dou": 1227,
      "braid": 1228,
      "Ġabsurd": 1229,
      "ep": 1230,
      "ris": 1231,
      "yle": 1232,
      "Ġface": 1233,
      "form": 1234,
      "seiyuu": 1235,
      "Ġyuri": 1236,
      "cover": 1237,
      "Ġpokemon": 1238,
      "esti": 1239,
      "Ġblonde": 1240,
      "Ġintercourse": 1241,
      "Ġad": 1242,
      "Ġpussy": 1243,
      "Ġcommentary": 1244,
      "mark": 1245,
      "maid": 1246,
      "Ġdemon": 1247,
      "utanari": 1248,
      "Ġmole": 1249,
      "ĠU": 1250,
      "socks": 1251,
      "Ġgrabb": 1252,
      "wi": 1253,
      "mi": 1254,
      "å¹": 1255,
      "Ġalternate": 1256,
      "tone": 1257,
      "Ġribbon": 1258,
      "Ġunderwear": 1259,
      "Ġabsurdres": 1260,
      "Ġsister": 1261,
      "Ġsen": 1262,
      "Ġgrabbing": 1263,
      "Ġfood": 1264,
      "sole": 1265,
      "yama": 1266,
      "eshi": 1267,
      "ora": 1268,
      "eth": 1269,
      "elf": 1270,
      "ilingus": 1271,
      "å¹´": 1272,
      "aya": 1273,
      "Ġmasturbation": 1274,
      "Ġunworn": 1275,
      "avage": 1276,
      "uu": 1277,
      "ory": 1278,
      "bowtie": 1279,
      "Ġco": 1280,
      "Ġman": 1281,
      "Ġbelt": 1282,
      "imp": 1283,
      "Ġmilf": 1284,
      "au": 1285,
      "Ġbut": 1286,
      "Ġhat": 1287,
      "bag": 1288,
      "ponytail": 1289,
      "ei": 1290,
      "arter": 1291,
      "Ġhorns": 1292,
      "jou": 1293,
      "Ġfu": 1294,
      "apon": 1295,
      "onster": 1296,
      "kai": 1297,
      "åı": 1298,
      "hairband": 1299,
      "nijigasaki": 1300,
      "around": 1301,
      "ĠBig": 1302,
      "wel": 1303,
      "gu": 1304,
      "run": 1305,
      "Ġclothed": 1306,
      "pussy": 1307,
      "imple": 1308,
      "tu": 1309,
      "ald": 1310,
      "Ġcleavage": 1311,
      "ĠK": 1312,
      "tch": 1313,
      "hibi": 1314,
      "Ġak": 1315,
      "Ġkemonomimi": 1316,
      "acher": 1317,
      "pless": 1318,
      "uper": 1319,
      "unnilingus": 1320,
      "abric": 1321,
      "commentary": 1322,
      "Ġcrop": 1323,
      "rid": 1324,
      "Ġfingering": 1325,
      "åı·": 1326,
      "ally": 1327,
      "tw": 1328,
      "long": 1329,
      "go": 1330,
      "Ġpres": 1331,
      "usual": 1332,
      "belt": 1333,
      "milf": 1334,
      "ni": 1335,
      "Ġdick": 1336,
      "reat": 1337,
      "hibition": 1338,
      "zu": 1339,
      "hibitionism": 1340,
      "min": 1341,
      "iki": 1342,
      "Ġkuro": 1343,
      "Ġplaid": 1344,
      "ill": 1345,
      "Ġcontrol": 1346,
      "Ġhan": 1347,
      "uru": 1348,
      "Ġkip": 1349,
      "icking": 1350,
      "trimmed": 1351,
      "akadashi": 1352,
      "cutout": 1353,
      "Ġkippu": 1354,
      "sm": 1355,
      "Ġmaid": 1356,
      "oru": 1357,
      "Ġnavel": 1358,
      "ubble": 1359,
      "order": 1360,
      "ical": 1361,
      "alk": 1362,
      "word": 1363,
      "ade": 1364,
      "Ġkissing": 1365,
      "rai": 1366,
      "Ġli": 1367,
      "headwear": 1368,
      "coat": 1369,
      "Ġfabric": 1370,
      "Ġonly": 1371,
      "Ġaf": 1372,
      "lips": 1373,
      "bbit": 1374,
      "hood": 1375,
      "Ġare": 1376,
      "Ġscar": 1377,
      "iku": 1378,
      "Ġmmf": 1379,
      "aginal": 1380,
      "closed": 1381,
      "Ġlingerie": 1382,
      "actation": 1383,
      "duc": 1384,
      "Ġfish": 1385,
      "olae": 1386,
      "uke": 1387,
      "lec": 1388,
      "dd": 1389,
      "Ġfoot": 1390,
      "ãĥ³": 1391,
      "ix": 1392,
      "ime": 1393,
      "Ġsimple": 1394,
      "Ġlegs": 1395,
      "tic": 1396,
      "Ġtongue": 1397,
      "Ġpoin": 1398,
      "Ġbra": 1399,
      "nipple": 1400,
      "Ġproduc": 1401,
      "Ġpol": 1402,
      "teeth": 1403,
      "Ġai": 1404,
      "arted": 1405,
      "nude": 1406,
      "stick": 1407,
      "impact": 1408,
      "els": 1409,
      "ada": 1410,
      "doors": 1411,
      "frame": 1412,
      "Ġten": 1413,
      "Ġfate": 1414,
      "sen": 1415,
      "style": 1416,
      "line": 1417,
      "rip": 1418,
      "necktie": 1419,
      "Ġma": 1420,
      "eek": 1421,
      "Ġbody": 1422,
      "cess": 1423,
      "ance": 1424,
      "Ġts": 1425,
      "ekai": 1426,
      "pubic": 1427,
      "stitu": 1428,
      "Ġprint": 1429,
      "Ġmar": 1430,
      "mer": 1431,
      "Ġ2023": 1432,
      "stitution": 1433,
      "Ġwet": 1434,
      "star": 1435,
      "Ġafter": 1436,
      "Ġmil": 1437,
      "shoes": 1438,
      "welry": 1439,
      "Ġdickgirl": 1440,
      "Ġpupils": 1441,
      "Ġdragon": 1442,
      "une": 1443,
      "oki": 1444,
      "py": 1445,
      "Ġsn": 1446,
      "rying": 1447,
      "Ġfeet": 1448,
      "undam": 1449,
      "ret": 1450,
      "san": 1451,
      "Ġnijigasaki": 1452,
      "Ġknee": 1453,
      "eyebrows": 1454,
      "Ġbraid": 1455,
      "sky": 1456,
      "cape": 1457,
      "icial": 1458,
      "ighting": 1459,
      "Ġpuff": 1460,
      "quid": 1461,
      "Ġmid": 1462,
      "pa": 1463,
      "Ġly": 1464,
      "Ġlicking": 1465,
      "Ġshorts": 1466,
      "choker": 1467,
      "Ġthi": 1468,
      "Ġupper": 1469,
      "Ġrabbit": 1470,
      "ps": 1471,
      "ian": 1472,
      "ming": 1473,
      "Ġay": 1474,
      "Ġbald": 1475,
      "Ġsweating": 1476,
      "hon": 1477,
      "Ġyoshi": 1478,
      "ner": 1479,
      "Ġnude": 1480,
      "Ġfake": 1481,
      "Ġsti": 1482,
      "igan": 1483,
      "Ġni": 1484,
      "que": 1485,
      "yuki": 1486,
      "Ġtank": 1487,
      "Ġjacket": 1488,
      "genshin": 1489,
      "eru": 1490,
      "Ġexhibitionism": 1491,
      "chest": 1492,
      "Ġwater": 1493,
      "Ġteacher": 1494,
      "rical": 1495,
      "Ġparti": 1496,
      "hiro": 1497,
      "gy": 1498,
      "eld": 1499,
      "uko": 1500,
      "able": 1501,
      "ign": 1502,
      "Ġjewelry": 1503,
      "Ġmush": 1504,
      "mai": 1505,
      "oh": 1506,
      "Ġblo": 1507,
      "aist": 1508,
      "Ġgr": 1509,
      "Ġclub": 1510,
      "nipples": 1511,
      "oll": 1512,
      "Ġsmoke": 1513,
      "æľ": 1514,
      "unge": 1515,
      "Ġcovered": 1516,
      "Ġparted": 1517,
      "Ġunusual": 1518,
      "meme": 1519,
      "gin": 1520,
      "drop": 1521,
      "kimono": 1522,
      "bottom": 1523,
      "Ġout": 1524,
      "oi": 1525,
      "Ġstomach": 1526,
      "ger": 1527,
      "tub": 1528,
      "adow": 1529,
      "Ġcunnilingus": 1530,
      "tensei": 1531,
      "ĠUn": 1532,
      "ote": 1533,
      "Ġpuffy": 1534,
      "po": 1535,
      "Ġthighhighs": 1536,
      "cro": 1537,
      "Ġcreat": 1538,
      "Ġsome": 1539,
      "Ġkaz": 1540,
      "!)": 1541,
      "runchie": 1542,
      "ba": 1543,
      "Ġkir": 1544,
      "rincess": 1545,
      "Ġofficial": 1546,
      "room": 1547,
      "tain": 1548,
      "ĠE": 1549,
      "Ġsqu": 1550,
      "antas": 1551,
      "Ġ8": 1552,
      "Ġleotard": 1553,
      "Ġur": 1554,
      "aning": 1555,
      "Ġprostitution": 1556,
      "Ġharem": 1557,
      "Ġtranslation": 1558,
      "ĠMosaic": 1559,
      "Ġou": 1560,
      "ungeon": 1561,
      "some": 1562,
      "ĠBlowjob": 1563,
      "Ġliquid": 1564,
      "Ġdog": 1565,
      "oro": 1566,
      "ymmet": 1567,
      "Ġhalf": 1568,
      "toge": 1569,
      "visible": 1570,
      "alo": 1571,
      "ree": 1572,
      "nal": 1573,
      "locks": 1574,
      "unt": 1575,
      "gun": 1576,
      "ĠI": 1577,
      "together": 1578,
      "ike": 1579,
      "Ġaki": 1580,
      "verse": 1581,
      "ke": 1582,
      "ken": 1583,
      "ren": 1584,
      "ĠNakadashi": 1585,
      "ler": 1586,
      "ika": 1587,
      "Ġarchive": 1588,
      "ached": 1589,
      "irgin": 1590,
      "Ġlactation": 1591,
      "Ġareolae": 1592,
      "with": 1593,
      "Ġcam": 1594,
      "etached": 1595,
      "gi": 1596,
      "handjob": 1597,
      "ymmetrical": 1598,
      "illow": 1599,
      "Ġmushoku": 1600,
      "scar": 1601,
      "sym": 1602,
      "rieren": 1603,
      "Ġtou": 1604,
      "Ġcolored": 1605,
      "ures": 1606,
      "person": 1607,
      "Ġen": 1608,
      "aside": 1609,
      "Ġbreak": 1610,
      "Ġdeep": 1611,
      "cap": 1612,
      "Ġnaked": 1613,
      "cy": 1614,
      "sailor": 1615,
      "king": 1616,
      "Ġsleeping": 1617,
      "antasy": 1618,
      "entac": 1619,
      "Ġer": 1620,
      "ered": 1621,
      "Ġcar": 1622,
      "bre": 1623,
      "ilming": 1624,
      "mulation": 1625,
      "Ġ2022": 1626,
      "Ġmag": 1627,
      "osh": 1628,
      "bar": 1629,
      "Ġwe": 1630,
      "Ġclothing": 1631,
      "Ġand": 1632,
      "dressing": 1633,
      "Ġve": 1634,
      "Ġmonster": 1635,
      "blush": 1636,
      "Ġmother": 1637,
      "inking": 1638,
      "pits": 1639,
      "atio": 1640,
      "Ġpartially": 1641,
      "Ġflower": 1642,
      "hoge": 1643,
      "oken": 1644,
      "Ġsal": 1645,
      "tra": 1646,
      "Ġsakura": 1647,
      "Ġcreatures": 1648,
      "Ġfor": 1649,
      "mail": 1650,
      "Ġperson": 1651,
      "Ġcovering": 1652,
      "Ġden": 1653,
      "Ġbur": 1654,
      "xt": 1655,
      "li": 1656,
      "shou": 1657,
      "box": 1658,
      "Ġyam": 1659,
      "iri": 1660,
      "Ġwa": 1661,
      "ĠR": 1662,
      "Ġspoken": 1663,
      "xiv": 1664,
      "Ġmuscle": 1665,
      "pier": 1666,
      "Ġsee": 1667,
      "wo": 1668,
      "Ġag": 1669,
      "Ġcensored": 1670,
      "rack": 1671,
      "bon": 1672,
      "fire": 1673,
      "uffs": 1674,
      "Ġsuit": 1675,
      "bone": 1676,
      "urry": 1677,
      "Ġfacial": 1678,
      "omo": 1679,
      "Ġbang": 1680,
      "Ġdungeon": 1681,
      "Ġgold": 1682,
      "Ġschoolboy": 1683,
      "right": 1684,
      "Ġus": 1685,
      "Ġpanty": 1686,
      "raw": 1687,
      "ertion": 1688,
      "mat": 1689,
      "ĠY": 1690,
      "ardigan": 1691,
      "ection": 1692,
      "shoulders": 1693,
      "animal": 1694,
      "ighter": 1695,
      "Ġdetached": 1696,
      "jim": 1697,
      "piercing": 1698,
      "ination": 1699,
      "ukk": 1700,
      "Ġcropped": 1701,
      "Ġshoulder": 1702,
      "fold": 1703,
      "gas": 1704,
      "Ġgro": 1705,
      "lace": 1706,
      "Ġtsu": 1707,
      "ĠSchool": 1708,
      "irginity": 1709,
      "Ġsweater": 1710,
      "pixiv": 1711,
      "Ġmak": 1712,
      "chief": 1713,
      "Ġfighting": 1714,
      "abe": 1715,
      "Ġlace": 1716,
      "symbol": 1717,
      "Ġcrossed": 1718,
      "Ġstrapless": 1719,
      "Ġpov": 1720,
      "ature": 1721,
      "Ġhandjob": 1722,
      "unning": 1723,
      "Ġasymmetrical": 1724,
      "doujinshi": 1725,
      "ukkake": 1726,
      "dient": 1727,
      "roat": 1728,
      "erchief": 1729,
      "finger": 1730,
      "Ġgradient": 1731,
      "!!": 1732,
      "boob": 1733,
      "avy": 1734,
      "zuki": 1735,
      "text": 1736,
      "icro": 1737,
      "etero": 1738,
      "Ġmor": 1739,
      "Ġvaginal": 1740,
      "iercing": 1741,
      "Ġrunning": 1742,
      "ĠNo": 1743,
      "ld": 1744,
      "tak": 1745,
      "Ġblackmail": 1746,
      "tattoo": 1747,
      "gg": 1748,
      "adem": 1749,
      "Ġtop": 1750,
      "Ġbed": 1751,
      "Ġcur": 1752,
      "arou": 1753,
      "Ġmiy": 1754,
      "throat": 1755,
      "Ġover": 1756,
      "ton": 1757,
      "flo": 1758,
      "umed": 1759,
      "Ġfilming": 1760,
      "fe": 1761,
      "from": 1762,
      "Ġos": 1763,
      "Ġboots": 1764,
      "Ġpresumed": 1765,
      "Ġhetero": 1766,
      "ward": 1767,
      "asa": 1768,
      "ough": 1769,
      "mask": 1770,
      "chair": 1771,
      "Ġsuper": 1772,
      "dot": 1773,
      "meshi": 1774,
      "Ġleaning": 1775,
      "Ġdan": 1776,
      "Ġgu": 1777,
      "bell": 1778,
      "ream": 1779,
      "press": 1780,
      "mag": 1781,
      "ĠJ": 1782,
      "Ġper": 1783,
      "book": 1784,
      "bubble": 1785,
      "waist": 1786,
      "Ġwide": 1787,
      "oy": 1788,
      "cha": 1789,
      "Ġwind": 1790,
      "Ġmake": 1791,
      "Ġkiz": 1792,
      "uchi": 1793,
      "Ġtall": 1794,
      "Ġgundam": 1795,
      "isekai": 1796,
      "academ": 1797,
      "ft": 1798,
      "censoring": 1799,
      "Ġwrist": 1800,
      "Ġnon": 1801,
      "ĠBreasts": 1802,
      "Ġmask": 1803,
      "for": 1804,
      "part": 1805,
      "Ġkag": 1806,
      "glasses": 1807,
      "board": 1808,
      "indfold": 1809,
      "Ġouts": 1810,
      "ellatio": 1811,
      "za": 1812,
      "Ġpe": 1813,
      "Ġgarter": 1814,
      "Ġpolka": 1815,
      "bus": 1816,
      "ned": 1817,
      "imjob": 1818,
      "Ġhighleg": 1819,
      "Ġbar": 1820,
      "Ġtat": 1821,
      "Ġthick": 1822,
      "pol": 1823,
      "Ġpants": 1824,
      "oc": 1825,
      "pit": 1826,
      "ront": 1827,
      "Ġear": 1828,
      "colle": 1829,
      "kancolle": 1830,
      "jus": 1831,
      "ump": 1832,
      "ied": 1833,
      "Ġsailor": 1834,
      "Ġspik": 1835,
      "regnant": 1836,
      "uta": 1837,
      "Ġblurry": 1838,
      "Ġstrap": 1839,
      "gasm": 1840,
      "usume": 1841,
      "irting": 1842,
      "acelet": 1843,
      "thighs": 1844,
      "appy": 1845,
      "ette": 1846,
      "Ġshoes": 1847,
      "Ġcollared": 1848,
      "Ġtata": 1849,
      "Ġste": 1850,
      "Ġsl": 1851,
      "hoodie": 1852,
      "Ġarc": 1853,
      "Ġbag": 1854,
      "Ġãĥ": 1855,
      "Ġfutanari": 1856,
      "light": 1857,
      "Ġnishi": 1858,
      "kin": 1859,
      "tan": 1860,
      "Ġflo": 1861,
      "Ġmonogatari": 1862,
      "Ġtur": 1863,
      "Ġfang": 1864,
      "uya": 1865,
      "ones": 1866,
      "Ġahoge": 1867,
      "scarf": 1868,
      "Ġstory": 1869,
      "conn": 1870,
      "Ġ;": 1871,
      "Ġmouth": 1872,
      "witch": 1873,
      "Ġlock": 1874,
      "owel": 1875,
      "lection": 1876,
      "æľĪ": 1877,
      "nched": 1878,
      "Ġclenched": 1879,
      "ãĤ¤": 1880,
      "ends": 1881,
      "scrunchie": 1882,
      "aice": 1883,
      "Ġtee": 1884,
      "kun": 1885,
      "sion": 1886,
      "Ġdeepthroat": 1887,
      "Ġpiercing": 1888,
      "Ġearrings": 1889,
      "bodysuit": 1890,
      "Ġteeth": 1891,
      "zuku": 1892,
      "entacles": 1893,
      "Ġkimono": 1894,
      "tataice": 1895,
      "erv": 1896,
      "itary": 1897,
      "floor": 1898,
      "Ġplay": 1899,
      "ah": 1900,
      "Ġmicro": 1901,
      "peek": 1902,
      "Ġadjus": 1903,
      "Ġkar": 1904,
      "03": 1905,
      "zero": 1906,
      "oe": 1907,
      "Ġadjusting": 1908,
      "Ġpet": 1909,
      "Ġple": 1910,
      "usa": 1911,
      "ls": 1912,
      "Ġsocks": 1913,
      "Ġtri": 1914,
      "Ġbandaid": 1915,
      "amura": 1916,
      "vil": 1917,
      "tive": 1918,
      "Ġhor": 1919,
      "Ġonii": 1920,
      "ĠPaizuri": 1921,
      "Ġsat": 1922,
      "Ġtanlines": 1923,
      "materi": 1924,
      "Ġbunny": 1925,
      "par": 1926,
      "ource": 1927,
      "ĠW": 1928,
      "Ġbot": 1929,
      "ding": 1930,
      "zer": 1931,
      "border": 1932,
      "Ġsidelocks": 1933,
      "toy": 1934,
      "heels": 1935,
      "by": 1936,
      "Ġbarefoot": 1937,
      "Ġpubic": 1938,
      "inter": 1939,
      "Ġlying": 1940,
      "Ġhug": 1941,
      "Ġpleated": 1942,
      "cuffs": 1943,
      "fantasy": 1944,
      "iva": 1945,
      "oubon": 1946,
      "weapon": 1947,
      "ission": 1948,
      "athing": 1949,
      "Ġmik": 1950,
      "mar": 1951,
      "ĠGroup": 1952,
      "Ġproduction": 1953,
      "Ġhappy": 1954,
      "kou": 1955,
      "Ġkono": 1956,
      "Ġmon": 1957,
      "tock": 1958,
      "verted": 1959,
      "jac": 1960,
      "slip": 1961,
      "riff": 1962,
      "rum": 1963,
      "wall": 1964,
      "ife": 1965,
      "zaki": 1966,
      "tockings": 1967,
      "Ġsword": 1968,
      "ĠSchoolgirl": 1969,
      "Ġhiro": 1970,
      "nim": 1971,
      "ition": 1972,
      "transl": 1973,
      "materials": 1974,
      "Ġreverse": 1975,
      "fuku": 1976,
      "chin": 1977,
      "Ġmy": 1978,
      "umonogatari": 1979,
      "Ġkizumonogatari": 1980,
      "asumi": 1981,
      "apart": 1982,
      "Ġbukkake": 1983,
      "augh": 1984,
      "clip": 1985,
      "ights": 1986,
      "eko": 1987,
      "atsuki": 1988,
      "stomach": 1989,
      "00": 1990,
      "armor": 1991,
      "Ġcos": 1992,
      "Ġcollarbone": 1993,
      "uffed": 1994,
      "ui": 1995,
      "ouse": 1996,
      "Ġsleeves": 1997,
      "ouch": 1998,
      "Ġmakeup": 1999,
      "ku": 2000,
      "phones": 2001,
      "medium": 2002,
      "Ġsaliva": 2003,
      "Ġdrinking": 2004,
      "Ġcrying": 2005,
      "iru": 2006,
      "Ġ9": 2007,
      "ĠStockings": 2008,
      "polish": 2009,
      "ugi": 2010,
      "covering": 2011,
      "food": 2012,
      "asc": 2013,
      "ise": 2014,
      "pose": 2015,
      "insertion": 2016,
      "rim": 2017,
      "airy": 2018,
      "Ġchain": 2019,
      "kn": 2020,
      "Ġkam": 2021,
      "Ġurination": 2022,
      "ĠJapanese": 2023,
      "hold": 2024,
      "Ġball": 2025,
      "Ġsym": 2026,
      "set": 2027,
      "Ġmis": 2028,
      "Ġtam": 2029,
      "Ġblunt": 2030,
      "Ġmidriff": 2031,
      "oss": 2032,
      "jaculation": 2033,
      "eyel": 2034,
      "Ġcrotch": 2035,
      "ousou": 2036,
      "Ġtankoubon": 2037,
      "ily": 2038,
      "opy": 2039,
      "mon": 2040,
      "Ġblood": 2041,
      "Ġrimjob": 2042,
      "Ġdrunk": 2043,
      "Ġelbow": 2044,
      "ica": 2045,
      "cheek": 2046,
      "Ġyuki": 2047,
      "ensorship": 2048,
      "ĠCensorship": 2049,
      "Ġarmpits": 2050,
      "Ġmari": 2051,
      "Ġsum": 2052,
      "aper": 2053,
      "Ġinverted": 2054,
      "skinned": 2055,
      "Ġsand": 2056,
      "ning": 2057,
      "Ġbun": 2058,
      "akura": 2059,
      "Ġdi": 2060,
      "ather": 2061,
      "lla": 2062,
      "Ġnose": 2063,
      "Ġlip": 2064,
      "but": 2065,
      "ĠIn": 2066,
      "Ġthighs": 2067,
      "kissing": 2068,
      "Ġfloating": 2069,
      "oral": 2070,
      "Ġbutt": 2071,
      "Ġat": 2072,
      "fighter": 2073,
      "itt": 2074,
      "sweating": 2075,
      "emi": 2076,
      "squ": 2077,
      "Ġnin": 2078,
      "Ġga": 2079,
      "siz": 2080,
      "juice": 2081,
      "ugs": 2082,
      "Ġvirginity": 2083,
      "ãĥ³ãĤ": 2084,
      "original": 2085,
      "oud": 2086,
      "bottle": 2087,
      "tleneck": 2088,
      "Ġapron": 2089,
      "Ġsky": 2090,
      "Ġyuk": 2091,
      "Ġsymbol": 2092,
      "she": 2093,
      "opyright": 2094,
      "ocket": 2095,
      "Ġweapon": 2096,
      "angle": 2097,
      "Ġcowboy": 2098,
      "Ġspark": 2099,
      "twintails": 2100,
      "reet": 2101,
      "lowing": 2102,
      "Ġsmell": 2103,
      "Ġelf": 2104,
      "Ġnecktie": 2105,
      "inu": 2106,
      "framed": 2107,
      "aoi": 2108,
      "ingers": 2109,
      "pro": 2110,
      "Ġkit": 2111,
      "umbre": 2112,
      "ower": 2113,
      "cil": 2114,
      "Ġhalo": 2115,
      "Ġosaka": 2116,
      "cor": 2117,
      "umbrella": 2118,
      "Ġfootjob": 2119,
      "ages": 2120,
      "thigh": 2121,
      "Ġimmin": 2122,
      "Ġimminent": 2123,
      "uno": 2124,
      "tai": 2125,
      "eding": 2126,
      "Ġfemales": 2127,
      "gear": 2128,
      "tsuki": 2129,
      "Ġcopyright": 2130,
      "uni": 2131,
      "Ġtattoo": 2132,
      "formation": 2133,
      "nimated": 2134,
      "eki": 2135,
      "esticle": 2136,
      "penetration": 2137,
      "Ġbound": 2138,
      "shine": 2139,
      "ode": 2140,
      "Ġcheck": 2141,
      "Ġnakano": 2142,
      "Ġbook": 2143,
      "Ġpix": 2144,
      "Ġshar": 2145,
      "striped": 2146,
      "Ġbbw": 2147,
      "Ġé": 2148,
      "Ġstuffed": 2149,
      "rain": 2150,
      "oshimai": 2151,
      "saw": 2152,
      "Ġspiked": 2153,
      "Ġok": 2154,
      "Ġknees": 2155,
      "Ġstimulation": 2156,
      "Ġmilitary": 2157,
      "iation": 2158,
      "Ġgym": 2159,
      "Ġorgasm": 2160,
      "emonog": 2161,
      "emonogatari": 2162,
      "Ġgrand": 2163,
      "ariant": 2164,
      "Ġprincess": 2165,
      "Ġkou": 2166,
      "Ġser": 2167,
      "Ġiz": 2168,
      "ans": 2169,
      "Ġnag": 2170,
      "riting": 2171,
      "position": 2172,
      "amoto": 2173,
      "Ġyuuki": 2174,
      "olf": 2175,
      "Ġtouhou": 2176,
      "Ġå": 2177,
      "dan": 2178,
      "feren": 2179,
      "Ġsw": 2180,
      "Ġdis": 2181,
      "dragon": 2182,
      "Ġka": 2183,
      "translated": 2184,
      "Ġwavy": 2185,
      "retched": 2186,
      "Ġtears": 2187,
      "etch": 2188,
      "tretched": 2189,
      "Ġoutstretched": 2190,
      "ular": 2191,
      "heart": 2192,
      "Ġichi": 2193,
      "Ġwalk": 2194,
      "glass": 2195,
      "hero": 2196,
      "lit": 2197,
      "Ġblindfold": 2198,
      "Ġsign": 2199,
      "Ġang": 2200,
      "bunny": 2201,
      "braids": 2202,
      "Ġrough": 2203,
      "Ġtwin": 2204,
      "Ġgender": 2205,
      "rest": 2206,
      "Ġindoors": 2207,
      "eech": 2208,
      "ryou": 2209,
      "asties": 2210,
      "lor": 2211,
      "Ġsub": 2212,
      "pt": 2213,
      "fingers": 2214,
      "cross": 2215,
      "rec": 2216,
      "oma": 2217,
      "ust": 2218,
      "Ġtok": 2219,
      "Ġmeg": 2220,
      "Ġoniichan": 2221,
      "itter": 2222,
      "rew": 2223,
      "Ġsai": 2224,
      "._": 2225,
      "ishima": 2226,
      "Ġshe": 2227,
      "fi": 2228,
      "Ġtsuk": 2229,
      "tank": 2230,
      "atting": 2231,
      "cup": 2232,
      "Ġdrugs": 2233,
      "can": 2234,
      "Ġbetween": 2235,
      "Ġgo": 2236,
      "Ġkaw": 2237,
      "ota": 2238,
      "plo": 2239,
      "cur": 2240,
      "kne": 2241,
      "ky": 2242,
      "cardigan": 2243,
      "Ġnan": 2244,
      "Ġnail": 2245,
      "Ġsy": 2246,
      "afuku": 2247,
      "Ġsports": 2248,
      "smile": 2249,
      "Ġwitch": 2250,
      "Ġtoes": 2251,
      "ĠO": 2252,
      "Ġhairband": 2253,
      "Ġorder": 2254,
      "uspen": 2255,
      "lane": 2256,
      "hime": 2257,
      "ĠSh": 2258,
      "tou": 2259,
      "Ġtag": 2260,
      "aba": 2261,
      "Ġhay": 2262,
      "Ġaz": 2263,
      "Ġoutdoors": 2264,
      "tical": 2265,
      "des": 2266,
      "ference": 2267,
      "nose": 2268,
      "Ġtomboy": 2269,
      "red": 2270,
      "Ġfrieren": 2271,
      "dden": 2272,
      "Ġvi": 2273,
      "Ġbis": 2274,
      "neckerchief": 2275,
      "Ġlol": 2276,
      "Ġot": 2277,
      "ror": 2278,
      "ruit": 2279,
      "10": 2280,
      "Ġfox": 2281,
      "fly": 2282,
      "Ġnight": 2283,
      "Ġpointing": 2284,
      "Ġfront": 2285,
      "fu": 2286,
      "Ġbat": 2287,
      "doll": 2288,
      "ãĥ©": 2289,
      "Ġproject": 2290,
      "andy": 2291,
      "oli": 2292,
      "Ġna": 2293,
      "har": 2294,
      "Ġank": 2295,
      "han": 2296,
      "cock": 2297,
      "Ġcape": 2298,
      "ely": 2299,
      "net": 2300,
      "kag": 2301,
      "Ġcor": 2302,
      "Ġbeach": 2303,
      "anta": 2304,
      "antai": 2305,
      "12": 2306,
      "Ġpregnant": 2307,
      "Ġshiny": 2308,
      "Ġimpl": 2309,
      "Ġpillow": 2310,
      "kon": 2311,
      "seki": 2312,
      "amp": 2313,
      "Ġimplied": 2314,
      "fan": 2315,
      "Ġcrossdressing": 2316,
      "Ġtomgirl": 2317,
      "futanari": 2318,
      "hip": 2319,
      "Ġring": 2320,
      "ging": 2321,
      "day": 2322,
      "nt": 2323,
      "Ġclit": 2324,
      "eyelash": 2325,
      "sword": 2326,
      "Ġbro": 2327,
      "Ġrai": 2328,
      "Ġhak": 2329,
      "feet": 2330,
      "eyelashes": 2331,
      "upp": 2332,
      "jam": 2333,
      "source": 2334,
      "arashi": 2335,
      "way": 2336,
      "Ġkari": 2337,
      "Ġsweatdrop": 2338,
      "reen": 2339,
      "isole": 2340,
      "ence": 2341,
      "brator": 2342,
      "eta": 2343,
      "Ġshim": 2344,
      "æĹ": 2345,
      "ere": 2346,
      "Ġpersona": 2347,
      "angel": 2348,
      "Ġdenim": 2349,
      "gap": 2350,
      "Ġbir": 2351,
      "Ġturtleneck": 2352,
      "kawa": 2353,
      "Ġtentacles": 2354,
      "ella": 2355,
      "Ġkon": 2356,
      "cat": 2357,
      "Ġmiz": 2358,
      "Ġhairclip": 2359,
      "Ġsquatting": 2360,
      "mast": 2361,
      "Ġfocus": 2362,
      "Ġcosplay": 2363,
      "Ġfeeding": 2364,
      "Ġis": 2365,
      "va": 2366,
      "Ġanus": 2367,
      "user": 2368,
      "ĠAnal": 2369,
      "masturbation": 2370,
      "iness": 2371,
      "Ġwings": 2372,
      "umu": 2373,
      "sawa": 2374,
      "Ġbak": 2375,
      "oshino": 2376,
      "ristmas": 2377,
      "Ġold": 2378,
      "Ġchoker": 2379,
      "Ġgrin": 2380,
      "formance": 2381,
      "eling": 2382,
      "Ġperformance": 2383,
      "esticles": 2384,
      "Ġpain": 2385,
      "Ġcowgirl": 2386,
      "azawa": 2387,
      "Ġlat": 2388,
      "Ġac": 2389,
      "Ġsnow": 2390,
      "ublic": 2391,
      "bed": 2392,
      "ãĥ¼": 2393,
      "Ġbike": 2394,
      "urai": 2395,
      "adoka": 2396,
      "amusume": 2397,
      "ost": 2398,
      "Ġben": 2399,
      "vi": 2400,
      "isk": 2401,
      "Ġgam": 2402,
      "Ġki": 2403,
      "Ġsanta": 2404,
      "Ġmer": 2405,
      "Ġtran": 2406,
      "elmet": 2407,
      "bur": 2408,
      "Ġhot": 2409,
      "Ġkin": 2410,
      "åĪ": 2411,
      "halo": 2412,
      "Ġeyes": 2413,
      "expo": 2414,
      "ales": 2415,
      "aze": 2416,
      "bu": 2417,
      "oda": 2418,
      "Ġfaceless": 2419,
      "mission": 2420,
      "ogg": 2421,
      "irst": 2422,
      "chain": 2423,
      "Ġtrack": 2424,
      "ĠFemale": 2425,
      "Ġandrew": 2426,
      "Ġanimator": 2427,
      "isa": 2428,
      "haru": 2429,
      "lay": 2430,
      "yak": 2431,
      "Ġkariinu": 2432,
      "urse": 2433,
      "ifting": 2434,
      "squirting": 2435,
      "che": 2436,
      "aged": 2437,
      "Ġshib": 2438,
      "rill": 2439,
      "obi": 2440,
      "rowed": 2441,
      "super": 2442,
      "Ġgok": 2443,
      "Ġkot": 2444,
      "Ġshou": 2445,
      "Ġcut": 2446,
      "Ġflat": 2447,
      "clo": 2448,
      "Ġhum": 2449,
      "til": 2450,
      "Ġkat": 2451,
      "Ġgenga": 2452,
      "roach": 2453,
      "Ġexplo": 2454,
      "kyou": 2455,
      "alternate": 2456,
      "Ġson": 2457,
      "Ġsur": 2458,
      "Ġmecha": 2459,
      "20": 2460,
      "mari": 2461,
      "strum": 2462,
      "æĹ¥": 2463,
      "unch": 2464,
      "Ġsteam": 2465,
      "lead": 2466,
      "hips": 2467,
      "Ġstreet": 2468,
      "cockroach": 2469,
      "Ġandrewcockroach": 2470,
      "Ġglowing": 2471,
      "åĪĬ": 2472,
      "lying": 2473,
      "Ġfrills": 2474,
      "Ġoni": 2475,
      "ildo": 2476,
      "ocking": 2477,
      "Ġcir": 2478,
      "ĠUniform": 2479,
      "nets": 2480,
      "Ġarmor": 2481,
      "Ġmu": 2482,
      "booru": 2483,
      "Ġfacing": 2484,
      "Ġholo": 2485,
      "Ġrock": 2486,
      "Ġbracelet": 2487,
      "uba": 2488,
      "Ġdancing": 2489,
      "Ġeyebrows": 2490,
      "Ġlifting": 2491,
      "Ġhoshi": 2492,
      "azur": 2493,
      "Ġdeformation": 2494,
      "control": 2495,
      "Ġsek": 2496,
      "ĠLoli": 2497,
      "oung": 2498,
      "Ġgroping": 2499,
      "Ġnar": 2500,
      "abo": 2501,
      "game": 2502,
      "rail": 2503,
      "ads": 2504,
      "panzer": 2505,
      "animation": 2506,
      "condom": 2507,
      "exual": 2508,
      "Ġsignature": 2509,
      "ness": 2510,
      "Ġarmpit": 2511,
      "watch": 2512,
      "ona": 2513,
      "ension": 2514,
      "Ġshiro": 2515,
      "ates": 2516,
      "academia": 2517,
      "Ġit": 2518,
      "Ġnek": 2519,
      "Ġbowtie": 2520,
      "Ġwat": 2521,
      "Ġmes": 2522,
      "rass": 2523,
      "Ġoh": 2524,
      "note": 2525,
      "ube": 2526,
      "Ġminisk": 2527,
      "Ġminiskirt": 2528,
      "Ġbuns": 2529,
      "Ġpointy": 2530,
      "ady": 2531,
      "rd": 2532,
      "Ġswe": 2533,
      "Ġclo": 2534,
      "tional": 2535,
      "Ġvertical": 2536,
      "oriko": 2537,
      "chou": 2538,
      "Ġtile": 2539,
      "ima": 2540,
      "Ġgag": 2541,
      "ĠGl": 2542,
      "jamas": 2543,
      "umamusume": 2544,
      "Anal": 2545,
      "Ġcup": 2546,
      "azuki": 2547,
      "Ġpublic": 2548,
      "ct": 2549,
      "Ġpencil": 2550,
      "sama": 2551,
      "Ġshadow": 2552,
      "connection": 2553,
      "pom": 2554,
      "oggles": 2555,
      "ĠDark": 2556,
      "Ġpaw": 2557,
      "len": 2558,
      "Ġof": 2559,
      "Ġstring": 2560,
      "hen": 2561,
      "pai": 2562,
      "pack": 2563,
      "cking": 2564,
      "fri": 2565,
      "Ġkur": 2566,
      "vel": 2567,
      "Ġdo": 2568,
      "Ġbodysuit": 2569,
      "eg": 2570,
      "ado": 2571,
      "orehead": 2572,
      "Ġproducer": 2573,
      "dai": 2574,
      "dasu": 2575,
      "ãĥ³ãĤ°": 2576,
      "cular": 2577,
      "19": 2578,
      "bou": 2579,
      "Ġir": 2580,
      "omers": 2581,
      "rench": 2582,
      "fellatio": 2583,
      "son": 2584,
      "Ġbath": 2585,
      "Ġleash": 2586,
      "zumi": 2587,
      "Ġpop": 2588,
      "Ġspeech": 2589,
      "Ġfishnets": 2590,
      "ocol": 2591,
      "Ġpresent": 2592,
      "Ġfre": 2593,
      "ery": 2594,
      "tsuna": 2595,
      "Ġlay": 2596,
      "Ġcell": 2597,
      "Ġtachi": 2598,
      "Ġpresenting": 2599,
      "Ġtowel": 2600,
      "Ġwor": 2601,
      "rose": 2602,
      "buster": 2603,
      "pillow": 2604,
      "Ġsou": 2605,
      "Ġimpact": 2606,
      "other": 2607,
      "erlead": 2608,
      "robe": 2609,
      "Ġcomic": 2610,
      "moon": 2611,
      "rists": 2612,
      "ittara": 2613,
      "Big": 2614,
      "omiya": 2615,
      "blo": 2616,
      "ite": 2617,
      "fit": 2618,
      "Ġbottom": 2619,
      "ient": 2620,
      "agawa": 2621,
      "ĠYoung": 2622,
      "honki": 2623,
      "cam": 2624,
      "ico": 2625,
      "Ġtoen": 2626,
      "ght": 2627,
      "raight": 2628,
      "sun": 2629,
      "Ġmahou": 2630,
      "Ġhidden": 2631,
      "Ġsensei": 2632,
      "forward": 2633,
      "Ġday": 2634,
      "kiss": 2635,
      "wrists": 2636,
      "Ġkneehighs": 2637,
      "Ġexplosion": 2638,
      "frieren": 2639,
      "039": 2640,
      "party": 2641,
      "Ġburn": 2642,
      "rol": 2643,
      "ital": 2644,
      "Ġcoat": 2645,
      "shoujo": 2646,
      "Ġlolita": 2647,
      "drip": 2648,
      "Ġtear": 2649,
      "ĠGlasses": 2650,
      "Ġsa": 2651,
      "Ġfloral": 2652,
      "eda": 2653,
      "andjob": 2654,
      "Ġair": 2655,
      "Ġcellphone": 2656,
      "Ġbrid": 2657,
      "Ġoffice": 2658,
      "hairstyle": 2659,
      "Ġsuspen": 2660,
      "&#": 2661,
      "Ġhero": 2662,
      "Ġoshi": 2663,
      "ny": 2664,
      "sheet": 2665,
      "Ġue": 2666,
      "udity": 2667,
      "nerae": 2668,
      "Ġnurse": 2669,
      "Ġmir": 2670,
      "pec": 2671,
      "esis": 2672,
      "zel": 2673,
      "Ġhin": 2674,
      "eur": 2675,
      "fur": 2676,
      "Ġqu": 2677,
      "Ġmotion": 2678,
      "Ġind": 2679,
      "rem": 2680,
      "cycle": 2681,
      "Ġbell": 2682,
      "ĠRape": 2683,
      "Ġstraight": 2684,
      "rock": 2685,
      "dif": 2686,
      "past": 2687,
      "Ġmini": 2688,
      "strument": 2689,
      "princess": 2690,
      "ãĥĹ": 2691,
      "Ġwood": 2692,
      "aga": 2693,
      "Ġrobot": 2694,
      "car": 2695,
      "ality": 2696,
      "Ġbottomless": 2697,
      "cg": 2698,
      "ito": 2699,
      "Ġnecklace": 2700,
      "isaki": 2701,
      "Ġyou": 2702,
      "mus": 2703,
      "flag": 2704,
      "difference": 2705,
      "ext": 2706,
      "Ġphone": 2707,
      "mu": 2708,
      "Ġhooded": 2709,
      "oyeur": 2710,
      "oyeurism": 2711,
      "untle": 2712,
      "barrass": 2713,
      "untlets": 2714,
      "capelet": 2715,
      "Ġflying": 2716,
      "ckles": 2717,
      "ĠSex": 2718,
      "knee": 2719,
      "gawa": 2720,
      "Ġchristmas": 2721,
      "ĠHandjob": 2722,
      "Ġhorse": 2723,
      "Ġsan": 2724,
      "necklace": 2725,
      "Ġcomple": 2726,
      "æĹ¥åı·": 2727,
      "Ġbob": 2728,
      "barrassed": 2729,
      "Ġembarrassed": 2730,
      "aby": 2731,
      "bris": 2732,
      "pany": 2733,
      "ãĤ¤ãĥ": 2734,
      "garter": 2735,
      "Ġall": 2736,
      "oon": 2737,
      "ecg": 2738,
      "Ġshik": 2739,
      "Ġuehara": 2740,
      "oice": 2741,
      "Ġ^": 2742,
      "kaz": 2743,
      "Ġsug": 2744,
      "Ġkok": 2745,
      "Ġfingerless": 2746,
      "actor": 2747,
      "Ġgoggles": 2748,
      "wrist": 2749,
      "Ġwooden": 2750,
      "Ġbri": 2751,
      "file": 2752,
      "Ġgame": 2753,
      "reath": 2754,
      "Ġgot": 2755,
      "Ġcy": 2756,
      "Ġdebris": 2757,
      "spar": 2758,
      "zen": 2759,
      "Ġhololive": 2760,
      "Ġsketch": 2761,
      "Ġerection": 2762,
      "Ġstud": 2763,
      "men": 2764,
      "¤ãĥ³ãĤ°": 2765,
      "above": 2766,
      "straps": 2767,
      "Ġsekoshi": 2768,
      "Ġset": 2769,
      "Ġbox": 2770,
      "cer": 2771,
      "arc": 2772,
      "fin": 2773,
      "username": 2774,
      "Ġfinal": 2775,
      "Ġwinter": 2776,
      "sw": 2777,
      "ifune": 2778,
      "oot": 2779,
      "ridman": 2780,
      "Ġminami": 2781,
      "shizuku": 2782,
      "Ġchibi": 2783,
      "bana": 2784,
      "Ġmuscular": 2785,
      "Ġæ": 2786,
      "Ġserafuku": 2787,
      "sparent": 2788,
      "Ġwolf": 2789,
      "ashita": 2790,
      "Ġbent": 2791,
      "ainst": 2792,
      "jima": 2793,
      "short": 2794,
      "Ġ34": 2795,
      "scale": 2796,
      "Ġkneeling": 2797,
      "Ġribb": 2798,
      "Ġself": 2799,
      "ani": 2800,
      "Ġdrill": 2801,
      "table": 2802,
      "Ġribbed": 2803,
      "isu": 2804,
      "igital": 2805,
      "ayashi": 2806,
      "sa": 2807,
      "11": 2808,
      "yuk": 2809,
      "button": 2810,
      "cchi": 2811,
      "Ġbisexual": 2812,
      "aseball": 2813,
      "away": 2814,
      "fle": 2815,
      "character": 2816,
      "tied": 2817,
      "world": 2818,
      "Ġ37": 2819,
      "tely": 2820,
      "Ġcompletely": 2821,
      "tendo": 2822,
      "vision": 2823,
      "ute": 2824,
      "yoshi": 2825,
      "Ġhon": 2826,
      "Ġnun": 2827,
      "Ġsoles": 2828,
      "ddling": 2829,
      "Ġ35": 2830,
      "Ġtopless": 2831,
      "Ġ31": 2832,
      "tube": 2833,
      "ĠUncensored": 2834,
      "Ġ38": 2835,
      "Ġagainst": 2836,
      "Ġfat": 2837,
      "ĠTw": 2838,
      "Ġ45": 2839,
      "Ġcatgirl": 2840,
      "Ġnintendo": 2841,
      "four": 2842,
      "Ġ26": 2843,
      "Ġble": 2844,
      "yuri": 2845,
      "Ġãģ": 2846,
      "outfit": 2847,
      "water": 2848,
      "Ġejaculation": 2849,
      "ĠMale": 2850,
      "hicle": 2851,
      "Ġ24": 2852,
      "Ġlatex": 2853,
      "theme": 2854,
      "Ġgamecg": 2855,
      "Ġexplosions": 2856,
      "Ġsil": 2857,
      "Ġspan": 2858,
      "mil": 2859,
      "Ġmifune": 2860,
      "Ġbraided": 2861,
      "Ġ30": 2862,
      "crotch": 2863,
      "tori": 2864,
      "Ġrin": 2865,
      "Ġ40": 2866,
      "Ġtransparent": 2867,
      "Ġice": 2868,
      "Ġayase": 2869,
      "ĠTh": 2870,
      "Ġkarin": 2871,
      "Ġ29": 2872,
      "aff": 2873,
      "supp": 2874,
      "support": 2875,
      "Ġ27": 2876,
      "rup": 2877,
      "ged": 2878,
      "och": 2879,
      "iger": 2880,
      "Ġkantai": 2881,
      "dark": 2882,
      "tuber": 2883,
      "Ġ32": 2884,
      "Ġsplit": 2885,
      "Ġ33": 2886,
      "Ġyasu": 2887,
      "Ġ25": 2888,
      "Ġ18": 2889,
      "Ġ0": 2890,
      "Ġwak": 2891,
      "ascension": 2892,
      "bir": 2893,
      "Ġ39": 2894,
      "Ġheadphones": 2895,
      "orso": 2896,
      "Ġwindow": 2897,
      "eekly": 2898,
      "±åĪĬ": 2899,
      "Ģ±åĪĬ": 2900,
      "views": 2901,
      "Ġky": 2902,
      "war": 2903,
      "Ġ42": 2904,
      "Ġ43": 2905,
      "azine": 2906,
      "Ġ41": 2907,
      "Ġleaf": 2908,
      "Ġstraddling": 2909,
      "Ġobject": 2910,
      "Ġpa": 2911,
      "jutsu": 2912,
      "Ġforehead": 2913,
      "saki": 2914,
      "vangel": 2915,
      "Ġvest": 2916,
      "Ġvoyeurism": 2917,
      "elly": 2918,
      "Ġ22": 2919,
      "Ġore": 2920,
      "ild": 2921,
      "Ġcircle": 2922,
      "Ġskull": 2923,
      "erspec": 2924,
      "erspective": 2925,
      "patch": 2926,
      "Ġken": 2927,
      "Ġ19": 2928,
      "ocolate": 2929,
      "Ġ36": 2930,
      "sports": 2931,
      "anal": 2932,
      "Ġmas": 2933,
      "blade": 2934,
      "Ġ50": 2935,
      "zelda": 2936,
      "Ġ21": 2937,
      "pri": 2938,
      "ukufuku": 2939,
      "Ġcloud": 2940,
      "Ġemo": 2941,
      "aced": 2942,
      "Ġ44": 2943,
      "Ġgokkun": 2944,
      "vangelion": 2945,
      "Ġpaper": 2946,
      "Ġsideboob": 2947,
      "Ġtachibana": 2948,
      "iro": 2949,
      "Ġtable": 2950,
      "bat": 2951,
      "field": 2952,
      "bad": 2953,
      "Ġ28": 2954,
      "navel": 2955,
      "sato": 2956,
      "Ġ46": 2957,
      "Ġry": 2958,
      "Ġfingernails": 2959,
      "Ġgroin": 2960,
      "Ġtai": 2961,
      "Ġfishnet": 2962,
      "ded": 2963,
      "ja": 2964,
      "Ġemma": 2965,
      "Ġplant": 2966,
      "cum": 2967,
      "Ġcont": 2968,
      "hia": 2969,
      "Ġfruit": 2970,
      "ĠHairy": 2971,
      "den": 2972,
      "Ġlan": 2973,
      "Animated": 2974,
      "asket": 2975,
      "threesome": 2976,
      "Ġnew": 2977,
      "Ġswept": 2978,
      "abi": 2979,
      "ĠéĢ±åĪĬ": 2980,
      "Ġbakemonogatari": 2981,
      "Ġ23": 2982,
      "Ġkn": 2983,
      "Ġkob": 2984,
      "Ġthong": 2985,
      "Ġ48": 2986,
      "Ġhalter": 2987,
      "my": 2988,
      "Ġfellatio": 2989,
      "..": 2990,
      "machi": 2991,
      "ason": 2992,
      "tionless": 2993,
      "Ġscarf": 2994,
      "Ġgun": 2995,
      "allen": 2996,
      "ĠWeekly": 2997,
      "Ġvibrator": 2998,
      "flation": 2999,
      "Ġik": 3000,
      "Ġreach": 3001,
      "era": 3002,
      "Ġvariant": 3003,
      "dle": 3004,
      "Ġmono": 3005,
      "Ġmet": 3006,
      "Ġfut": 3007,
      "ipper": 3008,
      "ĠTwintails": 3009,
      "sai": 3010,
      "Ġankle": 3011,
      "tree": 3012,
      "writing": 3013,
      "Ġake": 3014,
      "owgirl": 3015,
      "dsm": 3016,
      "Ġho": 3017,
      "terfly": 3018,
      "Ġchest": 3019,
      "lect": 3020,
      "Ġyoshida": 3021,
      "gag": 3022,
      "usha": 3023,
      "Ġbus": 3024,
      "Ġgi": 3025,
      "izon": 3026,
      "atsum": 3027,
      "Ġeyelashes": 3028,
      "ict": 3029,
      "Ġmom": 3030,
      "Ġpom": 3031,
      "oshita": 3032,
      "Ġfrench": 3033,
      "ranblue": 3034,
      "Ġ47": 3035,
      "Ġfreckles": 3036,
      "Ġloose": 3037,
      "headdress": 3038,
      "persona": 3039,
      "Ġyaoi": 3040,
      "mov": 3041,
      "Ġsunshine": 3042,
      "Ġzet": 3043,
      "ucked": 3044,
      "recure": 3045,
      "trail": 3046,
      "madoka": 3047,
      "Ġwing": 3048,
      "Ġtakasaki": 3049,
      "Ġblaz": 3050,
      "Ġãĥ¤ãĥ³ãĤ°": 3051,
      "string": 3052,
      "ĠThreesome": 3053,
      "ait": 3054,
      "Ġsunglasses": 3055,
      "umin": 3056,
      "Ġkei": 3057,
      "pocket": 3058,
      "zawa": 3059,
      "estern": 3060,
      "Ġkyou": 3061,
      "Ġangel": 3062,
      "academy": 3063,
      "Ġ49": 3064,
      "Ġimposs": 3065,
      "Ġimpossible": 3066,
      "Ġround": 3067,
      "Ġhoshino": 3068,
      "Ġasuna": 3069,
      "Ġsuspender": 3070,
      "cent": 3071,
      "Ġ51": 3072,
      "Ġ2024": 3073,
      "venient": 3074,
      "estiality": 3075,
      "Ġti": 3076,
      "lan": 3077,
      "inted": 3078,
      "Ġ53": 3079,
      "je": 3080,
      "ĠBondage": 3081,
      "Ġsi": 3082,
      "Ġcrown": 3083,
      "Ġbaseball": 3084,
      "amo": 3085,
      "ction": 3086,
      "aragi": 3087,
      "ĠSwimsuit": 3088,
      "Ġcheckered": 3089,
      "ading": 3090,
      "buttoned": 3091,
      "Ġdes": 3092,
      "Ġpasties": 3093,
      "hu": 3094,
      "Ġchair": 3095,
      "Ġcollection": 3096,
      "mir": 3097,
      "Ġlab": 3098,
      "Ġsmart": 3099,
      "Ġgenshin": 3100,
      "Ġha": 3101,
      "Ġzettai": 3102,
      "Ġhou": 3103,
      "Ġcardigan": 3104,
      "vy": 3105,
      "Ġhoodie": 3106,
      "Ġmel": 3107,
      "clera": 3108,
      "ayaka": 3109,
      "anus": 3110,
      "Ġton": 3111,
      "oris": 3112,
      "ĠAs": 3113,
      "sousou": 3114,
      "Ġbackground": 3115,
      "Ġbleach": 3116,
      "lot": 3117,
      "ider": 3118,
      "iliation": 3119,
      "Ġnakasu": 3120,
      "Ġ52": 3121,
      "Ġmatsu": 3122,
      "amily": 3123,
      "Ġmix": 3124,
      "Ġfold": 3125,
      "Ġmeme": 3126,
      "manga": 3127,
      "ley": 3128,
      "Ġpixie": 3129,
      "Ġbridal": 3130,
      "sub": 3131,
      "Ġmot": 3132,
      "pression": 3133,
      "ena": 3134,
      "hol": 3135,
      "Ġcandy": 3136,
      "Ġboku": 3137,
      "Ġraised": 3138,
      "Ġexpos": 3139,
      "aro": 3140,
      "Ġtext": 3141,
      "oblin": 3142,
      "Ġ54": 3143,
      "erk": 3144,
      "Ġundressing": 3145,
      "lady": 3146,
      "Ġfer": 3147,
      "meg": 3148,
      "crown": 3149,
      "Ġpolice": 3150,
      "fours": 3151,
      "ola": 3152,
      "Ġ55": 3153,
      "asual": 3154,
      "Ġsandals": 3155,
      "Ġlayered": 3156,
      "Ġartistcg": 3157,
      "card": 3158,
      "pin": 3159,
      "land": 3160,
      "rool": 3161,
      "stri": 3162,
      "Ġsmartphone": 3163,
      "ĠX": 3164,
      "Ġso": 3165,
      "nel": 3166,
      "vaginal": 3167,
      "ketsu": 3168,
      "Ġbloomers": 3169,
      "Ġsekai": 3170,
      "pris": 3171,
      "ilty": 3172,
      "Ġzero": 3173,
      "sand": 3174,
      "obl": 3175,
      "ragi": 3176,
      "Ġoral": 3177,
      "Ġbul": 3178,
      "ĠPonytail": 3179,
      "Ġbandaged": 3180,
      "towel": 3181,
      "chanical": 3182,
      "die": 3183,
      "get": 3184,
      "Ġconvenient": 3185,
      "kit": 3186,
      "atched": 3187,
      "Ġsne": 3188,
      "ayo": 3189,
      "ll": 3190,
      "sid": 3191,
      "obu": 3192,
      "Ġrem": 3193,
      "gr": 3194,
      "iny": 3195,
      "Ġegg": 3196,
      "ago": 3197,
      "Ġcumdrip": 3198,
      "ousin": 3199,
      "ismatched": 3200,
      "Ġbackless": 3201,
      "Ġichin": 3202,
      "kar": 3203,
      "whi": 3204,
      "Ġmismatched": 3205,
      "ida": 3206,
      "Ġakebi": 3207,
      "bro": 3208,
      "Ġunderboob": 3209,
      "Ġlipstick": 3210,
      "Ġown": 3211,
      "ryouiki": 3212,
      "Ġq": 3213,
      "Ġcan": 3214,
      "Ġdai": 3215,
      "Ġshizuku": 3216,
      "ditional": 3217,
      "Ġnishik": 3218,
      "Ġsummer": 3219,
      "phy": 3220,
      "sized": 3221,
      "superstar": 3222,
      "Ġap": 3223,
      "emono": 3224,
      "'_": 3225,
      "Ġtra": 3226,
      "aruto": 3227,
      "chainsaw": 3228,
      "Ġyo": 3229,
      "ayoi": 3230,
      "Ġtree": 3231,
      "ening": 3232,
      "Ġdoll": 3233,
      "Ġdraw": 3234,
      "ĠNetorare": 3235,
      "Ġfores": 3236,
      "sclera": 3237,
      "Ġfall": 3238,
      "uda": 3239,
      "below": 3240,
      "ĠPen": 3241,
      "stimulation": 3242,
      "curtain": 3243,
      "Ġ56": 3244,
      "Ġ57": 3245,
      "mak": 3246,
      "int": 3247,
      "Ġrose": 3248,
      "ãĥĹãĥ": 3249,
      "Ġ201": 3250,
      "size": 3251,
      "Ġreaching": 3252,
      "Ġ58": 3253,
      "gundam": 3254,
      "rome": 3255,
      "Ġsparkle": 3256,
      "antom": 3257,
      "Ġincom": 3258,
      "eyed": 3259,
      "tag": 3260,
      "Ġkurosawa": 3261,
      "inging": 3262,
      "Ġcgi": 3263,
      "Ġ17": 3264,
      "erserk": 3265,
      "bracelet": 3266,
      "Ġwari": 3267,
      "lap": 3268,
      "ative": 3269,
      "Ġkasumi": 3270,
      "ze": 3271,
      "queen": 3272,
      "paizuri": 3273,
      "Ġfrown": 3274,
      "anabe": 3275,
      "Ġmob": 3276,
      "Ġtesticles": 3277,
      "self": 3278,
      "Ġkom": 3279,
      "Ġham": 3280,
      "achine": 3281,
      "Ġ60": 3282,
      "Ġplaying": 3283,
      "Ġsneak": 3284,
      "ashima": 3285,
      "umetsu": 3286,
      "venus": 3287,
      "01": 3288,
      "Ġemotionless": 3289,
      "Ġrest": 3290,
      "Ġ16": 3291,
      "ĠDe": 3292,
      "Ġber": 3293,
      "cloak": 3294,
      "hito": 3295,
      "Ġtoe": 3296,
      "ashing": 3297,
      "Ġbird": 3298,
      "chinese": 3299,
      "ĠGirl": 3300,
      "connect": 3301,
      "anojo": 3302,
      "Ġhalterneck": 3303,
      "ageset": 3304,
      "Ġblank": 3305,
      "uber": 3306,
      "Ġtoaru": 3307,
      "ced": 3308,
      "host": 3309,
      "Ġtsur": 3310,
      "uckle": 3311,
      "erleader": 3312,
      "non": 3313,
      "Ġboun": 3314,
      "Ġelect": 3315,
      "Ġeyepatch": 3316,
      "Ġstraw": 3317,
      "çĶ": 3318,
      "Ġblazer": 3319,
      "fac": 3320,
      "key": 3321,
      "channel": 3322,
      "Ġperspective": 3323,
      "logo": 3324,
      "Ġke": 3325,
      "osuba": 3326,
      "chrome": 3327,
      "heel": 3328,
      "aughter": 3329,
      "Ġbouncing": 3330,
      "Ġsousou": 3331,
      "irtual": 3332,
      "rot": 3333,
      "Ġprofile": 3334,
      "Ġcap": 3335,
      "Ġminig": 3336,
      "itar": 3337,
      "sekai": 3338,
      "ĠHair": 3339,
      "konosuba": 3340,
      "Ġkai": 3341,
      "Ġbutterfly": 3342,
      "Ġyasuomi": 3343,
      "inner": 3344,
      "raft": 3345,
      "ete": 3346,
      "Ġorgasms": 3347,
      "season": 3348,
      "him": 3349,
      "een": 3350,
      "Ġop": 3351,
      "Ġkonoe": 3352,
      "Ġshir": 3353,
      "mel": 3354,
      "zone": 3355,
      "Ġbu": 3356,
      "Ġ13": 3357,
      "screen": 3358,
      "laced": 3359,
      "tile": 3360,
      "Ġbit": 3361,
      "web": 3362,
      "lave": 3363,
      "ķãĥ©": 3364,
      "stone": 3365,
      "sao": 3366,
      "igaya": 3367,
      "ĠCol": 3368,
      "Ġfurry": 3369,
      "yout": 3370,
      "Ġmur": 3371,
      "ĠFfm": 3372,
      "Ġdildo": 3373,
      "bathing": 3374,
      "hal": 3375,
      "Ġgirls": 3376,
      "Ġyuu": 3377,
      "ervix": 3378,
      "Ġpat": 3379,
      "Ġbocchi": 3380,
      "zuka": 3381,
      "Ġgift": 3382,
      "aping": 3383,
      "rac": 3384,
      "enobl": 3385,
      "enoblade": 3386,
      "tongue": 3387,
      "angan": 3388,
      "Ġichinose": 3389,
      "Ġfolded": 3390,
      "toe": 3391,
      "black": 3392,
      "Ġsharp": 3393,
      "cloth": 3394,
      "Ġtwitter": 3395,
      "entation": 3396,
      "indentation": 3397,
      "ĠEn": 3398,
      "Ġskindentation": 3399,
      "Ġneon": 3400,
      "sweatdrop": 3401,
      "Ġplayboy": 3402,
      "ser": 3403,
      "ication": 3404,
      "ekawa": 3405,
      "athers": 3406,
      "Ġwariza": 3407,
      "Ġmachi": 3408,
      "ham": 3409,
      "helmet": 3410,
      "mik": 3411,
      "oria": 3412,
      "hadow": 3413,
      "open": 3414,
      "anda": 3415,
      "Ġfuj": 3416,
      "ca": 3417,
      "fore": 3418,
      "layboy": 3419,
      "camisole": 3420,
      "Ġpret": 3421,
      "Ġexpression": 3422,
      "Ġcurtain": 3423,
      "Ġ59": 3424,
      "Ġyor": 3425,
      "Ġplug": 3426,
      "Ġsneakers": 3427,
      "colors": 3428,
      "sakura": 3429,
      "anging": 3430,
      "ãĥĥ": 3431,
      "Ġneckerchief": 3432,
      "Ġloli": 3433,
      "odon": 3434,
      "Ġtiara": 3435,
      "don": 3436,
      "Ġbear": 3437,
      "Ġmass": 3438,
      "koma": 3439,
      "Ġseri": 3440,
      "Ġleather": 3441,
      "Ġhipa": 3442,
      "mism": 3443,
      "Ġmomo": 3444,
      "Ġpocket": 3445,
      "bodi": 3446,
      "Ġzipper": 3447,
      "mismatch": 3448,
      "nights": 3449,
      "Ġimageset": 3450,
      "Ġmonochrome": 3451,
      "iet": 3452,
      "flow": 3453,
      "Ġ12": 3454,
      "Ġextra": 3455,
      "ury": 3456,
      "group": 3457,
      "Ġhib": 3458,
      "Ġ>": 3459,
      "pat": 3460,
      "Ġdom": 3461,
      "Ġfalling": 3462,
      "youtuber": 3463,
      "hy": 3464,
      "oden": 3465,
      "Ġbestiality": 3466,
      "Ġghost": 3467,
      "orset": 3468,
      "Ġindex": 3469,
      "Ġmixed": 3470,
      "kei": 3471,
      "enai": 3472,
      "Ġage": 3473,
      "atte": 3474,
      "angu": 3475,
      "Ġrub": 3476,
      "Ġaoi": 3477,
      "Ġmiyashita": 3478,
      "friends": 3479,
      "Ġdisem": 3480,
      "umber": 3481,
      "Ġstreak": 3482,
      "toes": 3483,
      "Ġsetsuna": 3484,
      "Ġdot": 3485,
      "val": 3486,
      "ney": 3487,
      "ĠMilf": 3488,
      "Ġbandages": 3489,
      "Ġcarrying": 3490,
      "tomo": 3491,
      "cean": 3492,
      "shadow": 3493,
      "Ġ14": 3494,
      "ãĤ¸": 3495,
      "Ġalice": 3496,
      "Ġyamada": 3497,
      "ormal": 3498,
      "Ġcommission": 3499,
      "gings": 3500,
      "ushi": 3501,
      "Ġstreaked": 3502,
      "Ġmay": 3503,
      "Ġakira": 3504,
      "raised": 3505,
      "Ġtsub": 3506,
      "Ġwatanabe": 3507,
      "pet": 3508,
      "Ġscrunchie": 3509,
      "esitting": 3510,
      "Ġãĥķãĥ©": 3511,
      "yakodon": 3512,
      "Ġ62": 3513,
      "Ġhugging": 3514,
      "Ġcervix": 3515,
      "Ġayumu": 3516,
      "Ġsash": 3517,
      "ipped": 3518,
      "Ġ15": 3519,
      "atsumi": 3520,
      "bodied": 3521,
      "ejaculation": 3522,
      "Ġpig": 3523,
      "tsuk": 3524,
      "suik": 3525,
      "Ġdisembodied": 3526,
      "oo": 3527,
      "rescent": 3528,
      "arknights": 3529,
      "full": 3530,
      "erry": 3531,
      "voice": 3532,
      "Ġswim": 3533,
      "anime": 3534,
      "ĠIncest": 3535,
      "Ġsor": 3536,
      "Ġbdsm": 3537,
      "Ġcasual": 3538,
      "ams": 3539,
      "miku": 3540,
      "Ġgreyscale": 3541,
      "anami": 3542,
      "Ġmoon": 3543,
      "Ġpee": 3544,
      "legends": 3545,
      "ĠPlayboy": 3546,
      "bling": 3547,
      "Ġslave": 3548,
      "Ġsound": 3549,
      "stickers": 3550,
      "Ġgotou": 3551,
      "Ġ!": 3552,
      "Ġpal": 3553,
      "Ġref": 3554,
      "Ġandro": 3555,
      "priv": 3556,
      "Ġpi": 3557,
      "phantom": 3558,
      "Ġzen": 3559,
      "ez": 3560,
      "Ġhorn": 3561,
      "Ġdaughter": 3562,
      "Ġthird": 3563,
      "Ġeyewear": 3564,
      "Ġfuk": 3565,
      "bob": 3566,
      "oue": 3567,
      "omata": 3568,
      "Ġexposed": 3569,
      "rait": 3570,
      "Ġnahia": 3571,
      "ene": 3572,
      "Ġhim": 3573,
      "diebuster": 3574,
      "nag": 3575,
      "cho": 3576,
      "aber": 3577,
      "Ġhumiliation": 3578,
      "zomi": 3579,
      "tur": 3580,
      "Ġtrem": 3581,
      "Ġtrembling": 3582,
      "Ġphoto": 3583,
      "suikoden": 3584,
      "ema": 3585,
      "Ġlips": 3586,
      "akami": 3587,
      "Ġasaka": 3588,
      "Ġtoki": 3589,
      "state": 3590,
      "shiki": 3591,
      "alls": 3592,
      "works": 3593,
      "Ġshared": 3594,
      "Ġpretty": 3595,
      "hin": 3596,
      "Ġ11": 3597,
      "Ġhachi": 3598,
      "andere": 3599,
      "Ġsurpris": 3600,
      "Ġmagical": 3601,
      "Ġsatou": 3602,
      "Ġlightning": 3603,
      "Ġ?": 3604,
      "Ġcrescent": 3605,
      "alent": 3606,
      "ĠSkin": 3607,
      "isted": 3608,
      "Ġtaka": 3609,
      "sum": 3610,
      "elia": 3611,
      "illy": 3612,
      "Ġbuttons": 3613,
      "Ahegao": 3614,
      "Ġcousin": 3615,
      "Ġanten": 3616,
      "aint": 3617,
      "tilt": 3618,
      "ĠAsian": 3619,
      "cowgirl": 3620,
      "Ġbottle": 3621,
      "Ġbreath": 3622,
      "plate": 3623,
      "brush": 3624,
      "Ġpower": 3625,
      "ways": 3626,
      "its": 3627,
      "Ġ61": 3628,
      "Ġinvisible": 3629,
      "ĠDefloration": 3630,
      "tor": 3631,
      "igar": 3632,
      "utch": 3633,
      "rooling": 3634,
      "Ġdrooling": 3635,
      "Ġmechanical": 3636,
      "Ġlet": 3637,
      "Ġveiny": 3638,
      "tug": 3639,
      "company": 3640,
      "Ġdated": 3641,
      "Ġpool": 3642,
      "ãģ¿": 3643,
      "Ġwed": 3644,
      "punk": 3645,
      "gener": 3646,
      "Ġbor": 3647,
      "omb": 3648,
      "Ġwall": 3649,
      "ĠLingerie": 3650,
      "akane": 3651,
      "legend": 3652,
      "ideo": 3653,
      "sucking": 3654,
      "Ġrain": 3655,
      "Ġborder": 3656,
      "icle": 3657,
      "Ġmetal": 3658,
      "Ġnerv": 3659,
      "ĠDou": 3660,
      "23": 3661,
      "xiation": 3662,
      "Ġcamel": 3663,
      "phyxiation": 3664,
      "tsub": 3665,
      "Ġpetals": 3666,
      "elv": 3667,
      "Ġtearing": 3668,
      "nik": 3669,
      "ross": 3670,
      "xe": 3671,
      "Ġfurrowed": 3672,
      "umo": 3673,
      "dis": 3674,
      "updo": 3675,
      "Ġchocolate": 3676,
      "Ġ63": 3677,
      "ards": 3678,
      "Ġbiting": 3679,
      "unter": 3680,
      "Ġlin": 3681,
      "Ġmessy": 3682,
      "Ġheavy": 3683,
      "front": 3684,
      "Ġ65": 3685,
      "Ġexpressionless": 3686,
      "ior": 3687,
      "agon": 3688,
      "Ġcard": 3689,
      "Ġoppai": 3690,
      "inder": 3691,
      "aloid": 3692,
      "ocaloid": 3693,
      "Ġhik": 3694,
      "Ġtoenails": 3695,
      "honkai": 3696,
      "Ġge": 3697,
      "shu": 3698,
      "alentine": 3699,
      "orean": 3700,
      "yan": 3701,
      "Ġdutch": 3702,
      "imura": 3703,
      "ayer": 3704,
      "berpunk": 3705,
      "ĠShota": 3706,
      "ification": 3707,
      "Ġjack": 3708,
      "schoolgirl": 3709,
      "cream": 3710,
      "Ġkous": 3711,
      "hak": 3712,
      "new": 3713,
      "pajamas": 3714,
      "Ġformal": 3715,
      "blings": 3716,
      "Ġhanging": 3717,
      "ĠAnimated": 3718,
      "atching": 3719,
      "Ġnervous": 3720,
      "gem": 3721,
      "Ġchina": 3722,
      "granblue": 3723,
      "spl": 3724,
      "ala": 3725,
      "amaru": 3726,
      "Ġmaken": 3727,
      "tran": 3728,
      "ĠEx": 3729,
      "uto": 3730,
      "loween": 3731,
      "Ġund": 3732,
      "isan": 3733,
      "birth": 3734,
      "night": 3735,
      "queez": 3736,
      "Ġres": 3737,
      "shuu": 3738,
      "Ġspanking": 3739,
      "sunshine": 3740,
      "Ġmassage": 3741,
      "ailable": 3742,
      "Ġhip": 3743,
      "available": 3744,
      "controller": 3745,
      "hor": 3746,
      "kketsu": 3747,
      "Ġcameltoe": 3748,
      "xx": 3749,
      "Ġkas": 3750,
      "Ġkinoshita": 3751,
      "hashi": 3752,
      "outo": 3753,
      "Ġtiger": 3754,
      "Ġmouse": 3755,
      "Ġpin": 3756,
      "Ġspider": 3757,
      "izu": 3758,
      "amiya": 3759,
      "Ġcheerleader": 3760,
      "Ġgiant": 3761,
      "ãĥĥãĤ": 3762,
      "rs": 3763,
      "alin": 3764,
      "Ġfern": 3765,
      "ĠDouble": 3766,
      "chrom": 3767,
      "Ġdead": 3768,
      "nakadashi": 3769,
      "iga": 3770,
      "Ġsubarashi": 3771,
      "koi": 3772,
      "minori": 3773,
      "Ġkiss": 3774,
      "ĠKemonomimi": 3775,
      "uy": 3776,
      "Ġclaw": 3777,
      "Ġoversized": 3778,
      "igarette": 3779,
      "Ġkus": 3780,
      "ĠVery": 3781,
      "maidon": 3782,
      "Ġmiko": 3783,
      "06": 3784,
      "zhu": 3785,
      "Ġtakam": 3786,
      "afers": 3787,
      "Ġty": 3788,
      "wrap": 3789,
      "Ġlap": 3790,
      "gridman": 3791,
      "etti": 3792,
      "Ġvis": 3793,
      "Ġ66": 3794,
      "sticks": 3795,
      "Ġpole": 3796,
      "Ġhy": 3797,
      "ringo": 3798,
      "Ġverde": 3799,
      "Ġfuji": 3800,
      "Ġsilver": 3801,
      "anne": 3802,
      "torso": 3803,
      "year": 3804,
      "Ġaged": 3805,
      "magica": 3806,
      "Ġsurprised": 3807,
      "bul": 3808,
      "uz": 3809,
      "Ġsec": 3810,
      "gauntlets": 3811,
      "iii": 3812,
      "hei": 3813,
      "ascot": 3814,
      "chromia": 3815,
      "Ġcr": 3816,
      "shima": 3817,
      "Ġoyakodon": 3818,
      "straw": 3819,
      "Ġprostate": 3820,
      "gystyle": 3821,
      "Ġdoggystyle": 3822,
      "ede": 3823,
      "fish": 3824,
      "idolmaster": 3825,
      "yui": 3826,
      "Ġsyukufuku": 3827,
      "Ġsubarashii": 3828,
      "08": 3829,
      "LA": 3830,
      "anna": 3831,
      "Ġswinging": 3832,
      "paku": 3833,
      "inseki": 3834,
      "hil": 3835,
      "reward": 3836,
      "ayome": 3837,
      "aving": 3838,
      "Ġsiblings": 3839,
      "Ġarched": 3840,
      "swap": 3841,
      "tity": 3842,
      "Ġused": 3843,
      "_^": 3844,
      "Ġkita": 3845,
      "Ġanimals": 3846,
      "Ġ^_^": 3847,
      "·ãĥ": 3848,
      "Ġwaist": 3849,
      "ĠMulti": 3850,
      "Ġtoned": 3851,
      "Ġpear": 3852,
      "Ġnana": 3853,
      "Ġla": 3854,
      "ĠFoot": 3855,
      "fingernails": 3856,
      "xy": 3857,
      "ľãĥ¼": 3858,
      "Ġdar": 3859,
      "Ġyoko": 3860,
      "Ġsideways": 3861,
      "Ġelectric": 3862,
      "ľãĥ¼ãĤ¤": 3863,
      "rills": 3864,
      "swim": 3865,
      "warm": 3866,
      "ram": 3867,
      "agami": 3868,
      "Ġpantyshot": 3869,
      "Ġtake": 3870,
      "rel": 3871,
      "Ġocean": 3872,
      "SH": 3873,
      "mp": 3874,
      "iter": 3875,
      "Ġloafers": 3876,
      "Ġdevil": 3877,
      "takes": 3878,
      "Ġyui": 3879,
      "Ġberet": 3880,
      "sicle": 3881,
      "veal": 3882,
      "hong": 3883,
      "¬ãĤ¤ãĥ": 3884,
      "Ġhakama": 3885,
      "ãĥĹãĥ¬ãĤ¤ãĥ": 3886,
      "brown": 3887,
      "dant": 3888,
      "oba": 3889,
      "Ġins": 3890,
      "puter": 3891,
      "paint": 3892,
      "igi": 3893,
      "Ġbelly": 3894,
      "Ġvirtual": 3895,
      "rat": 3896,
      "LASH": 3897,
      "jec": 3898,
      "Ġchainsaw": 3899,
      "evangelion": 3900,
      "Ġharu": 3901,
      "tsuka": 3902,
      "Ġnakazawa": 3903,
      "dream": 3904,
      "Ġkak": 3905,
      "Ġwestern": 3906,
      "noji": 3907,
      "Ġrei": 3908,
      "Ġbusiness": 3909,
      "anguage": 3910,
      "ãĥĹãĥ¬ãĤ¤ãĥľãĥ¼ãĤ¤": 3911,
      "Ġsar": 3912,
      "emo": 3913,
      "iza": 3914,
      "Ġteam": 3915,
      "Ġhime": 3916,
      "Ġfacesitting": 3917,
      "Ġclitoris": 3918,
      "ĠPantyhose": 3919,
      "Ġmobile": 3920,
      "von": 3921,
      "Ġcherry": 3922,
      "Ġ64": 3923,
      "onda": 3924,
      "Ġishi": 3925,
      "Ġgoblin": 3926,
      "Ġheadband": 3927,
      "Ġveins": 3928,
      "Ġpull": 3929,
      "Ġwar": 3930,
      "ilia": 3931,
      "hort": 3932,
      "Ġkatsu": 3933,
      "atteiru": 3934,
      "monster": 3935,
      "Ġtennoji": 3936,
      "kot": 3937,
      "Ġnudity": 3938,
      "Ġsmeg": 3939,
      "Ġsmegma": 3940,
      "Ġgang": 3941,
      "intakes": 3942,
      "zora": 3943,
      "osuke": 3944,
      "Ġju": 3945,
      "ĠMasturbation": 3946,
      "coris": 3947,
      "buruma": 3948,
      "crack": 3949,
      "Ġpot": 3950,
      "14": 3951,
      "bear": 3952,
      "Ġhas": 3953,
      "rog": 3954,
      "ashiro": 3955,
      "izumi": 3956,
      "Ġcamisole": 3957,
      "ĠFootjob": 3958,
      "twitter": 3959,
      "maki": 3960,
      "aii": 3961,
      "white": 3962,
      "ades": 3963,
      "Ġvideo": 3964,
      "Ġreveal": 3965,
      "punch": 3966,
      "berry": 3967,
      "Ġshikishima": 3968,
      "glove": 3969,
      "Ġbroken": 3970,
      "oman": 3971,
      "pei": 3972,
      "oshin": 3973,
      "Ġkousaka": 3974,
      "Ġcouch": 3975,
      "Ġfantasy": 3976,
      "Ġsam": 3977,
      "fran": 3978,
      "elvic": 3979,
      "aded": 3980,
      "pad": 3981,
      "vehicle": 3982,
      "Ġyandere": 3983,
      "ĠCh": 3984,
      "ãģª": 3985,
      "Ġrevealing": 3986,
      "bm": 3987,
      "Ġbasket": 3988,
      "Ġinstrument": 3989,
      "Ġhig": 3990,
      "ushing": 3991,
      "Ġdiagon": 3992,
      "Ġdiagonal": 3993,
      "uro": 3994,
      "eno": 3995,
      "Ġshower": 3996,
      "azaki": 3997,
      "locked": 3998,
      "Ġhotpants": 3999,
      "kob": 4000,
      "Ġter": 4001,
      "Ġkun": 4002,
      "Ġtaku": 4003,
      "Ġnij": 4004,
      "udao": 4005,
      "ĠMmf": 4006,
      "Ġrot": 4007,
      "Ġfangs": 4008,
      "project": 4009,
      "jectile": 4010,
      "Ġpelvic": 4011,
      "thra": 4012,
      "Ġjul": 4013,
      "Ġtraditional": 4014,
      "Ġbeer": 4015,
      "ĠPenetration": 4016,
      "02": 4017,
      "Ġgaping": 4018,
      "Ġrol": 4019,
      "Ġrestrain": 4020,
      "ĠDilf": 4021,
      "Ġsono": 4022,
      "Ġfirst": 4023,
      "Ġrail": 4024,
      "Ġmat": 4025,
      "ĠBl": 4026,
      "Ġray": 4027,
      "ĠFLASH": 4028,
      "Ġhalloween": 4029,
      "breathing": 4030,
      "arai": 4031,
      "Ġ67": 4032,
      "Ġgolden": 4033,
      "Ġdoor": 4034,
      "ĠéĢ±åĪĬãĥĹãĥ¬ãĤ¤ãĥľãĥ¼ãĤ¤": 4035,
      "tf": 4036,
      "tite": 4037,
      "Ġpearl": 4038,
      "Ġwatermark": 4039,
      "bari": 4040,
      "Ġhanekawa": 4041,
      "Ġizumi": 4042,
      "privates": 4043,
      "Ġhol": 4044,
      "Ġlowleg": 4045,
      "Ġcure": 4046,
      "ali": 4047,
      "Ġkirigaya": 4048,
      "Ġheterochromia": 4049,
      "sweatdrops": 4050,
      "tucked": 4051,
      "Ġinseki": 4052,
      "warmers": 4053,
      "_&": 4054,
      "nis": 4055,
      "ryuu": 4056,
      "Ġkoi": 4057,
      "çĶ°": 4058,
      "yam": 4059,
      "ency": 4060,
      "Ġacademia": 4061,
      "Ġrac": 4062,
      "Ġshark": 4063,
      "Ġkaguya": 4064,
      "Ġcurtains": 4065,
      "hortening": 4066,
      "13": 4067,
      "vein": 4068,
      "Ġtomoe": 4069,
      "Ġforeshortening": 4070,
      "Ġpulling": 4071,
      "grand": 4072,
      "frontline": 4073,
      "case": 4074,
      "Ġgod": 4075,
      "Ġoutside": 4076,
      "Ġchika": 4077,
      "Ġsuspenders": 4078,
      "Ġrestrained": 4079,
      "strip": 4080,
      "virginity": 4081,
      "Ġran": 4082,
      "Ġartbook": 4083,
      "danbooru": 4084,
      "rolled": 4085,
      "inset": 4086,
      "blowjob": 4087,
      "kur": 4088,
      "Ġmia": 4089,
      "Ġmoun": 4090,
      "Ġlil": 4091,
      "Ġsisters": 4092,
      "Ġclose": 4093,
      "Ġij": 4094,
      "Ġtr": 4095,
      "Ġtoo": 4096,
      "Ġazur": 4097,
      "elier": 4098,
      "vers": 4099,
      "Ġbright": 4100,
      "itation": 4101,
      "Ġyum": 4102,
      "peti": 4103,
      "Ġchar": 4104,
      "Ġgenderswap": 4105,
      "enter": 4106,
      "chu": 4107,
      "ult": 4108,
      "Ġmusical": 4109,
      "inderella": 4110,
      "Ġmission": 4111,
      "tice": 4112,
      "ident": 4113,
      "Ġscan": 4114,
      "tei": 4115,
      "Ġvtuber": 4116,
      "Ġcosplaying": 4117,
      "Ġyuuka": 4118,
      "Ġinterlocked": 4119,
      "ĠKissing": 4120,
      "ronpa": 4121,
      "anganronpa": 4122,
      "kill": 4123,
      "Ġgudao": 4124,
      "itoku": 4125,
      "gatteiru": 4126,
      "Ġtied": 4127,
      "jitsu": 4128,
      "Ġasphyxiation": 4129,
      "gar": 4130,
      "life": 4131,
      "bs": 4132,
      "ets": 4133,
      "uplic": 4134,
      "fluff": 4135,
      "class": 4136,
      "uplicate": 4137,
      "wara": 4138,
      "inko": 4139,
      "entacle": 4140,
      "Ġmissionary": 4141,
      "pop": 4142,
      "Ġarmband": 4143,
      "Ġareola": 4144,
      "Ġmyri": 4145,
      "bri": 4146,
      "sash": 4147,
      "squeez": 4148,
      "Ġhorizon": 4149,
      "ban": 4150,
      "Ġä": 4151,
      "Ġshibuya": 4152,
      "Ġletter": 4153,
      "fang": 4154,
      "kasumi": 4155,
      "Ġpaid": 4156,
      "pire": 4157,
      "Ġslime": 4158,
      "Ġberserk": 4159,
      "Ġdok": 4160,
      "usei": 4161,
      "Ġshimaidon": 4162,
      "Ġ68": 4163,
      "Ġsmalldom": 4164,
      "docking": 4165,
      "sou": 4166,
      "Ġport": 4167,
      "unworn": 4168,
      "Ġselfie": 4169,
      "ef": 4170,
      "Ġsasaki": 4171,
      "akure": 4172,
      "uras": 4173,
      "Ġcheek": 4174,
      "Ġbackpack": 4175,
      "Ġshemale": 4176,
      "kok": 4177,
      "wat": 4178,
      "zuru": 4179,
      "Ġumbrella": 4180,
      "osis": 4181,
      "ãĤ¢": 4182,
      "ãģĵ": 4183,
      "spread": 4184,
      "Ġabs": 4185,
      "Ġushi": 4186,
      "æľĪåı·": 4187,
      "Ġryu": 4188,
      "movie": 4189,
      "Ġtales": 4190,
      "ican": 4191,
      "Ġren": 4192,
      "ilet": 4193,
      "Ġmyriad": 4194,
      "stra": 4195,
      "Ġeating": 4196,
      "hum": 4197,
      "nano": 4198,
      "rei": 4199,
      "bles": 4200,
      "link": 4201,
      "Ġparody": 4202,
      "Ġkitagawa": 4203,
      "sak": 4204,
      "Ġdesk": 4205,
      "Ġinsertion": 4206,
      "Ġcomputer": 4207,
      "cot": 4208,
      "sign": 4209,
      "Ġtrain": 4210,
      "Ġdrink": 4211,
      "Ġpaint": 4212,
      "hana": 4213,
      "not": 4214,
      "Ġpout": 4215,
      "Ġfan": 4216,
      "Ġnor": 4217,
      "Ġunbuttoned": 4218,
      "weak": 4219,
      "Ġ69": 4220,
      "penises": 4221,
      "Ġshibari": 4222,
      "Ġfuta": 4223,
      "Ġjo": 4224,
      "ĠTo": 4225,
      "Ġkobayashi": 4226,
      "Ġsei": 4227,
      "Ġcapelet": 4228,
      "Ġantenna": 4229,
      "Ġhelmet": 4230,
      "Ġdual": 4231,
      "Ġoyama": 4232,
      "Ġpajamas": 4233,
      "Ġmaki": 4234,
      "Ġspy": 4235,
      "interior": 4236,
      "ies": 4237,
      "ousuke": 4238,
      "sat": 4239,
      "Ġhen": 4240,
      "ague": 4241,
      "Ġmotor": 4242,
      "dq": 4243,
      "pth": 4244,
      "Ġmaru": 4245,
      "station": 4246,
      "ffee": 4247,
      "22": 4248,
      "Ġdanganronpa": 4249,
      "osaka": 4250,
      "Ġlycoris": 4251,
      "ikatsu": 4252,
      "heroes": 4253,
      "Ġwriting": 4254,
      "Ġinoue": 4255,
      "Ġsemi": 4256,
      "Ġbubble": 4257,
      "Ġshr": 4258,
      "Ġtar": 4259,
      "Ġnis": 4260,
      "estive": 4261,
      "Ġmug": 4262,
      "Ġmales": 4263,
      "Ġkanata": 4264,
      "atsumoto": 4265,
      "ints": 4266,
      "hiko": 4267,
      "Ġburuma": 4268,
      "Ġryou": 4269,
      "ĠBikini": 4270,
      "Ġscat": 4271,
      "cury": 4272,
      "18": 4273,
      "merged": 4274,
      "Ġkneepits": 4275,
      "Ġtoy": 4276,
      "bw": 4277,
      "Ġsource": 4278,
      "Ġpon": 4279,
      "Ġmc": 4280,
      "Ġhats": 4281,
      "ergy": 4282,
      "amori": 4283,
      "Ġzhong": 4284,
      "overflow": 4285,
      "Ġmilk": 4286,
      "Ġaction": 4287,
      "Ġnaruto": 4288,
      "areolae": 4289,
      "pads": 4290,
      "onder": 4291,
      "desk": 4292,
      "cong": 4293,
      "covered": 4294,
      "Ġsparks": 4295,
      "nai": 4296,
      "ining": 4297,
      "Ġmega": 4298,
      "irou": 4299,
      "eau": 4300,
      "zz": 4301,
      "Ġsaki": 4302,
      "Ġcorrup": 4303,
      "maru": 4304,
      "Ġvam": 4305,
      "Ġsora": 4306,
      "ĠPregnant": 4307,
      "Ġwristband": 4308,
      "Ġ+": 4309,
      "mpregnation": 4310,
      "Ġlower": 4311,
      "Ġpale": 4312,
      "kochou": 4313,
      "Ġnik": 4314,
      "Ġluc": 4315,
      "Ġoo": 4316,
      "Ġsmoking": 4317,
      "collection": 4318,
      "tinted": 4319,
      "Ġcake": 4320,
      "oform": 4321,
      "Ġseiza": 4322,
      "Ġguilty": 4323,
      "loroform": 4324,
      "gth": 4325,
      "Ġcenter": 4326,
      "rik": 4327,
      "ben": 4328,
      "Ġdepth": 4329,
      "Ġhana": 4330,
      "assel": 4331,
      "Ġnails": 4332,
      "Ġsheath": 4333,
      "Ġbirth": 4334,
      "ĠMaid": 4335,
      "Ġchikan": 4336,
      "Ġbender": 4337,
      "ĠCollar": 4338,
      "aur": 4339,
      "across": 4340,
      "usu": 4341,
      "Ġyak": 4342,
      "Ġarmlet": 4343,
      "Ġevil": 4344,
      "Ġmature": 4345,
      "Ġru": 4346,
      "congress": 4347,
      "Ġpoke": 4348,
      "oper": 4349,
      "generation": 4350,
      "squeezed": 4351,
      "gle": 4352,
      "momo": 4353,
      "yomi": 4354,
      "Ġç": 4355,
      "iving": 4356,
      "Ġgrass": 4357,
      "rimless": 4358,
      "Ġhu": 4359,
      "igger": 4360,
      "rappos": 4361,
      "rapposto": 4362,
      "mes": 4363,
      "Ġdon": 4364,
      "Ġcontrapposto": 4365,
      "dr": 4366,
      "instrument": 4367,
      "challen": 4368,
      "Ġshioriko": 4369,
      "matsu": 4370,
      "earring": 4371,
      "illa": 4372,
      "ikawa": 4373,
      "aylor": 4374,
      "creat": 4375,
      "Ġfamily": 4376,
      "Ġarrow": 4377,
      "outarou": 4378,
      "business": 4379,
      "pasties": 4380,
      "anashi": 4381,
      "coil": 4382,
      "Ġram": 4383,
      "testicles": 4384,
      "Ġfighter": 4385,
      "zenless": 4386,
      "kaw": 4387,
      "may": 4388,
      "Ġtaut": 4389,
      "Ġnaugh": 4390,
      "ryu": 4391,
      "Ġmicrophone": 4392,
      "Ġnaughty": 4393,
      "bara": 4394,
      "ãĥ£": 4395,
      "ãĤĬ": 4396,
      "door": 4397,
      "cont": 4398,
      "kagura": 4399,
      "ddle": 4400,
      "commission": 4401,
      "ĠImpregnation": 4402,
      "Ġder": 4403,
      "Ġrina": 4404,
      "badism": 4405,
      "Ġobi": 4406,
      "udio": 4407,
      "Ġteitoku": 4408,
      "Ġsquirting": 4409,
      "Ġom": 4410,
      "Ġsag": 4411,
      "Ġmd": 4412,
      "Ġji": 4413,
      "pole": 4414,
      "geki": 4415,
      "ugh": 4416,
      "Ġsuzuki": 4417,
      "stocking": 4418,
      "effects": 4419,
      "mal": 4420,
      "ster": 4421,
      "ombie": 4422,
      "held": 4423,
      "Ġtentacle": 4424,
      "majutsu": 4425,
      "mei": 4426,
      "Ġcompeti": 4427,
      "Ġupskirt": 4428,
      "Ġcompetition": 4429,
      "vent": 4430,
      "wak": 4431,
      "erican": 4432,
      "opsticks": 4433,
      "Ġmirror": 4434,
      "Ġnatsu": 4435,
      "Ġ71": 4436,
      "length": 4437,
      "straddle": 4438,
      "yori": 4439,
      "use": 4440,
      "coon": 4441,
      "submerged": 4442,
      "astity": 4443,
      "Ġgan": 4444,
      "Ġsonoda": 4445,
      "Ġmit": 4446,
      "challenge": 4447,
      "aster": 4448,
      "ikan": 4449,
      "Ġbeams": 4450,
      "universe": 4451,
      "Ġtiles": 4452,
      "first": 4453,
      "kat": 4454,
      "pil": 4455,
      "headphones": 4456,
      "oudy": 4457,
      "Ġpendant": 4458,
      "Ġcloudy": 4459,
      "Ġtakar": 4460,
      "mura": 4461,
      "nar": 4462,
      "yon": 4463,
      "Ġpanzer": 4464,
      "ucket": 4465,
      "ĠLactation": 4466,
      "bobbles": 4467,
      "ãĥ£ãĥ³": 4468,
      "language": 4469,
      "Ġfairy": 4470,
      "Ġdrop": 4471,
      "akaze": 4472,
      "Ġcou": 4473,
      "ula": 4474,
      "Ġdarkness": 4475,
      "Ġsnuff": 4476,
      "Ġspikes": 4477,
      "Ġvisor": 4478,
      "fumi": 4479,
      "gam": 4480,
      "riel": 4481,
      "Ġsunlight": 4482,
      "makoto": 4483,
      "gan": 4484,
      "machine": 4485,
      "Ġend": 4486,
      "Ġboy": 4487,
      "_&_": 4488,
      "Ġwaving": 4489,
      "Ġenergy": 4490,
      "Ġarai": 4491,
      "Ġinflation": 4492,
      "mode": 4493,
      "tow": 4494,
      "Ġcrow": 4495,
      "Ġryo": 4496,
      "ssom": 4497,
      "Ġheight": 4498,
      "Ġmusume": 4499,
      "boxed": 4500,
      "Ġbek": 4501,
      "Ġsaw": 4502,
      "Ġtriangle": 4503,
      "ĠToys": 4504,
      "hug": 4505,
      "nut": 4506,
      "elle": 4507,
      "Ġmatsuura": 4508,
      "mid": 4509,
      "nan": 4510,
      "tweak": 4511,
      "Ġsin": 4512,
      "stance": 4513,
      "Ġandroid": 4514,
      "even": 4515,
      "Ġchloroform": 4516,
      "Ġname": 4517,
      "rowth": 4518,
      "Ġangry": 4519,
      "mirror": 4520,
      "09": 4521,
      "zume": 4522,
      "Ġspoon": 4523,
      "Ġakagi": 4524,
      "eous": 4525,
      "abu": 4526,
      "cinderella": 4527,
      "natsumi": 4528,
      "Ġkay": 4529,
      "akari": 4530,
      "Ġao": 4531,
      "akuen": 4532,
      "ele": 4533,
      "mom": 4534,
      "Ġie": 4535,
      "Ġtoh": 4536,
      "Ġamerican": 4537,
      "hang": 4538,
      "kom": 4539,
      "leash": 4540,
      "Ġtray": 4541,
      "slit": 4542,
      "plant": 4543,
      "ĠTentacles": 4544,
      "jimeru": 4545,
      "urou": 4546,
      "Ġmario": 4547,
      "cc": 4548,
      "online": 4549,
      "Ġvol": 4550,
      "Ġglass": 4551,
      "Ġrevision": 4552,
      "Ġsucking": 4553,
      "Ġstudio": 4554,
      "Ġban": 4555,
      "Ġkey": 4556,
      "ãĥ«": 4557,
      "Ġ2020": 4558,
      "precure": 4559,
      "Ġnier": 4560,
      "ope": 4561,
      "riding": 4562,
      "Ġtriple": 4563,
      "Ġpalm": 4564,
      "summer": 4565,
      "bulge": 4566,
      "creature": 4567,
      "gane": 4568,
      "Ġstaff": 4569,
      "ĠMind": 4570,
      "Ġmisaki": 4571,
      "Ġuneven": 4572,
      "Ġplat": 4573,
      "blossom": 4574,
      "...": 4575,
      "rifle": 4576,
      "ns": 4577,
      "chika": 4578,
      "Ġcrossover": 4579,
      "stripe": 4580,
      "@_": 4581,
      "Ġul": 4582,
      "Ġ@_": 4583,
      "itro": 4584,
      "stalk": 4585,
      "Ġ@_@": 4586,
      "Ġmagic": 4587,
      "Ġtassel": 4588,
      "ãĤ¬": 4589,
      "Ġtoenail": 4590,
      "hag": 4591,
      "Ġknife": 4592,
      "hane": 4593,
      "ashion": 4594,
      "Ġmits": 4595,
      "Ġads": 4596,
      "eng": 4597,
      "Ġsmug": 4598,
      "ĠSm": 4599,
      "Ġcleft": 4600,
      "Ġwork": 4601,
      "Ġrotation": 4602,
      "gate": 4603,
      "esu": 4604,
      "udou": 4605,
      "ĠTail": 4606,
      "maidragon": 4607,
      "24": 4608,
      "Ġtape": 4609,
      "headband": 4610,
      "Ġhanayome": 4611,
      "classic": 4612,
      "Ġsaku": 4613,
      "Ġcity": 4614,
      "Ġhazuki": 4615,
      "Ġonline": 4616,
      "ĠDigital": 4617,
      "daugh": 4618,
      "Ġcurvy": 4619,
      "daughter": 4620,
      "Ġuse": 4621,
      "sar": 4622,
      "Ġtoilet": 4623,
      "lord": 4624,
      "Ġdol": 4625,
      "Ġloss": 4626,
      "Ġgoat": 4627,
      "Ġsteaming": 4628,
      "Ġwedding": 4629,
      "Ġsuru": 4630,
      "izuka": 4631,
      "thighhigh": 4632,
      "kemono": 4633,
      "Ġmultimouth": 4634,
      "lipop": 4635,
      "aitress": 4636,
      "Ġca": 4637,
      "road": 4638,
      "staff": 4639,
      "rider": 4640,
      "fruit": 4641,
      "ocky": 4642,
      "Ġpetite": 4643,
      "Ġjuliet": 4644,
      "Ġtojo": 4645,
      "cohol": 4646,
      "iac": 4647,
      "zipped": 4648,
      "uld": 4649,
      "Ġrope": 4650,
      "Ġspreading": 4651,
      "Ġgauntlets": 4652,
      "ĠMonster": 4653,
      "Ġpainted": 4654,
      "Ġnishikino": 4655,
      "nanoha": 4656,
      "\",": 4657,
      "sayaka": 4658,
      "thi": 4659,
      "Ġcorset": 4660,
      "Ġatelier": 4661,
      "Ġkura": 4662,
      "Ġyuru": 4663,
      "magical": 4664,
      "Ġstrawberry": 4665,
      "16": 4666,
      "pers": 4667,
      "sn": 4668,
      "Ġkog": 4669,
      "Ġcurly": 4670,
      "Ġhiroyuki": 4671,
      "kura": 4672,
      "Ġ...": 4673,
      "Ġsakurai": 4674,
      "bleach": 4675,
      "rination": 4676,
      "clothing": 4677,
      "hai": 4678,
      "Ġtight": 4679,
      "ĠExhibitionism": 4680,
      "mosaic": 4681,
      "haruka": 4682,
      "tab": 4683,
      "!_(": 4684,
      "Ġmash": 4685,
      "Ġlily": 4686,
      "jan": 4687,
      "Ġshiki": 4688,
      "Ġplump": 4689,
      "atoro": 4690,
      "moving": 4691,
      "Ġtip": 4692,
      "very": 4693,
      "Ġartoria": 4694,
      "Ġinterrac": 4695,
      "Ġinterracial": 4696,
      "04": 4697,
      "aser": 4698,
      "Ġkurosaki": 4699,
      "dog": 4700,
      "Ġtatsu": 4701,
      "akawa": 4702,
      "umping": 4703,
      "Ġanime": 4704,
      "undoshi": 4705,
      "Ġmary": 4706,
      "ith": 4707,
      "kir": 4708,
      "isei": 4709,
      "version": 4710,
      "ĠFull": 4711,
      "Ġruby": 4712,
      "ahoge": 4713,
      "Ġed": 4714,
      "Ġwiz": 4715,
      "ics": 4716,
      "Ġararagi": 4717,
      "Ġalcohol": 4718,
      "Ġhayase": 4719,
      "Ġcyberpunk": 4720,
      "oni": 4721,
      "image": 4722,
      "Ġtwins": 4723,
      "outline": 4724,
      "Ġmikan": 4725,
      "Ġske": 4726,
      "Ġtsuki": 4727,
      "hilia": 4728,
      "PA": 4729,
      "cond": 4730,
      "Ġprecure": 4731,
      "ronic": 4732,
      "kanata": 4733,
      "Ġreflection": 4734,
      "tachi": 4735,
      "Ġkis": 4736,
      "ishun": 4737,
      "azuma": 4738,
      "RI": 4739,
      "sam": 4740,
      "aiba": 4741,
      "Ġah": 4742,
      "Ġchild": 4743,
      "ĠUrination": 4744,
      "tial": 4745,
      "Ġichigo": 4746,
      "Ġtomo": 4747,
      "Ġuzaki": 4748,
      "guitar": 4749,
      "Ġdeviluke": 4750,
      "15": 4751,
      "aked": 4752,
      "ize": 4753,
      "ĠBbm": 4754,
      "Ġlocker": 4755,
      "kana": 4756,
      "iggle": 4757,
      "Ġfeathers": 4758,
      "gging": 4759,
      "Ġdanbooru": 4760,
      "07": 4761,
      "Ġbal": 4762,
      "ensou": 4763,
      "Ġhii": 4764,
      "Ġtakanashi": 4765,
      "Ġheroine": 4766,
      "Ġfeather": 4767,
      "Ġtribadism": 4768,
      "Ġbattle": 4769,
      "Ġpeeing": 4770,
      "ove": 4771,
      "anet": 4772,
      "lol": 4773,
      "mis": 4774,
      "Ġwink": 4775,
      "ronicles": 4776,
      "AY": 4777,
      "DAY": 4778,
      "emed": 4779,
      "Ġwin": 4780,
      "underwear": 4781,
      "Ġbowl": 4782,
      "stalkers": 4783,
      "RIDAY": 4784,
      "kara": 4785,
      "rone": 4786,
      "adan": 4787,
      "Ġlit": 4788,
      "Ġrecor": 4789,
      "ternal": 4790,
      "ĠHar": 4791,
      "Ġborrowed": 4792,
      "05": 4793,
      "boku": 4794,
      "ein": 4795,
      "tal": 4796,
      "Ġanger": 4797,
      "armpit": 4798,
      "Ġflag": 4799,
      "mother": 4800,
      "ikuyo": 4801,
      "Ġportrait": 4802,
      "vul": 4803,
      "Ġextran": 4804,
      "Ġsumata": 4805,
      "Ġincoming": 4806,
      "Ġextraneous": 4807,
      "netorare": 4808,
      "Ġcigarette": 4809,
      "reon": 4810,
      "ringe": 4811,
      "sandals": 4812,
      "vulva": 4813,
      "final": 4814,
      "Ġspe": 4815,
      "ĠTits": 4816,
      "Ġpoint": 4817,
      "Ġdown": 4818,
      "ubuki": 4819,
      "paper": 4820,
      "Ġisekai": 4821,
      "Ġmen": 4822,
      "Ġhitori": 4823,
      "ĠVariant": 4824,
      "Ġnisemonogatari": 4825,
      "sister": 4826,
      "switch": 4827,
      "screenshot": 4828,
      "Ġraccoon": 4829,
      "drills": 4830,
      "mot": 4831,
      "tight": 4832,
      "ashii": 4833,
      "expos": 4834,
      "mae": 4835,
      "shuuhen": 4836,
      "asuka": 4837,
      "rease": 4838,
      "Ġprojectile": 4839,
      "parti": 4840,
      "Ġminiguy": 4841,
      "zy": 4842,
      "Ġgrowth": 4843,
      "automata": 4844,
      "horn": 4845,
      "Ġmisaka": 4846,
      "slee": 4847,
      "agh": 4848,
      "Ġroad": 4849,
      "Ġjeanne": 4850,
      "amine": 4851,
      "Ġdoujin": 4852,
      "ãĥŀ": 4853,
      "gal": 4854,
      "Ġuma": 4855,
      "Ġpri": 4856,
      "Ġgar": 4857,
      "Ġemp": 4858,
      "ĠOn": 4859,
      "Ġshoujo": 4860,
      "Ġhuman": 4861,
      "Ġpatreon": 4862,
      "Ġhiiragi": 4863,
      "^^": 4864,
      "bare": 4865,
      "wari": 4866,
      "arti": 4867,
      "Ġpiss": 4868,
      "tect": 4869,
      "Ġshaded": 4870,
      "Ġzo": 4871,
      "Ġmochi": 4872,
      "Ġjeans": 4873,
      "Ġstick": 4874,
      "Ġmegumin": 4875,
      "Ġ^^^": 4876,
      "icture": 4877,
      "Ġtime": 4878,
      "Ġpopsicle": 4879,
      "Ġgiantess": 4880,
      "mole": 4881,
      "iner": 4882,
      "ann": 4883,
      "frames": 4884,
      "Ġgangbang": 4885,
      "Ġhatsune": 4886,
      "ious": 4887,
      "Ġgem": 4888,
      "Ġnumber": 4889,
      "utor": 4890,
      "ĠBabe": 4891,
      "Ġvehicle": 4892,
      "atta": 4893,
      "Ġjou": 4894,
      "sides": 4895,
      "ved": 4896,
      "asaka": 4897,
      "Ġcra": 4898,
      "retch": 4899,
      "Ġ:>": 4900,
      "Ġiori": 4901,
      "ux": 4902,
      "igiri": 4903,
      "Ġkote": 4904,
      "Ġcoffee": 4905,
      "Ġfujim": 4906,
      "build": 4907,
      "gemstone": 4908,
      "isanji": 4909,
      "Ġkum": 4910,
      "Ġtakami": 4911,
      "Ġenema": 4912,
      "Ġmasked": 4913,
      "arts": 4914,
      "Ġdirt": 4915,
      "shiro": 4916,
      "itai": 4917,
      "phin": 4918,
      "Ġrolling": 4919,
      "Ġmai": 4920,
      "isuke": 4921,
      "Ġtsushima": 4922,
      "etsu": 4923,
      "miko": 4924,
      "slice": 4925,
      "ifa": 4926,
      "abydoll": 4927,
      "Ġsad": 4928,
      "ques": 4929,
      "soles": 4930,
      "tam": 4931,
      "Ġsuperstar": 4932,
      "Ġizayoi": 4933,
      "nana": 4934,
      "Ġgridman": 4935,
      "Ġjumping": 4936,
      "Ġsleep": 4937,
      "mario": 4938,
      "Ġtareme": 4939,
      "pha": 4940,
      "kuro": 4941,
      "Ġcriss": 4942,
      "remov": 4943,
      "Ġkik": 4944,
      "Ġlad": 4945,
      "index": 4946,
      "Ġ70": 4947,
      "Ġ77": 4948,
      "wars": 4949,
      "removed": 4950,
      "Ġfrog": 4951,
      "Ġsnake": 4952,
      "Ġtamag": 4953,
      "isting": 4954,
      "Ġmika": 4955,
      "tsumi": 4956,
      "vert": 4957,
      "Ġep": 4958,
      "Ġ76": 4959,
      "Ġpointless": 4960,
      "aghetti": 4961,
      "asawa": 4962,
      "Ġspl": 4963,
      "Ġtoshi": 4964,
      "ĠFRIDAY": 4965,
      "Ġusagi": 4966,
      "jirou": 4967,
      "page": 4968,
      "taka": 4969,
      "Ġcg": 4970,
      "Ġspaghetti": 4971,
      "Ġ74": 4972,
      "Ġmountain": 4973,
      "exposure": 4974,
      "Ġempty": 4975,
      "kam": 4976,
      "mug": 4977,
      "amond": 4978,
      "artist": 4979,
      "Ġhoushou": 4980,
      "magic": 4981,
      "robot": 4982,
      "Ġkim": 4983,
      "ĠFemdom": 4984,
      "tercourse": 4985,
      "plug": 4986,
      "ĠIntercourse": 4987,
      "bis": 4988,
      "dess": 4989,
      "ravure": 4990,
      "Ġwaitress": 4991,
      "uten": 4992,
      "Ġakane": 4993,
      "ãĥĥãĤ·ãĥ": 4994,
      "ãĥĥãĤ·ãĥ¥": 4995,
      "rub": 4996,
      "Ġnico": 4997,
      "themed": 4998,
      "etai": 4999
    },
    "merges": [
      [
        "i",
        "n"
      ],
      [
        "Ġ",
        "s"
      ],
      [
        "a",
        "n"
      ],
      [
        "l",
        "e"
      ],
      [
        "o",
        "n"
      ],
      [
        "a",
        "r"
      ],
      [
        "Ġ",
        "b"
      ],
      [
        "h",
        "i"
      ],
      [
        "e",
        "r"
      ],
      [
        "e",
        "s"
      ],
      [
        "a",
        "t"
      ],
      [
        "o",
        "r"
      ],
      [
        "a",
        "i"
      ],
      [
        "in",
        "g"
      ],
      [
        "e",
        "n"
      ],
      [
        "o",
        "u"
      ],
      [
        "Ġ",
        "m"
      ],
      [
        "a",
        "s"
      ],
      [
        "Ġ",
        "c"
      ],
      [
        "e",
        "d"
      ],
      [
        "Ġ",
        "t"
      ],
      [
        "Ġ",
        "p"
      ],
      [
        "r",
        "e"
      ],
      [
        "l",
        "o"
      ],
      [
        "a",
        "c"
      ],
      [
        "Ġ",
        "f"
      ],
      [
        "Ġ",
        "h"
      ],
      [
        "a",
        "l"
      ],
      [
        "o",
        "l"
      ],
      [
        "Ġ",
        "d"
      ],
      [
        "i",
        "s"
      ],
      [
        "a",
        "k"
      ],
      [
        "Ġ",
        "g"
      ],
      [
        "u",
        "n"
      ],
      [
        "t",
        "s"
      ],
      [
        "Ġ",
        "n"
      ],
      [
        "_",
        "("
      ],
      [
        "ai",
        "r"
      ],
      [
        "i",
        "g"
      ],
      [
        "r",
        "o"
      ],
      [
        "s",
        "hi"
      ],
      [
        "t",
        "i"
      ],
      [
        "e",
        "m"
      ],
      [
        "r",
        "a"
      ],
      [
        "i",
        "r"
      ],
      [
        "i",
        "m"
      ],
      [
        "t",
        "h"
      ],
      [
        "o",
        "m"
      ],
      [
        "a",
        "le"
      ],
      [
        "c",
        "h"
      ],
      [
        "Ġ",
        "k"
      ],
      [
        "a",
        "d"
      ],
      [
        "r",
        "i"
      ],
      [
        "e",
        "l"
      ],
      [
        "a",
        "m"
      ],
      [
        "ac",
        "k"
      ],
      [
        "e",
        "t"
      ],
      [
        "Ġb",
        "l"
      ],
      [
        "i",
        "t"
      ],
      [
        "o",
        "le"
      ],
      [
        "o",
        "t"
      ],
      [
        "u",
        "s"
      ],
      [
        "u",
        "m"
      ],
      [
        "h",
        "air"
      ],
      [
        "Ġ",
        "â"
      ],
      [
        "Ġâ",
        "Ļ"
      ],
      [
        "Ġ",
        "w"
      ],
      [
        "c",
        "k"
      ],
      [
        "re",
        "as"
      ],
      [
        "o",
        "s"
      ],
      [
        "an",
        "d"
      ],
      [
        "Ġ",
        "l"
      ],
      [
        "u",
        "r"
      ],
      [
        "o",
        "k"
      ],
      [
        "ĠâĻ",
        "Ģ"
      ],
      [
        "o",
        "w"
      ],
      [
        "a",
        "g"
      ],
      [
        "e",
        "ar"
      ],
      [
        "a",
        "p"
      ],
      [
        "Ġs",
        "ole"
      ],
      [
        "t",
        "er"
      ],
      [
        "i",
        "on"
      ],
      [
        "g",
        "h"
      ],
      [
        "e",
        "y"
      ],
      [
        "u",
        "l"
      ],
      [
        "v",
        "e"
      ],
      [
        "reas",
        "ts"
      ],
      [
        "i",
        "d"
      ],
      [
        "ir",
        "l"
      ],
      [
        "at",
        "ed"
      ],
      [
        "Ġd",
        "ou"
      ],
      [
        "i",
        "l"
      ],
      [
        "em",
        "ale"
      ],
      [
        "ai",
        "l"
      ],
      [
        "j",
        "in"
      ],
      [
        "i",
        "c"
      ],
      [
        "i",
        "k"
      ],
      [
        "lo",
        "w"
      ],
      [
        "o",
        "b"
      ],
      [
        "at",
        "ion"
      ],
      [
        "Ġs",
        "t"
      ],
      [
        "Ġ",
        "an"
      ],
      [
        "hi",
        "gh"
      ],
      [
        "jin",
        "shi"
      ],
      [
        "Ġ",
        "r"
      ],
      [
        "u",
        "k"
      ],
      [
        "Ġ",
        "y"
      ],
      [
        "g",
        "irl"
      ],
      [
        "Ġdou",
        "jinshi"
      ],
      [
        "r",
        "an"
      ],
      [
        "h",
        "e"
      ],
      [
        "t",
        "e"
      ],
      [
        "u",
        "e"
      ],
      [
        "r",
        "es"
      ],
      [
        "p",
        "le"
      ],
      [
        "is",
        "h"
      ],
      [
        "Ġs",
        "h"
      ],
      [
        "s",
        "l"
      ],
      [
        "s",
        "h"
      ],
      [
        "i",
        "f"
      ],
      [
        "s",
        "e"
      ],
      [
        "b",
        "o"
      ],
      [
        "Ġf",
        "emale"
      ],
      [
        "Ġ",
        "ar"
      ],
      [
        "Ġb",
        "reasts"
      ],
      [
        "Ġ",
        "lo"
      ],
      [
        "an",
        "g"
      ],
      [
        "r",
        "ou"
      ],
      [
        "g",
        "l"
      ],
      [
        "u",
        "p"
      ],
      [
        "ran",
        "sl"
      ],
      [
        "Ġ",
        "un"
      ],
      [
        "as",
        "hi"
      ],
      [
        "Ġ",
        "j"
      ],
      [
        "Ġt",
        "ransl"
      ],
      [
        "s",
        "u"
      ],
      [
        "Ġh",
        "air"
      ],
      [
        "v",
        "er"
      ],
      [
        "as",
        "s"
      ],
      [
        "gl",
        "ish"
      ],
      [
        "a",
        "y"
      ],
      [
        "Ġ",
        "or"
      ],
      [
        "o",
        "ol"
      ],
      [
        "en",
        "glish"
      ],
      [
        "Ġm",
        "ale"
      ],
      [
        "ol",
        "d"
      ],
      [
        "Ġbl",
        "ack"
      ],
      [
        "Ġ",
        "o"
      ],
      [
        "Ġtransl",
        "ated"
      ],
      [
        "s",
        "t"
      ],
      [
        "ch",
        "ool"
      ],
      [
        "or",
        "m"
      ],
      [
        "j",
        "ob"
      ],
      [
        "d",
        "er"
      ],
      [
        "t",
        "o"
      ],
      [
        "ey",
        "es"
      ],
      [
        "Ġ",
        "a"
      ],
      [
        "v",
        "es"
      ],
      [
        "Ġb",
        "ig"
      ],
      [
        "en",
        "t"
      ],
      [
        "en",
        "s"
      ],
      [
        "lo",
        "th"
      ],
      [
        "es",
        "e"
      ],
      [
        "Ġc",
        "h"
      ],
      [
        "u",
        "t"
      ],
      [
        "t",
        "ail"
      ],
      [
        "e",
        "c"
      ],
      [
        "Ġw",
        "hi"
      ],
      [
        "o",
        "d"
      ],
      [
        "Ġn",
        "ak"
      ],
      [
        "er",
        "i"
      ],
      [
        "i",
        "p"
      ],
      [
        "s",
        "s"
      ],
      [
        "on",
        "e"
      ],
      [
        "Ġwhi",
        "te"
      ],
      [
        "ens",
        "or"
      ],
      [
        "an",
        "t"
      ],
      [
        "t",
        "ing"
      ],
      [
        "in",
        "al"
      ],
      [
        "Ġbl",
        "ue"
      ],
      [
        "if",
        "orm"
      ],
      [
        "on",
        "g"
      ],
      [
        "u",
        "b"
      ],
      [
        "e",
        "x"
      ],
      [
        "w",
        "e"
      ],
      [
        "Ġ",
        "english"
      ],
      [
        "le",
        "g"
      ],
      [
        "n",
        "d"
      ],
      [
        "f",
        "f"
      ],
      [
        "Ġ",
        "in"
      ],
      [
        "res",
        "s"
      ],
      [
        "s",
        "k"
      ],
      [
        "ro",
        "w"
      ],
      [
        "ar",
        "k"
      ],
      [
        "old",
        "ing"
      ],
      [
        "b",
        "le"
      ],
      [
        "Ġh",
        "olding"
      ],
      [
        "ad",
        "ashi"
      ],
      [
        "or",
        "n"
      ],
      [
        "ow",
        "n"
      ],
      [
        "ak",
        "i"
      ],
      [
        "ap",
        "an"
      ],
      [
        "ing",
        "s"
      ],
      [
        "Ġg",
        "re"
      ],
      [
        "b",
        "ack"
      ],
      [
        "c",
        "hi"
      ],
      [
        "Ġr",
        "ed"
      ],
      [
        "apan",
        "ese"
      ],
      [
        "loth",
        "es"
      ],
      [
        "r",
        "t"
      ],
      [
        "ul",
        "ti"
      ],
      [
        "ul",
        "l"
      ],
      [
        "Ġ",
        "1"
      ],
      [
        "al",
        "l"
      ],
      [
        "w",
        "ear"
      ],
      [
        "Ġan",
        "im"
      ],
      [
        "ar",
        "i"
      ],
      [
        "ti",
        "on"
      ],
      [
        "ig",
        "inal"
      ],
      [
        "in",
        "i"
      ],
      [
        "g",
        "e"
      ],
      [
        "Ġ",
        "2"
      ],
      [
        "n",
        "e"
      ],
      [
        "Ġm",
        "ulti"
      ],
      [
        "ir",
        "t"
      ],
      [
        "su",
        "it"
      ],
      [
        "Ġh",
        "and"
      ],
      [
        "o",
        "ck"
      ],
      [
        "Ġnak",
        "adashi"
      ],
      [
        "low",
        "job"
      ],
      [
        "Ġc",
        "ol"
      ],
      [
        "in",
        "k"
      ],
      [
        "Ġor",
        "iginal"
      ],
      [
        "p",
        "en"
      ],
      [
        "b",
        "b"
      ],
      [
        "ig",
        "h"
      ],
      [
        "le",
        "e"
      ],
      [
        "a",
        "w"
      ],
      [
        "q",
        "u"
      ],
      [
        "ik",
        "ini"
      ],
      [
        "p",
        "an"
      ],
      [
        "r",
        "y"
      ],
      [
        "id",
        "e"
      ],
      [
        "Ġs",
        "m"
      ],
      [
        "Ġs",
        "chool"
      ],
      [
        "ai",
        "d"
      ],
      [
        "eri",
        "es"
      ],
      [
        "es",
        "t"
      ],
      [
        "c",
        "lothes"
      ],
      [
        "ey",
        "e"
      ],
      [
        "Ġs",
        "p"
      ],
      [
        "ar",
        "d"
      ],
      [
        "Ġp",
        "en"
      ],
      [
        "at",
        "e"
      ],
      [
        "g",
        "rou"
      ],
      [
        "om",
        "e"
      ],
      [
        "Ġ",
        "v"
      ],
      [
        "Ġs",
        "hi"
      ],
      [
        "u",
        "ri"
      ],
      [
        "Ġs",
        "k"
      ],
      [
        "n",
        "o"
      ],
      [
        "in",
        "d"
      ],
      [
        "on",
        "d"
      ],
      [
        "grou",
        "nd"
      ],
      [
        "i",
        "ve"
      ],
      [
        "i",
        "e"
      ],
      [
        "Ġb",
        "lowjob"
      ],
      [
        "Ġn",
        "o"
      ],
      [
        "e",
        "k"
      ],
      [
        "shi",
        "rt"
      ],
      [
        "ac",
        "h"
      ],
      [
        "Ġj",
        "apanese"
      ],
      [
        "r",
        "in"
      ],
      [
        "Ġ",
        "S"
      ],
      [
        "os",
        "e"
      ],
      [
        "em",
        "on"
      ],
      [
        "th",
        "er"
      ],
      [
        "ac",
        "e"
      ],
      [
        "Ġt",
        "o"
      ],
      [
        "w",
        "im"
      ],
      [
        "d",
        "ress"
      ],
      [
        "l",
        "ar"
      ],
      [
        "g",
        "a"
      ],
      [
        "o",
        "ver"
      ],
      [
        "c",
        "ol"
      ],
      [
        "ra",
        "p"
      ],
      [
        "uk",
        "i"
      ],
      [
        "row",
        "n"
      ],
      [
        "Ġ",
        "high"
      ],
      [
        "Ġ",
        "hi"
      ],
      [
        "back",
        "ground"
      ],
      [
        "f",
        "o"
      ],
      [
        "Ġ",
        "on"
      ],
      [
        "an",
        "o"
      ],
      [
        "shi",
        "p"
      ],
      [
        "wim",
        "suit"
      ],
      [
        "Ġt",
        "w"
      ],
      [
        "ti",
        "es"
      ],
      [
        "Ġc",
        "ensor"
      ],
      [
        "is",
        "t"
      ],
      [
        "a",
        "b"
      ],
      [
        "ou",
        "th"
      ],
      [
        "we",
        "at"
      ],
      [
        "ai",
        "c"
      ],
      [
        "ou",
        "t"
      ],
      [
        "Ġan",
        "al"
      ],
      [
        "Ġar",
        "m"
      ],
      [
        "id",
        "ol"
      ],
      [
        "us",
        "h"
      ],
      [
        "ar",
        "e"
      ],
      [
        "bo",
        "y"
      ],
      [
        "Ġp",
        "ink"
      ],
      [
        "ag",
        "e"
      ],
      [
        "Ġun",
        "iform"
      ],
      [
        "Ġanim",
        "ated"
      ],
      [
        "a",
        "z"
      ],
      [
        "ã",
        "ĥ"
      ],
      [
        "Ġl",
        "ong"
      ],
      [
        "Ġ",
        "e"
      ],
      [
        "er",
        "s"
      ],
      [
        "ear",
        "s"
      ],
      [
        "u",
        "g"
      ],
      [
        "u",
        "re"
      ],
      [
        "b",
        "ow"
      ],
      [
        "sk",
        "irt"
      ],
      [
        "on",
        "o"
      ],
      [
        "b",
        "reasts"
      ],
      [
        "rou",
        "p"
      ],
      [
        "b",
        "l"
      ],
      [
        "Ġf",
        "ull"
      ],
      [
        "Ġgre",
        "en"
      ],
      [
        "m",
        "outh"
      ],
      [
        "Ġcensor",
        "ship"
      ],
      [
        "u",
        "d"
      ],
      [
        "ass",
        "es"
      ],
      [
        "os",
        "aic"
      ],
      [
        "i",
        "z"
      ],
      [
        "l",
        "y"
      ],
      [
        "w",
        "or"
      ],
      [
        "Ġlo",
        "ve"
      ],
      [
        "Ġ",
        "B"
      ],
      [
        "Ġb",
        "rown"
      ],
      [
        "igh",
        "t"
      ],
      [
        "y",
        "u"
      ],
      [
        "or",
        "t"
      ],
      [
        "lo",
        "ves"
      ],
      [
        "ar",
        "u"
      ],
      [
        "il",
        "f"
      ],
      [
        "Ġd",
        "e"
      ],
      [
        "Ġ",
        "3"
      ],
      [
        "p",
        "i"
      ],
      [
        "ri",
        "bb"
      ],
      [
        "h",
        "o"
      ],
      [
        "le",
        "ss"
      ],
      [
        "u",
        "ra"
      ],
      [
        "a",
        "v"
      ],
      [
        "ak",
        "e"
      ],
      [
        "high",
        "s"
      ],
      [
        "ant",
        "y"
      ],
      [
        "ok",
        "ing"
      ],
      [
        "he",
        "ad"
      ],
      [
        "lee",
        "ves"
      ],
      [
        "ack",
        "et"
      ],
      [
        "Ġt",
        "h"
      ],
      [
        "Ġg",
        "roup"
      ],
      [
        "ar",
        "t"
      ],
      [
        "Ġg",
        "l"
      ],
      [
        "or",
        "ts"
      ],
      [
        "t",
        "r"
      ],
      [
        "on",
        "y"
      ],
      [
        "ur",
        "ple"
      ],
      [
        "in",
        "e"
      ],
      [
        "b",
        "ikini"
      ],
      [
        "ribb",
        "on"
      ],
      [
        "ang",
        "a"
      ],
      [
        "Ġp",
        "urple"
      ],
      [
        "el",
        "l"
      ],
      [
        "i",
        "a"
      ],
      [
        "ar",
        "ac"
      ],
      [
        "Ġc",
        "um"
      ],
      [
        "p",
        "l"
      ],
      [
        "arac",
        "ter"
      ],
      [
        "Ġo",
        "pen"
      ],
      [
        "Ġlo",
        "oking"
      ],
      [
        "Ġd",
        "ark"
      ],
      [
        "ti",
        "e"
      ],
      [
        "l",
        "ive"
      ],
      [
        "y",
        "a"
      ],
      [
        "ony",
        "tail"
      ],
      [
        "Ġ",
        "4"
      ],
      [
        "Ġ",
        "re"
      ],
      [
        "ra",
        "y"
      ],
      [
        "s",
        "eries"
      ],
      [
        "Ġcol",
        "or"
      ],
      [
        "is",
        "s"
      ],
      [
        "girl",
        "s"
      ],
      [
        "Ġc",
        "ro"
      ],
      [
        "am",
        "i"
      ],
      [
        "ai",
        "z"
      ],
      [
        "aw",
        "a"
      ],
      [
        "Ġ",
        "im"
      ],
      [
        "ar",
        "m"
      ],
      [
        "o",
        "f"
      ],
      [
        "m",
        "as"
      ],
      [
        "Ġ",
        "x"
      ],
      [
        "p",
        "ed"
      ],
      [
        "s",
        "leeves"
      ],
      [
        "ar",
        "a"
      ],
      [
        "un",
        "iform"
      ],
      [
        "c",
        "e"
      ],
      [
        "b",
        "e"
      ],
      [
        "Ġ",
        "idol"
      ],
      [
        "j",
        "i"
      ],
      [
        "Ġ",
        "M"
      ],
      [
        "f",
        "l"
      ],
      [
        "Ġgl",
        "asses"
      ],
      [
        "Ġch",
        "aracter"
      ],
      [
        "Ġm",
        "osaic"
      ],
      [
        "Ġar",
        "t"
      ],
      [
        "re",
        "es"
      ],
      [
        "rees",
        "ome"
      ],
      [
        "m",
        "a"
      ],
      [
        "Ġm",
        "anga"
      ],
      [
        "o",
        "shi"
      ],
      [
        "ock",
        "ings"
      ],
      [
        "or",
        "i"
      ],
      [
        "Ġy",
        "el"
      ],
      [
        "s",
        "y"
      ],
      [
        "ip",
        "ple"
      ],
      [
        "Ġschool",
        "girl"
      ],
      [
        "h",
        "ose"
      ],
      [
        "Ġyel",
        "low"
      ],
      [
        "pan",
        "ties"
      ],
      [
        "anty",
        "hose"
      ],
      [
        "ar",
        "y"
      ],
      [
        "aiz",
        "uri"
      ],
      [
        "tail",
        "s"
      ],
      [
        "Ġst",
        "ockings"
      ],
      [
        "i",
        "le"
      ],
      [
        "Ġ",
        "le"
      ],
      [
        "m",
        "e"
      ],
      [
        "!",
        "_"
      ],
      [
        "ak",
        "a"
      ],
      [
        "Ġ",
        "5"
      ],
      [
        "'",
        "s"
      ],
      [
        "o",
        "lo"
      ],
      [
        "am",
        "e"
      ],
      [
        "Ġg",
        "ra"
      ],
      [
        "um",
        "e"
      ],
      [
        "s",
        "chool"
      ],
      [
        "un",
        "k"
      ],
      [
        "in",
        "tails"
      ],
      [
        "Ġs",
        "ex"
      ],
      [
        "p",
        "h"
      ],
      [
        "ano",
        "ther"
      ],
      [
        "Ġpen",
        "is"
      ],
      [
        "a",
        "in"
      ],
      [
        "um",
        "i"
      ],
      [
        "d",
        "y"
      ],
      [
        "ã",
        "Ĥ"
      ],
      [
        "Ġ",
        "ass"
      ],
      [
        "c",
        "ensor"
      ],
      [
        "Ġgre",
        "y"
      ],
      [
        "ou",
        "l"
      ],
      [
        "f",
        "emale"
      ],
      [
        "Ġsh",
        "ort"
      ],
      [
        "ne",
        "ck"
      ],
      [
        "Ġmulti",
        "ple"
      ],
      [
        "t",
        "om"
      ],
      [
        "leg",
        "s"
      ],
      [
        "j",
        "acket"
      ],
      [
        "un",
        "n"
      ],
      [
        "wor",
        "k"
      ],
      [
        "Ġh",
        "e"
      ],
      [
        "c",
        "os"
      ],
      [
        "ĠâĻ",
        "Ĥ"
      ],
      [
        "Ġp",
        "ro"
      ],
      [
        "r",
        "ation"
      ],
      [
        "am",
        "a"
      ],
      [
        "h",
        "and"
      ],
      [
        "ing",
        "er"
      ],
      [
        "ga",
        "o"
      ],
      [
        "rin",
        "t"
      ],
      [
        "k",
        "i"
      ],
      [
        "Ġf",
        "o"
      ],
      [
        "c",
        "us"
      ],
      [
        "Ġth",
        "reesome"
      ],
      [
        "l",
        "ic"
      ],
      [
        "c",
        "le"
      ],
      [
        "k",
        "o"
      ],
      [
        "reas",
        "t"
      ],
      [
        "Ġart",
        "ist"
      ],
      [
        "se",
        "i"
      ],
      [
        "o",
        "g"
      ],
      [
        "as",
        "aki"
      ],
      [
        "s",
        "ed"
      ],
      [
        "Ġp",
        "l"
      ],
      [
        "ts",
        "u"
      ],
      [
        "Ġ2",
        "0"
      ],
      [
        "th",
        "e"
      ],
      [
        "et",
        "ration"
      ],
      [
        "he",
        "gao"
      ],
      [
        "rap",
        "e"
      ],
      [
        "Ġcol",
        "lar"
      ],
      [
        "u",
        "ff"
      ],
      [
        "o",
        "p"
      ],
      [
        "ac",
        "t"
      ],
      [
        "oul",
        "der"
      ],
      [
        "i",
        "j"
      ],
      [
        "Ġc",
        "he"
      ],
      [
        "k",
        "a"
      ],
      [
        "at",
        "h"
      ],
      [
        "r",
        "on"
      ],
      [
        "Ġc",
        "om"
      ],
      [
        "ac",
        "ting"
      ],
      [
        "b",
        "and"
      ],
      [
        "at",
        "ing"
      ],
      [
        "ou",
        "r"
      ],
      [
        "Ġb",
        "e"
      ],
      [
        "Ġs",
        "weat"
      ],
      [
        "g",
        "loves"
      ],
      [
        "ok",
        "u"
      ],
      [
        "Ġ",
        "as"
      ],
      [
        "Ġs",
        "olo"
      ],
      [
        "s",
        "wimsuit"
      ],
      [
        "high",
        "highs"
      ],
      [
        "ec",
        "t"
      ],
      [
        "Ġhigh",
        "res"
      ],
      [
        "ro",
        "m"
      ],
      [
        "b",
        "ra"
      ],
      [
        "ic",
        "e"
      ],
      [
        "ri",
        "l"
      ],
      [
        "Ġs",
        "eries"
      ],
      [
        "b",
        "ig"
      ],
      [
        "bo",
        "dy"
      ],
      [
        "Ġn",
        "e"
      ],
      [
        "b",
        "r"
      ],
      [
        "er",
        "o"
      ],
      [
        "Ġ",
        "rape"
      ],
      [
        "Ġb",
        "ikini"
      ],
      [
        "Ġsk",
        "in"
      ],
      [
        "Ġg",
        "irl"
      ],
      [
        "e",
        "e"
      ],
      [
        "s",
        "c"
      ],
      [
        "es",
        "s"
      ],
      [
        "ak",
        "u"
      ],
      [
        "at",
        "a"
      ],
      [
        "Ġa",
        "hegao"
      ],
      [
        "ear",
        "t"
      ],
      [
        "Ġp",
        "aizuri"
      ],
      [
        "Ġ",
        "6"
      ],
      [
        "c",
        "l"
      ],
      [
        "Ġ",
        "z"
      ],
      [
        "Ġ",
        "ex"
      ],
      [
        "Ġs",
        "c"
      ],
      [
        "h",
        "at"
      ],
      [
        "Ġdou",
        "ble"
      ],
      [
        "el",
        "t"
      ],
      [
        "ang",
        "e"
      ],
      [
        "an",
        "a"
      ],
      [
        "ou",
        "s"
      ],
      [
        "i",
        "ck"
      ],
      [
        "et",
        "or"
      ],
      [
        "chi",
        "ve"
      ],
      [
        "as",
        "h"
      ],
      [
        "Ġ",
        "al"
      ],
      [
        "in",
        "a"
      ],
      [
        "Ġtw",
        "intails"
      ],
      [
        "Ġ",
        "P"
      ],
      [
        "d",
        "o"
      ],
      [
        "Ġ",
        "ro"
      ],
      [
        "to",
        "p"
      ],
      [
        "Ġc",
        "l"
      ],
      [
        "Ġp",
        "onytail"
      ],
      [
        "ot",
        "ard"
      ],
      [
        "g",
        "n"
      ],
      [
        "orn",
        "s"
      ],
      [
        "ot",
        "ac"
      ],
      [
        "v",
        "ie"
      ],
      [
        "c",
        "est"
      ],
      [
        "Ġn",
        "ipple"
      ],
      [
        "sh",
        "orts"
      ],
      [
        "etor",
        "are"
      ],
      [
        "s",
        "weat"
      ],
      [
        "ok",
        "emon"
      ],
      [
        "s",
        "ide"
      ],
      [
        "ri",
        "c"
      ],
      [
        "as",
        "t"
      ],
      [
        "u",
        "al"
      ],
      [
        "otac",
        "on"
      ],
      [
        "am",
        "ent"
      ],
      [
        "m",
        "ent"
      ],
      [
        "re",
        "gn"
      ],
      [
        "fo",
        "cus"
      ],
      [
        "lo",
        "sed"
      ],
      [
        "lic",
        "on"
      ],
      [
        "ter",
        "n"
      ],
      [
        "m",
        "an"
      ],
      [
        "il",
        "s"
      ],
      [
        "r",
        "ing"
      ],
      [
        "up",
        "ils"
      ],
      [
        "ot",
        "o"
      ],
      [
        "Ġ",
        "N"
      ],
      [
        "fo",
        "ot"
      ],
      [
        "Ġs",
        "ide"
      ],
      [
        "orn",
        "ament"
      ],
      [
        "Ġs",
        "wimsuit"
      ],
      [
        "uk",
        "u"
      ],
      [
        "ac",
        "hi"
      ],
      [
        "Ġlo",
        "licon"
      ],
      [
        "Ġp",
        "an"
      ],
      [
        "ri",
        "ped"
      ],
      [
        "pl",
        "ay"
      ],
      [
        "sk",
        "in"
      ],
      [
        "Ġsh",
        "otacon"
      ],
      [
        "y",
        "ou"
      ],
      [
        "us",
        "sy"
      ],
      [
        "Ġs",
        "lee"
      ],
      [
        "m",
        "ed"
      ],
      [
        ")",
        "_("
      ],
      [
        "Ġy",
        "u"
      ],
      [
        "Ġ20",
        "2"
      ],
      [
        "i",
        "re"
      ],
      [
        "Ġor",
        "ange"
      ],
      [
        "Ġhe",
        "ad"
      ],
      [
        "vie",
        "w"
      ],
      [
        "n",
        "own"
      ],
      [
        "is",
        "m"
      ],
      [
        "Ġbl",
        "ush"
      ],
      [
        "if",
        "t"
      ],
      [
        "unk",
        "nown"
      ],
      [
        "ment",
        "ary"
      ],
      [
        "col",
        "lar"
      ],
      [
        "Ġ",
        "ver"
      ],
      [
        "un",
        "der"
      ],
      [
        "low",
        "er"
      ],
      [
        "ond",
        "om"
      ],
      [
        "le",
        "t"
      ],
      [
        "Ġhair",
        "y"
      ],
      [
        "Ġpen",
        "etration"
      ],
      [
        "ch",
        "an"
      ],
      [
        "i",
        "um"
      ],
      [
        "at",
        "su"
      ],
      [
        "ff",
        "ec"
      ],
      [
        "s",
        "ti"
      ],
      [
        "Ġ",
        "F"
      ],
      [
        "ffec",
        "ts"
      ],
      [
        "o",
        "ts"
      ],
      [
        "Ġim",
        "p"
      ],
      [
        "bl",
        "ue"
      ],
      [
        "an",
        "k"
      ],
      [
        "Ġb",
        "o"
      ],
      [
        "t",
        "le"
      ],
      [
        "Ġf",
        "inger"
      ],
      [
        "ou",
        "nd"
      ],
      [
        "yu",
        "u"
      ],
      [
        "Ġ",
        "C"
      ],
      [
        "Ġt",
        "he"
      ],
      [
        "sh",
        "oulder"
      ],
      [
        "c",
        "om"
      ],
      [
        ":",
        "_"
      ],
      [
        "i",
        "al"
      ],
      [
        "i",
        "v"
      ],
      [
        "Ġb",
        "ad"
      ],
      [
        "c",
        "ing"
      ],
      [
        "Ġ",
        "G"
      ],
      [
        "le",
        "d"
      ],
      [
        "Ġp",
        "h"
      ],
      [
        "col",
        "or"
      ],
      [
        "Ġc",
        "on"
      ],
      [
        "Ġm",
        "i"
      ],
      [
        "Ġ",
        "T"
      ],
      [
        "p",
        "rint"
      ],
      [
        "Ġcro",
        "ss"
      ],
      [
        "c",
        "o"
      ],
      [
        "an",
        "e"
      ],
      [
        "ap",
        "e"
      ],
      [
        "Ġin",
        "cest"
      ],
      [
        "is",
        "hi"
      ],
      [
        "or",
        "ation"
      ],
      [
        "Ġe",
        "ffects"
      ],
      [
        "Ġh",
        "eart"
      ],
      [
        "d",
        "om"
      ],
      [
        "t",
        "a"
      ],
      [
        "ij",
        "ig"
      ],
      [
        "ic",
        "hi"
      ],
      [
        "Ġanim",
        "al"
      ],
      [
        "ijig",
        "asaki"
      ],
      [
        "b",
        "ang"
      ],
      [
        "Ġn",
        "etorare"
      ],
      [
        "ra",
        "g"
      ],
      [
        "Ġb",
        "b"
      ],
      [
        "Ġt",
        "ak"
      ],
      [
        "Ġun",
        "der"
      ],
      [
        "Ġc",
        "le"
      ],
      [
        "b",
        "i"
      ],
      [
        "fl",
        "oration"
      ],
      [
        "Ġ",
        "one"
      ],
      [
        "at",
        "s"
      ],
      [
        "se",
        "x"
      ],
      [
        "p",
        "e"
      ],
      [
        "h",
        "ind"
      ],
      [
        "im",
        "i"
      ],
      [
        "j",
        "ect"
      ],
      [
        "y",
        "m"
      ],
      [
        "ing",
        "le"
      ],
      [
        "Ġs",
        "u"
      ],
      [
        "eye",
        "wear"
      ],
      [
        "it",
        "y"
      ],
      [
        "a",
        "e"
      ],
      [
        "Ġf",
        "ril"
      ],
      [
        "in",
        "o"
      ],
      [
        "p",
        "ull"
      ],
      [
        "be",
        "hind"
      ],
      [
        "Ġm",
        "o"
      ],
      [
        "uk",
        "a"
      ],
      [
        "Ġc",
        "over"
      ],
      [
        "p",
        "er"
      ],
      [
        "w",
        "a"
      ],
      [
        "Ġc",
        "hi"
      ],
      [
        "ud",
        "e"
      ],
      [
        "Ġt",
        "e"
      ],
      [
        "Ġb",
        "ow"
      ],
      [
        "l",
        "ift"
      ],
      [
        "f",
        "m"
      ],
      [
        "censor",
        "ed"
      ],
      [
        "y",
        "s"
      ],
      [
        "h",
        "a"
      ],
      [
        "Ġp",
        "o"
      ],
      [
        "t",
        "highhighs"
      ],
      [
        "b",
        "ot"
      ],
      [
        "Ġsk",
        "irt"
      ],
      [
        "Ġd",
        "r"
      ],
      [
        "Ġc",
        "loth"
      ],
      [
        "Ġb",
        "r"
      ],
      [
        "at",
        "ari"
      ],
      [
        "view",
        "er"
      ],
      [
        "Ġm",
        "e"
      ],
      [
        "p",
        "ing"
      ],
      [
        "t",
        "en"
      ],
      [
        "ail",
        "s"
      ],
      [
        "Ġo",
        "ff"
      ],
      [
        "as",
        "e"
      ],
      [
        "ã",
        "ģ"
      ],
      [
        "Ġ",
        "("
      ],
      [
        "Ġb",
        "are"
      ],
      [
        "Ġs",
        "ingle"
      ],
      [
        "Ġ",
        ":"
      ],
      [
        "o",
        "od"
      ],
      [
        "Ġhand",
        "s"
      ],
      [
        "Ġm",
        "ed"
      ],
      [
        "Ġst",
        "riped"
      ],
      [
        "f",
        "ace"
      ],
      [
        "iss",
        "ing"
      ],
      [
        "in",
        "ese"
      ],
      [
        "c",
        "on"
      ],
      [
        "Ġc",
        "at"
      ],
      [
        "ock",
        "s"
      ],
      [
        "Ġ",
        "V"
      ],
      [
        "le",
        "s"
      ],
      [
        "Ġf",
        "e"
      ],
      [
        "et",
        "we"
      ],
      [
        "etwe",
        "en"
      ],
      [
        "pan",
        "ts"
      ],
      [
        "bang",
        "s"
      ],
      [
        "Ġ",
        "A"
      ],
      [
        "Ġ",
        "H"
      ],
      [
        "Ġne",
        "ck"
      ],
      [
        "ur",
        "b"
      ],
      [
        "Ġc",
        "ow"
      ],
      [
        "Ġshi",
        "rt"
      ],
      [
        "Ġp",
        "antyhose"
      ],
      [
        "Ġd",
        "ilf"
      ],
      [
        "Ġc",
        "ondom"
      ],
      [
        "qu",
        "est"
      ],
      [
        "sh",
        "in"
      ],
      [
        "4",
        "5"
      ],
      [
        "ond",
        "age"
      ],
      [
        "f",
        "ate"
      ],
      [
        "ch",
        "ed"
      ],
      [
        "Ġche",
        "ating"
      ],
      [
        "Ġk",
        "ne"
      ],
      [
        "ec",
        "e"
      ],
      [
        "urb",
        "ation"
      ],
      [
        "Ġde",
        "floration"
      ],
      [
        "t",
        "ume"
      ],
      [
        "Ġb",
        "reast"
      ],
      [
        "or",
        "s"
      ],
      [
        "em",
        "dom"
      ],
      [
        "j",
        "o"
      ],
      [
        "regn",
        "ation"
      ],
      [
        "ar",
        "chive"
      ],
      [
        "Ġg",
        "en"
      ],
      [
        "in",
        "s"
      ],
      [
        "Ġf",
        "ur"
      ],
      [
        "u",
        "c"
      ],
      [
        "em",
        "e"
      ],
      [
        "Ġk",
        "u"
      ],
      [
        "Ġ",
        "el"
      ],
      [
        "Ġm",
        "in"
      ],
      [
        "Ġsm",
        "all"
      ],
      [
        "al",
        "le"
      ],
      [
        "l",
        "in"
      ],
      [
        "Ġm",
        "us"
      ],
      [
        "mas",
        "ter"
      ],
      [
        "qu",
        "a"
      ],
      [
        "Ġ",
        "ra"
      ],
      [
        "re",
        "ad"
      ],
      [
        "s",
        "p"
      ],
      [
        "a",
        "ut"
      ],
      [
        "Ġs",
        "e"
      ],
      [
        "Ġ",
        "D"
      ],
      [
        "t",
        "y"
      ],
      [
        "Ġtw",
        "o"
      ],
      [
        "a",
        "o"
      ],
      [
        "ag",
        "i"
      ],
      [
        "un",
        "d"
      ],
      [
        "tr",
        "im"
      ],
      [
        "rou",
        "gh"
      ],
      [
        "ar",
        "ge"
      ],
      [
        "el",
        "se"
      ],
      [
        "k",
        "an"
      ],
      [
        "Ġf",
        "fm"
      ],
      [
        "s",
        "ur"
      ],
      [
        "cos",
        "tume"
      ],
      [
        "Ġm",
        "ind"
      ],
      [
        "i",
        "o"
      ],
      [
        "r",
        "ings"
      ],
      [
        "Ġl",
        "arge"
      ],
      [
        "chi",
        "e"
      ],
      [
        "Ġf",
        "l"
      ],
      [
        "g",
        "ra"
      ],
      [
        "b",
        "row"
      ],
      [
        "f",
        "ra"
      ],
      [
        "Ġin",
        "ter"
      ],
      [
        "ers",
        "on"
      ],
      [
        "u",
        "ge"
      ],
      [
        "Ġ",
        "em"
      ],
      [
        "im",
        "ono"
      ],
      [
        "Ġg",
        "loves"
      ],
      [
        "a",
        "f"
      ],
      [
        "Ġa",
        "qua"
      ],
      [
        "rag",
        "on"
      ],
      [
        "d",
        "e"
      ],
      [
        "le",
        "otard"
      ],
      [
        "om",
        "i"
      ],
      [
        "Ġver",
        "y"
      ],
      [
        "ik",
        "o"
      ],
      [
        "c",
        "ut"
      ],
      [
        "sweat",
        "er"
      ],
      [
        "Ġfril",
        "led"
      ],
      [
        "leg",
        "wear"
      ],
      [
        "o",
        "es"
      ],
      [
        "an",
        "im"
      ],
      [
        "boy",
        "s"
      ],
      [
        "at",
        "o"
      ],
      [
        "as",
        "u"
      ],
      [
        "Ġd",
        "ress"
      ],
      [
        "p",
        "antyhose"
      ],
      [
        "d",
        "i"
      ],
      [
        "n",
        "a"
      ],
      [
        "um",
        "a"
      ],
      [
        "tern",
        "ate"
      ],
      [
        "Ġf",
        "emdom"
      ],
      [
        "re",
        "quest"
      ],
      [
        "Ġs",
        "ak"
      ],
      [
        "Ġt",
        "om"
      ],
      [
        "Ġto",
        "ys"
      ],
      [
        "t",
        "ed"
      ],
      [
        "on",
        "s"
      ],
      [
        "d",
        "a"
      ],
      [
        "th",
        "rough"
      ],
      [
        "ub",
        "ic"
      ],
      [
        "Ġl",
        "ive"
      ],
      [
        "pi",
        "ece"
      ],
      [
        "b",
        "un"
      ],
      [
        "Ġmed",
        "ium"
      ],
      [
        "it",
        "ting"
      ],
      [
        "i",
        "i"
      ],
      [
        "Ġa",
        "b"
      ],
      [
        "g",
        "en"
      ],
      [
        "v",
        "ure"
      ],
      [
        "Ġimp",
        "regnation"
      ],
      [
        "Ġh",
        "ar"
      ],
      [
        "ak",
        "o"
      ],
      [
        "Ġch",
        "inese"
      ],
      [
        "Ġst",
        "ar"
      ],
      [
        "lo",
        "ck"
      ],
      [
        "Ġb",
        "ack"
      ],
      [
        "tr",
        "ol"
      ],
      [
        "os",
        "ho"
      ],
      [
        "Ġ",
        "7"
      ],
      [
        "is",
        "ter"
      ],
      [
        "pen",
        "is"
      ],
      [
        "ot",
        "osho"
      ],
      [
        "Ġun",
        "censored"
      ],
      [
        "Ġ",
        "up"
      ],
      [
        "m",
        "o"
      ],
      [
        "ap",
        "ron"
      ],
      [
        "i",
        "er"
      ],
      [
        "or",
        "e"
      ],
      [
        "Ġh",
        "uge"
      ],
      [
        "it",
        "ch"
      ],
      [
        "Ġbb",
        "m"
      ],
      [
        "u",
        "ck"
      ],
      [
        "p",
        "u"
      ],
      [
        "Ġ",
        "leg"
      ],
      [
        "r",
        "ist"
      ],
      [
        "h",
        "ou"
      ],
      [
        "n",
        "ame"
      ],
      [
        "y",
        "o"
      ],
      [
        "b",
        "all"
      ],
      [
        "y",
        "aru"
      ],
      [
        "Ġph",
        "otosho"
      ],
      [
        "n",
        "ails"
      ],
      [
        "cos",
        "play"
      ],
      [
        "ble",
        "m"
      ],
      [
        "Ġf",
        "rom"
      ],
      [
        "Ġ",
        "eye"
      ],
      [
        "Ġidol",
        "master"
      ],
      [
        "m",
        "ale"
      ],
      [
        "Ġ",
        "L"
      ],
      [
        "ail",
        "or"
      ],
      [
        "Ġs",
        "un"
      ],
      [
        "en",
        "d"
      ],
      [
        "al",
        "s"
      ],
      [
        "j",
        "apanese"
      ],
      [
        "l",
        "ing"
      ],
      [
        "Ġ",
        "ri"
      ],
      [
        "at",
        "ch"
      ],
      [
        "om",
        "ach"
      ],
      [
        "foot",
        "wear"
      ],
      [
        "p",
        "upils"
      ],
      [
        "Ġsm",
        "ile"
      ],
      [
        "er",
        "en"
      ],
      [
        "tom",
        "i"
      ],
      [
        "Ġt",
        "ail"
      ],
      [
        "gra",
        "b"
      ],
      [
        "l",
        "a"
      ],
      [
        "Ġm",
        "ark"
      ],
      [
        "ok",
        "er"
      ],
      [
        "Ġc",
        "losed"
      ],
      [
        "Ġb",
        "ondage"
      ],
      [
        "r",
        "u"
      ],
      [
        "Ġ",
        "am"
      ],
      [
        "Ġ",
        "|"
      ],
      [
        "ear",
        "rings"
      ],
      [
        "Ġh",
        "al"
      ],
      [
        "l",
        "ip"
      ],
      [
        "Ġsm",
        "ears"
      ],
      [
        "m",
        "et"
      ],
      [
        "color",
        "ed"
      ],
      [
        "lo",
        "ve"
      ],
      [
        "Ġb",
        "and"
      ],
      [
        "ok",
        "a"
      ],
      [
        "ob",
        "ject"
      ],
      [
        "Ġpan",
        "ties"
      ],
      [
        "od",
        "y"
      ],
      [
        "aut",
        "y"
      ],
      [
        "om",
        "imi"
      ],
      [
        "un",
        "a"
      ],
      [
        "hand",
        "s"
      ],
      [
        "at",
        "or"
      ],
      [
        "ves",
        "t"
      ],
      [
        "h",
        "ara"
      ],
      [
        "em",
        "blem"
      ],
      [
        "Ġgra",
        "vure"
      ],
      [
        "Ġc",
        "lothes"
      ],
      [
        "av",
        "el"
      ],
      [
        "ul",
        "ation"
      ],
      [
        "b",
        "etween"
      ],
      [
        "Ġ1",
        "0"
      ],
      [
        "at",
        "er"
      ],
      [
        "eri",
        "e"
      ],
      [
        "w",
        "ings"
      ],
      [
        "ast",
        "urbation"
      ],
      [
        "Ġt",
        "high"
      ],
      [
        "t",
        "at"
      ],
      [
        "Ġf",
        "ac"
      ],
      [
        "emon",
        "omimi"
      ],
      [
        "Ġphotosho",
        "ot"
      ],
      [
        "c",
        "our"
      ],
      [
        "cour",
        "se"
      ],
      [
        "g",
        "atari"
      ],
      [
        "ap",
        "ed"
      ],
      [
        "ut",
        "an"
      ],
      [
        "w",
        "orn"
      ],
      [
        "Ġh",
        "ood"
      ],
      [
        "Ġst",
        "and"
      ],
      [
        "brow",
        "s"
      ],
      [
        "p",
        "os"
      ],
      [
        "ph",
        "one"
      ],
      [
        "Ġl",
        "ight"
      ],
      [
        "Ġ",
        "u"
      ],
      [
        "Ġslee",
        "ve"
      ],
      [
        "sh",
        "aped"
      ],
      [
        "Ġk",
        "an"
      ],
      [
        "lin",
        "es"
      ],
      [
        "ono",
        "gatari"
      ],
      [
        "i",
        "ble"
      ],
      [
        "Ġstand",
        "ing"
      ],
      [
        "v",
        "en"
      ],
      [
        "Ġsp",
        "read"
      ],
      [
        "alle",
        "ry"
      ],
      [
        "ok",
        "e"
      ],
      [
        "il",
        "ing"
      ],
      [
        "j",
        "u"
      ],
      [
        "Ġnipple",
        "s"
      ],
      [
        "to",
        "o"
      ],
      [
        "Ġk",
        "o"
      ],
      [
        "Ġst",
        "ra"
      ],
      [
        "v",
        "is"
      ],
      [
        "ĠV",
        "A"
      ],
      [
        "b",
        "ol"
      ],
      [
        "arm",
        "s"
      ],
      [
        "m",
        "f"
      ],
      [
        "Ġj",
        "e"
      ],
      [
        "Ġarm",
        "s"
      ],
      [
        "Ġmulti",
        "colored"
      ],
      [
        "Ġhi",
        "tomi"
      ],
      [
        "Ġ",
        "i"
      ],
      [
        "h",
        "orns"
      ],
      [
        "cl",
        "ub"
      ],
      [
        "ĠS",
        "ole"
      ],
      [
        "Ġg",
        "yaru"
      ],
      [
        "Ġsh",
        "in"
      ],
      [
        "Ġp",
        "ar"
      ],
      [
        "unn",
        "y"
      ],
      [
        "f",
        "lower"
      ],
      [
        "ok",
        "o"
      ],
      [
        "p",
        "okemon"
      ],
      [
        "Ġs",
        "itting"
      ],
      [
        "ro",
        "p"
      ],
      [
        "re",
        "ak"
      ],
      [
        "it",
        "a"
      ],
      [
        "b",
        "er"
      ],
      [
        "ong",
        "ue"
      ],
      [
        "sur",
        "d"
      ],
      [
        "Ġbe",
        "auty"
      ],
      [
        "as",
        "k"
      ],
      [
        "d",
        "own"
      ],
      [
        "ond",
        "e"
      ],
      [
        "b",
        "reast"
      ],
      [
        "Ġf",
        "ire"
      ],
      [
        "Ġt",
        "orn"
      ],
      [
        "Ġt",
        "an"
      ],
      [
        "sh",
        "ot"
      ],
      [
        "on",
        "ly"
      ],
      [
        "ing",
        "erie"
      ],
      [
        "st",
        "rap"
      ],
      [
        "ou",
        "n"
      ],
      [
        "Ġg",
        "allery"
      ],
      [
        "Ġ",
        "low"
      ],
      [
        "Ġsleeve",
        "less"
      ],
      [
        "bo",
        "ots"
      ],
      [
        "d",
        "ou"
      ],
      [
        "br",
        "aid"
      ],
      [
        "Ġab",
        "surd"
      ],
      [
        "e",
        "p"
      ],
      [
        "r",
        "is"
      ],
      [
        "y",
        "le"
      ],
      [
        "Ġf",
        "ace"
      ],
      [
        "f",
        "orm"
      ],
      [
        "sei",
        "yuu"
      ],
      [
        "Ġy",
        "uri"
      ],
      [
        "c",
        "over"
      ],
      [
        "Ġp",
        "okemon"
      ],
      [
        "es",
        "ti"
      ],
      [
        "Ġbl",
        "onde"
      ],
      [
        "Ġinter",
        "course"
      ],
      [
        "Ġ",
        "ad"
      ],
      [
        "Ġp",
        "ussy"
      ],
      [
        "Ġcom",
        "mentary"
      ],
      [
        "m",
        "ark"
      ],
      [
        "m",
        "aid"
      ],
      [
        "Ġd",
        "emon"
      ],
      [
        "utan",
        "ari"
      ],
      [
        "Ġm",
        "ole"
      ],
      [
        "Ġ",
        "U"
      ],
      [
        "s",
        "ocks"
      ],
      [
        "Ġgra",
        "bb"
      ],
      [
        "w",
        "i"
      ],
      [
        "m",
        "i"
      ],
      [
        "å",
        "¹"
      ],
      [
        "Ġal",
        "ternate"
      ],
      [
        "t",
        "one"
      ],
      [
        "Ġ",
        "ribbon"
      ],
      [
        "Ġunder",
        "wear"
      ],
      [
        "Ġabsurd",
        "res"
      ],
      [
        "Ġs",
        "ister"
      ],
      [
        "Ġs",
        "en"
      ],
      [
        "Ġgrabb",
        "ing"
      ],
      [
        "Ġfo",
        "od"
      ],
      [
        "s",
        "ole"
      ],
      [
        "y",
        "ama"
      ],
      [
        "es",
        "hi"
      ],
      [
        "or",
        "a"
      ],
      [
        "e",
        "th"
      ],
      [
        "el",
        "f"
      ],
      [
        "iling",
        "us"
      ],
      [
        "å¹",
        "´"
      ],
      [
        "ay",
        "a"
      ],
      [
        "Ġm",
        "asturbation"
      ],
      [
        "Ġun",
        "worn"
      ],
      [
        "av",
        "age"
      ],
      [
        "u",
        "u"
      ],
      [
        "or",
        "y"
      ],
      [
        "bow",
        "tie"
      ],
      [
        "Ġc",
        "o"
      ],
      [
        "Ġm",
        "an"
      ],
      [
        "Ġb",
        "elt"
      ],
      [
        "im",
        "p"
      ],
      [
        "Ġm",
        "ilf"
      ],
      [
        "a",
        "u"
      ],
      [
        "Ġb",
        "ut"
      ],
      [
        "Ġh",
        "at"
      ],
      [
        "b",
        "ag"
      ],
      [
        "p",
        "onytail"
      ],
      [
        "e",
        "i"
      ],
      [
        "ar",
        "ter"
      ],
      [
        "Ġh",
        "orns"
      ],
      [
        "j",
        "ou"
      ],
      [
        "Ġf",
        "u"
      ],
      [
        "ap",
        "on"
      ],
      [
        "ons",
        "ter"
      ],
      [
        "k",
        "ai"
      ],
      [
        "å",
        "ı"
      ],
      [
        "hair",
        "band"
      ],
      [
        "n",
        "ijigasaki"
      ],
      [
        "ar",
        "ound"
      ],
      [
        "ĠB",
        "ig"
      ],
      [
        "w",
        "el"
      ],
      [
        "g",
        "u"
      ],
      [
        "r",
        "un"
      ],
      [
        "Ġcloth",
        "ed"
      ],
      [
        "p",
        "ussy"
      ],
      [
        "im",
        "ple"
      ],
      [
        "t",
        "u"
      ],
      [
        "al",
        "d"
      ],
      [
        "Ġcle",
        "avage"
      ],
      [
        "Ġ",
        "K"
      ],
      [
        "t",
        "ch"
      ],
      [
        "hi",
        "bi"
      ],
      [
        "Ġ",
        "ak"
      ],
      [
        "Ġk",
        "emonomimi"
      ],
      [
        "ach",
        "er"
      ],
      [
        "ple",
        "ss"
      ],
      [
        "up",
        "er"
      ],
      [
        "unn",
        "ilingus"
      ],
      [
        "ab",
        "ric"
      ],
      [
        "com",
        "mentary"
      ],
      [
        "Ġcro",
        "p"
      ],
      [
        "ri",
        "d"
      ],
      [
        "Ġfinger",
        "ing"
      ],
      [
        "åı",
        "·"
      ],
      [
        "all",
        "y"
      ],
      [
        "t",
        "w"
      ],
      [
        "l",
        "ong"
      ],
      [
        "g",
        "o"
      ],
      [
        "Ġp",
        "res"
      ],
      [
        "us",
        "ual"
      ],
      [
        "b",
        "elt"
      ],
      [
        "m",
        "ilf"
      ],
      [
        "n",
        "i"
      ],
      [
        "Ġd",
        "ick"
      ],
      [
        "re",
        "at"
      ],
      [
        "hibi",
        "tion"
      ],
      [
        "z",
        "u"
      ],
      [
        "hibition",
        "ism"
      ],
      [
        "m",
        "in"
      ],
      [
        "ik",
        "i"
      ],
      [
        "Ġku",
        "ro"
      ],
      [
        "Ġpl",
        "aid"
      ],
      [
        "il",
        "l"
      ],
      [
        "Ġcon",
        "trol"
      ],
      [
        "Ġh",
        "an"
      ],
      [
        "ur",
        "u"
      ],
      [
        "Ġk",
        "ip"
      ],
      [
        "ick",
        "ing"
      ],
      [
        "trim",
        "med"
      ],
      [
        "ak",
        "adashi"
      ],
      [
        "cut",
        "out"
      ],
      [
        "Ġkip",
        "pu"
      ],
      [
        "s",
        "m"
      ],
      [
        "Ġm",
        "aid"
      ],
      [
        "or",
        "u"
      ],
      [
        "Ġn",
        "avel"
      ],
      [
        "ub",
        "ble"
      ],
      [
        "or",
        "der"
      ],
      [
        "ic",
        "al"
      ],
      [
        "al",
        "k"
      ],
      [
        "wor",
        "d"
      ],
      [
        "ad",
        "e"
      ],
      [
        "Ġk",
        "issing"
      ],
      [
        "r",
        "ai"
      ],
      [
        "Ġl",
        "i"
      ],
      [
        "head",
        "wear"
      ],
      [
        "co",
        "at"
      ],
      [
        "Ġf",
        "abric"
      ],
      [
        "Ġon",
        "ly"
      ],
      [
        "Ġa",
        "f"
      ],
      [
        "lip",
        "s"
      ],
      [
        "bb",
        "it"
      ],
      [
        "ho",
        "od"
      ],
      [
        "Ġar",
        "e"
      ],
      [
        "Ġsc",
        "ar"
      ],
      [
        "ik",
        "u"
      ],
      [
        "Ġm",
        "mf"
      ],
      [
        "ag",
        "inal"
      ],
      [
        "c",
        "losed"
      ],
      [
        "Ġl",
        "ingerie"
      ],
      [
        "act",
        "ation"
      ],
      [
        "d",
        "uc"
      ],
      [
        "Ġf",
        "ish"
      ],
      [
        "ol",
        "ae"
      ],
      [
        "uk",
        "e"
      ],
      [
        "le",
        "c"
      ],
      [
        "d",
        "d"
      ],
      [
        "Ġfo",
        "ot"
      ],
      [
        "ãĥ",
        "³"
      ],
      [
        "i",
        "x"
      ],
      [
        "im",
        "e"
      ],
      [
        "Ġs",
        "imple"
      ],
      [
        "Ġ",
        "legs"
      ],
      [
        "ti",
        "c"
      ],
      [
        "Ġt",
        "ongue"
      ],
      [
        "Ġpo",
        "in"
      ],
      [
        "Ġb",
        "ra"
      ],
      [
        "n",
        "ipple"
      ],
      [
        "Ġpro",
        "duc"
      ],
      [
        "Ġp",
        "ol"
      ],
      [
        "te",
        "eth"
      ],
      [
        "Ġ",
        "ai"
      ],
      [
        "art",
        "ed"
      ],
      [
        "n",
        "ude"
      ],
      [
        "sti",
        "ck"
      ],
      [
        "imp",
        "act"
      ],
      [
        "el",
        "s"
      ],
      [
        "ad",
        "a"
      ],
      [
        "do",
        "ors"
      ],
      [
        "fra",
        "me"
      ],
      [
        "Ġt",
        "en"
      ],
      [
        "Ġf",
        "ate"
      ],
      [
        "s",
        "en"
      ],
      [
        "st",
        "yle"
      ],
      [
        "l",
        "ine"
      ],
      [
        "ri",
        "p"
      ],
      [
        "neck",
        "tie"
      ],
      [
        "Ġm",
        "a"
      ],
      [
        "e",
        "ek"
      ],
      [
        "Ġb",
        "ody"
      ],
      [
        "c",
        "ess"
      ],
      [
        "an",
        "ce"
      ],
      [
        "Ġt",
        "s"
      ],
      [
        "ek",
        "ai"
      ],
      [
        "p",
        "ubic"
      ],
      [
        "sti",
        "tu"
      ],
      [
        "Ġp",
        "rint"
      ],
      [
        "Ġm",
        "ar"
      ],
      [
        "m",
        "er"
      ],
      [
        "Ġ202",
        "3"
      ],
      [
        "stitu",
        "tion"
      ],
      [
        "Ġw",
        "et"
      ],
      [
        "st",
        "ar"
      ],
      [
        "Ġaf",
        "ter"
      ],
      [
        "Ġm",
        "il"
      ],
      [
        "sh",
        "oes"
      ],
      [
        "wel",
        "ry"
      ],
      [
        "Ġdick",
        "girl"
      ],
      [
        "Ġp",
        "upils"
      ],
      [
        "Ġd",
        "ragon"
      ],
      [
        "un",
        "e"
      ],
      [
        "ok",
        "i"
      ],
      [
        "p",
        "y"
      ],
      [
        "Ġs",
        "n"
      ],
      [
        "ry",
        "ing"
      ],
      [
        "Ġfe",
        "et"
      ],
      [
        "und",
        "am"
      ],
      [
        "re",
        "t"
      ],
      [
        "s",
        "an"
      ],
      [
        "Ġn",
        "ijigasaki"
      ],
      [
        "Ġkne",
        "e"
      ],
      [
        "eye",
        "brows"
      ],
      [
        "Ġbr",
        "aid"
      ],
      [
        "sk",
        "y"
      ],
      [
        "c",
        "ape"
      ],
      [
        "ic",
        "ial"
      ],
      [
        "igh",
        "ting"
      ],
      [
        "Ġp",
        "uff"
      ],
      [
        "qu",
        "id"
      ],
      [
        "Ġm",
        "id"
      ],
      [
        "p",
        "a"
      ],
      [
        "Ġl",
        "y"
      ],
      [
        "Ġl",
        "icking"
      ],
      [
        "Ġsh",
        "orts"
      ],
      [
        "ch",
        "oker"
      ],
      [
        "Ġt",
        "hi"
      ],
      [
        "Ġup",
        "per"
      ],
      [
        "Ġra",
        "bbit"
      ],
      [
        "p",
        "s"
      ],
      [
        "i",
        "an"
      ],
      [
        "m",
        "ing"
      ],
      [
        "Ġ",
        "ay"
      ],
      [
        "Ġb",
        "ald"
      ],
      [
        "Ġsweat",
        "ing"
      ],
      [
        "h",
        "on"
      ],
      [
        "Ġy",
        "oshi"
      ],
      [
        "n",
        "er"
      ],
      [
        "Ġn",
        "ude"
      ],
      [
        "Ġf",
        "ake"
      ],
      [
        "Ġs",
        "ti"
      ],
      [
        "ig",
        "an"
      ],
      [
        "Ġn",
        "i"
      ],
      [
        "q",
        "ue"
      ],
      [
        "y",
        "uki"
      ],
      [
        "Ġt",
        "ank"
      ],
      [
        "Ġj",
        "acket"
      ],
      [
        "gen",
        "shin"
      ],
      [
        "er",
        "u"
      ],
      [
        "Ġex",
        "hibitionism"
      ],
      [
        "ch",
        "est"
      ],
      [
        "Ġw",
        "ater"
      ],
      [
        "Ġte",
        "acher"
      ],
      [
        "ric",
        "al"
      ],
      [
        "Ġpar",
        "ti"
      ],
      [
        "hi",
        "ro"
      ],
      [
        "g",
        "y"
      ],
      [
        "el",
        "d"
      ],
      [
        "uk",
        "o"
      ],
      [
        "a",
        "ble"
      ],
      [
        "ig",
        "n"
      ],
      [
        "Ġje",
        "welry"
      ],
      [
        "Ġm",
        "ush"
      ],
      [
        "m",
        "ai"
      ],
      [
        "o",
        "h"
      ],
      [
        "Ġb",
        "lo"
      ],
      [
        "ai",
        "st"
      ],
      [
        "Ġg",
        "r"
      ],
      [
        "Ġcl",
        "ub"
      ],
      [
        "nipple",
        "s"
      ],
      [
        "ol",
        "l"
      ],
      [
        "Ġsm",
        "oke"
      ],
      [
        "æ",
        "ľ"
      ],
      [
        "un",
        "ge"
      ],
      [
        "Ġcover",
        "ed"
      ],
      [
        "Ġp",
        "arted"
      ],
      [
        "Ġun",
        "usual"
      ],
      [
        "m",
        "eme"
      ],
      [
        "g",
        "in"
      ],
      [
        "d",
        "rop"
      ],
      [
        "k",
        "imono"
      ],
      [
        "bot",
        "tom"
      ],
      [
        "Ġ",
        "out"
      ],
      [
        "o",
        "i"
      ],
      [
        "Ġst",
        "omach"
      ],
      [
        "g",
        "er"
      ],
      [
        "t",
        "ub"
      ],
      [
        "ad",
        "ow"
      ],
      [
        "Ġc",
        "unnilingus"
      ],
      [
        "ten",
        "sei"
      ],
      [
        "ĠU",
        "n"
      ],
      [
        "ot",
        "e"
      ],
      [
        "Ġpuff",
        "y"
      ],
      [
        "p",
        "o"
      ],
      [
        "Ġt",
        "highhighs"
      ],
      [
        "c",
        "ro"
      ],
      [
        "Ġc",
        "reat"
      ],
      [
        "Ġs",
        "ome"
      ],
      [
        "Ġk",
        "az"
      ],
      [
        "!",
        ")"
      ],
      [
        "run",
        "chie"
      ],
      [
        "b",
        "a"
      ],
      [
        "Ġk",
        "ir"
      ],
      [
        "rin",
        "cess"
      ],
      [
        "Ġoff",
        "icial"
      ],
      [
        "ro",
        "om"
      ],
      [
        "t",
        "ain"
      ],
      [
        "Ġ",
        "E"
      ],
      [
        "Ġs",
        "qu"
      ],
      [
        "ant",
        "as"
      ],
      [
        "Ġ",
        "8"
      ],
      [
        "Ġle",
        "otard"
      ],
      [
        "Ġ",
        "ur"
      ],
      [
        "an",
        "ing"
      ],
      [
        "Ġpro",
        "stitution"
      ],
      [
        "Ġhar",
        "em"
      ],
      [
        "Ġtransl",
        "ation"
      ],
      [
        "ĠM",
        "osaic"
      ],
      [
        "Ġ",
        "ou"
      ],
      [
        "unge",
        "on"
      ],
      [
        "s",
        "ome"
      ],
      [
        "ĠB",
        "lowjob"
      ],
      [
        "Ġli",
        "quid"
      ],
      [
        "Ġd",
        "og"
      ],
      [
        "or",
        "o"
      ],
      [
        "ym",
        "met"
      ],
      [
        "Ġhal",
        "f"
      ],
      [
        "to",
        "ge"
      ],
      [
        "vis",
        "ible"
      ],
      [
        "a",
        "lo"
      ],
      [
        "re",
        "e"
      ],
      [
        "n",
        "al"
      ],
      [
        "lock",
        "s"
      ],
      [
        "un",
        "t"
      ],
      [
        "g",
        "un"
      ],
      [
        "Ġ",
        "I"
      ],
      [
        "toge",
        "ther"
      ],
      [
        "ik",
        "e"
      ],
      [
        "Ġ",
        "aki"
      ],
      [
        "ver",
        "se"
      ],
      [
        "k",
        "e"
      ],
      [
        "k",
        "en"
      ],
      [
        "r",
        "en"
      ],
      [
        "ĠN",
        "akadashi"
      ],
      [
        "le",
        "r"
      ],
      [
        "ik",
        "a"
      ],
      [
        "Ġar",
        "chive"
      ],
      [
        "ach",
        "ed"
      ],
      [
        "ir",
        "gin"
      ],
      [
        "Ġl",
        "actation"
      ],
      [
        "Ġare",
        "olae"
      ],
      [
        "wi",
        "th"
      ],
      [
        "Ġc",
        "am"
      ],
      [
        "et",
        "ached"
      ],
      [
        "g",
        "i"
      ],
      [
        "hand",
        "job"
      ],
      [
        "ymmet",
        "rical"
      ],
      [
        "il",
        "low"
      ],
      [
        "Ġmush",
        "oku"
      ],
      [
        "sc",
        "ar"
      ],
      [
        "sy",
        "m"
      ],
      [
        "ri",
        "eren"
      ],
      [
        "Ġt",
        "ou"
      ],
      [
        "Ġcolor",
        "ed"
      ],
      [
        "ur",
        "es"
      ],
      [
        "p",
        "erson"
      ],
      [
        "Ġ",
        "en"
      ],
      [
        "as",
        "ide"
      ],
      [
        "Ġb",
        "reak"
      ],
      [
        "Ġde",
        "ep"
      ],
      [
        "c",
        "ap"
      ],
      [
        "Ġnak",
        "ed"
      ],
      [
        "c",
        "y"
      ],
      [
        "s",
        "ailor"
      ],
      [
        "k",
        "ing"
      ],
      [
        "Ġslee",
        "ping"
      ],
      [
        "antas",
        "y"
      ],
      [
        "ent",
        "ac"
      ],
      [
        "Ġ",
        "er"
      ],
      [
        "er",
        "ed"
      ],
      [
        "Ġc",
        "ar"
      ],
      [
        "b",
        "re"
      ],
      [
        "il",
        "ming"
      ],
      [
        "m",
        "ulation"
      ],
      [
        "Ġ202",
        "2"
      ],
      [
        "Ġm",
        "ag"
      ],
      [
        "os",
        "h"
      ],
      [
        "b",
        "ar"
      ],
      [
        "Ġw",
        "e"
      ],
      [
        "Ġcloth",
        "ing"
      ],
      [
        "Ġ",
        "and"
      ],
      [
        "dress",
        "ing"
      ],
      [
        "Ġ",
        "ve"
      ],
      [
        "Ġm",
        "onster"
      ],
      [
        "bl",
        "ush"
      ],
      [
        "Ġmo",
        "ther"
      ],
      [
        "ink",
        "ing"
      ],
      [
        "pi",
        "ts"
      ],
      [
        "at",
        "io"
      ],
      [
        "Ġparti",
        "ally"
      ],
      [
        "Ġf",
        "lower"
      ],
      [
        "ho",
        "ge"
      ],
      [
        "ok",
        "en"
      ],
      [
        "Ġs",
        "al"
      ],
      [
        "t",
        "ra"
      ],
      [
        "Ġsak",
        "ura"
      ],
      [
        "Ġcreat",
        "ures"
      ],
      [
        "Ġf",
        "or"
      ],
      [
        "m",
        "ail"
      ],
      [
        "Ġp",
        "erson"
      ],
      [
        "Ġcover",
        "ing"
      ],
      [
        "Ġd",
        "en"
      ],
      [
        "Ġb",
        "ur"
      ],
      [
        "x",
        "t"
      ],
      [
        "l",
        "i"
      ],
      [
        "sh",
        "ou"
      ],
      [
        "bo",
        "x"
      ],
      [
        "Ġy",
        "am"
      ],
      [
        "ir",
        "i"
      ],
      [
        "Ġw",
        "a"
      ],
      [
        "Ġ",
        "R"
      ],
      [
        "Ġsp",
        "oken"
      ],
      [
        "x",
        "iv"
      ],
      [
        "Ġmus",
        "cle"
      ],
      [
        "pi",
        "er"
      ],
      [
        "Ġs",
        "ee"
      ],
      [
        "w",
        "o"
      ],
      [
        "Ġ",
        "ag"
      ],
      [
        "Ġcensor",
        "ed"
      ],
      [
        "r",
        "ack"
      ],
      [
        "b",
        "on"
      ],
      [
        "f",
        "ire"
      ],
      [
        "uff",
        "s"
      ],
      [
        "Ġsu",
        "it"
      ],
      [
        "b",
        "one"
      ],
      [
        "ur",
        "ry"
      ],
      [
        "Ġfac",
        "ial"
      ],
      [
        "om",
        "o"
      ],
      [
        "Ġb",
        "ang"
      ],
      [
        "Ġd",
        "ungeon"
      ],
      [
        "Ġg",
        "old"
      ],
      [
        "Ġschool",
        "boy"
      ],
      [
        "r",
        "ight"
      ],
      [
        "Ġ",
        "us"
      ],
      [
        "Ġp",
        "anty"
      ],
      [
        "ra",
        "w"
      ],
      [
        "er",
        "tion"
      ],
      [
        "m",
        "at"
      ],
      [
        "Ġ",
        "Y"
      ],
      [
        "ard",
        "igan"
      ],
      [
        "ec",
        "tion"
      ],
      [
        "shoulder",
        "s"
      ],
      [
        "anim",
        "al"
      ],
      [
        "igh",
        "ter"
      ],
      [
        "Ġd",
        "etached"
      ],
      [
        "j",
        "im"
      ],
      [
        "pier",
        "cing"
      ],
      [
        "in",
        "ation"
      ],
      [
        "uk",
        "k"
      ],
      [
        "Ġcrop",
        "ped"
      ],
      [
        "Ġsh",
        "oulder"
      ],
      [
        "f",
        "old"
      ],
      [
        "g",
        "as"
      ],
      [
        "Ġg",
        "ro"
      ],
      [
        "l",
        "ace"
      ],
      [
        "Ġt",
        "su"
      ],
      [
        "ĠS",
        "chool"
      ],
      [
        "irgin",
        "ity"
      ],
      [
        "Ġsweat",
        "er"
      ],
      [
        "pi",
        "xiv"
      ],
      [
        "Ġm",
        "ak"
      ],
      [
        "chie",
        "f"
      ],
      [
        "Ġf",
        "ighting"
      ],
      [
        "ab",
        "e"
      ],
      [
        "Ġl",
        "ace"
      ],
      [
        "sym",
        "bol"
      ],
      [
        "Ġcross",
        "ed"
      ],
      [
        "Ġstra",
        "pless"
      ],
      [
        "Ġpo",
        "v"
      ],
      [
        "at",
        "ure"
      ],
      [
        "Ġhand",
        "job"
      ],
      [
        "unn",
        "ing"
      ],
      [
        "Ġas",
        "ymmetrical"
      ],
      [
        "dou",
        "jinshi"
      ],
      [
        "ukk",
        "ake"
      ],
      [
        "di",
        "ent"
      ],
      [
        "ro",
        "at"
      ],
      [
        "er",
        "chief"
      ],
      [
        "f",
        "inger"
      ],
      [
        "Ġgra",
        "dient"
      ],
      [
        "!",
        "!"
      ],
      [
        "bo",
        "ob"
      ],
      [
        "av",
        "y"
      ],
      [
        "z",
        "uki"
      ],
      [
        "te",
        "xt"
      ],
      [
        "ic",
        "ro"
      ],
      [
        "et",
        "ero"
      ],
      [
        "Ġm",
        "or"
      ],
      [
        "Ġv",
        "aginal"
      ],
      [
        "ier",
        "cing"
      ],
      [
        "Ġr",
        "unning"
      ],
      [
        "ĠN",
        "o"
      ],
      [
        "l",
        "d"
      ],
      [
        "t",
        "ak"
      ],
      [
        "Ġblack",
        "mail"
      ],
      [
        "tat",
        "too"
      ],
      [
        "g",
        "g"
      ],
      [
        "ad",
        "em"
      ],
      [
        "Ġto",
        "p"
      ],
      [
        "Ġb",
        "ed"
      ],
      [
        "Ġc",
        "ur"
      ],
      [
        "ar",
        "ou"
      ],
      [
        "Ġmi",
        "y"
      ],
      [
        "th",
        "roat"
      ],
      [
        "Ġo",
        "ver"
      ],
      [
        "t",
        "on"
      ],
      [
        "f",
        "lo"
      ],
      [
        "um",
        "ed"
      ],
      [
        "Ġf",
        "ilming"
      ],
      [
        "f",
        "e"
      ],
      [
        "f",
        "rom"
      ],
      [
        "Ġ",
        "os"
      ],
      [
        "Ġbo",
        "ots"
      ],
      [
        "Ġpres",
        "umed"
      ],
      [
        "Ġh",
        "etero"
      ],
      [
        "w",
        "ard"
      ],
      [
        "as",
        "a"
      ],
      [
        "ou",
        "gh"
      ],
      [
        "mas",
        "k"
      ],
      [
        "ch",
        "air"
      ],
      [
        "Ġs",
        "uper"
      ],
      [
        "d",
        "ot"
      ],
      [
        "m",
        "eshi"
      ],
      [
        "Ġle",
        "aning"
      ],
      [
        "Ġd",
        "an"
      ],
      [
        "Ġg",
        "u"
      ],
      [
        "b",
        "ell"
      ],
      [
        "re",
        "am"
      ],
      [
        "p",
        "ress"
      ],
      [
        "m",
        "ag"
      ],
      [
        "Ġ",
        "J"
      ],
      [
        "Ġp",
        "er"
      ],
      [
        "bo",
        "ok"
      ],
      [
        "b",
        "ubble"
      ],
      [
        "w",
        "aist"
      ],
      [
        "Ġw",
        "ide"
      ],
      [
        "o",
        "y"
      ],
      [
        "ch",
        "a"
      ],
      [
        "Ġw",
        "ind"
      ],
      [
        "Ġm",
        "ake"
      ],
      [
        "Ġk",
        "iz"
      ],
      [
        "u",
        "chi"
      ],
      [
        "Ġt",
        "all"
      ],
      [
        "Ġg",
        "undam"
      ],
      [
        "is",
        "ekai"
      ],
      [
        "ac",
        "adem"
      ],
      [
        "f",
        "t"
      ],
      [
        "censor",
        "ing"
      ],
      [
        "Ġw",
        "rist"
      ],
      [
        "Ġn",
        "on"
      ],
      [
        "ĠB",
        "reasts"
      ],
      [
        "Ġm",
        "ask"
      ],
      [
        "f",
        "or"
      ],
      [
        "p",
        "art"
      ],
      [
        "Ġk",
        "ag"
      ],
      [
        "gl",
        "asses"
      ],
      [
        "bo",
        "ard"
      ],
      [
        "ind",
        "fold"
      ],
      [
        "Ġou",
        "ts"
      ],
      [
        "ell",
        "atio"
      ],
      [
        "z",
        "a"
      ],
      [
        "Ġp",
        "e"
      ],
      [
        "Ġg",
        "arter"
      ],
      [
        "Ġpol",
        "ka"
      ],
      [
        "b",
        "us"
      ],
      [
        "n",
        "ed"
      ],
      [
        "im",
        "job"
      ],
      [
        "Ġhigh",
        "leg"
      ],
      [
        "Ġb",
        "ar"
      ],
      [
        "Ġt",
        "at"
      ],
      [
        "Ġthi",
        "ck"
      ],
      [
        "p",
        "ol"
      ],
      [
        "Ġpan",
        "ts"
      ],
      [
        "o",
        "c"
      ],
      [
        "p",
        "it"
      ],
      [
        "ron",
        "t"
      ],
      [
        "Ġ",
        "ear"
      ],
      [
        "col",
        "le"
      ],
      [
        "kan",
        "colle"
      ],
      [
        "j",
        "us"
      ],
      [
        "um",
        "p"
      ],
      [
        "i",
        "ed"
      ],
      [
        "Ġs",
        "ailor"
      ],
      [
        "Ġsp",
        "ik"
      ],
      [
        "regn",
        "ant"
      ],
      [
        "ut",
        "a"
      ],
      [
        "Ġbl",
        "urry"
      ],
      [
        "Ġst",
        "rap"
      ],
      [
        "gas",
        "m"
      ],
      [
        "us",
        "ume"
      ],
      [
        "ir",
        "ting"
      ],
      [
        "ace",
        "let"
      ],
      [
        "t",
        "highs"
      ],
      [
        "ap",
        "py"
      ],
      [
        "et",
        "te"
      ],
      [
        "Ġsh",
        "oes"
      ],
      [
        "Ġcollar",
        "ed"
      ],
      [
        "Ġt",
        "ata"
      ],
      [
        "Ġst",
        "e"
      ],
      [
        "Ġs",
        "l"
      ],
      [
        "hood",
        "ie"
      ],
      [
        "Ġar",
        "c"
      ],
      [
        "Ġb",
        "ag"
      ],
      [
        "Ġ",
        "ãĥ"
      ],
      [
        "Ġf",
        "utanari"
      ],
      [
        "l",
        "ight"
      ],
      [
        "Ġn",
        "ishi"
      ],
      [
        "k",
        "in"
      ],
      [
        "t",
        "an"
      ],
      [
        "Ġf",
        "lo"
      ],
      [
        "Ġm",
        "onogatari"
      ],
      [
        "Ġt",
        "ur"
      ],
      [
        "Ġf",
        "ang"
      ],
      [
        "u",
        "ya"
      ],
      [
        "on",
        "es"
      ],
      [
        "Ġa",
        "hoge"
      ],
      [
        "scar",
        "f"
      ],
      [
        "Ġst",
        "ory"
      ],
      [
        "con",
        "n"
      ],
      [
        "Ġ",
        ";"
      ],
      [
        "Ġm",
        "outh"
      ],
      [
        "w",
        "itch"
      ],
      [
        "Ġlo",
        "ck"
      ],
      [
        "ow",
        "el"
      ],
      [
        "lec",
        "tion"
      ],
      [
        "æľ",
        "Ī"
      ],
      [
        "n",
        "ched"
      ],
      [
        "Ġcle",
        "nched"
      ],
      [
        "ãĤ",
        "¤"
      ],
      [
        "end",
        "s"
      ],
      [
        "sc",
        "runchie"
      ],
      [
        "aic",
        "e"
      ],
      [
        "Ġt",
        "ee"
      ],
      [
        "k",
        "un"
      ],
      [
        "s",
        "ion"
      ],
      [
        "Ġdeep",
        "throat"
      ],
      [
        "Ġp",
        "iercing"
      ],
      [
        "Ġ",
        "earrings"
      ],
      [
        "body",
        "suit"
      ],
      [
        "Ġtee",
        "th"
      ],
      [
        "z",
        "uku"
      ],
      [
        "entac",
        "les"
      ],
      [
        "Ġk",
        "imono"
      ],
      [
        "tat",
        "aice"
      ],
      [
        "er",
        "v"
      ],
      [
        "it",
        "ary"
      ],
      [
        "flo",
        "or"
      ],
      [
        "Ġpl",
        "ay"
      ],
      [
        "a",
        "h"
      ],
      [
        "Ġm",
        "icro"
      ],
      [
        "pe",
        "ek"
      ],
      [
        "Ġad",
        "jus"
      ],
      [
        "Ġk",
        "ar"
      ],
      [
        "0",
        "3"
      ],
      [
        "z",
        "ero"
      ],
      [
        "o",
        "e"
      ],
      [
        "Ġadjus",
        "ting"
      ],
      [
        "Ġp",
        "et"
      ],
      [
        "Ġp",
        "le"
      ],
      [
        "us",
        "a"
      ],
      [
        "l",
        "s"
      ],
      [
        "Ġs",
        "ocks"
      ],
      [
        "Ġt",
        "ri"
      ],
      [
        "Ġband",
        "aid"
      ],
      [
        "am",
        "ura"
      ],
      [
        "v",
        "il"
      ],
      [
        "ti",
        "ve"
      ],
      [
        "Ġh",
        "or"
      ],
      [
        "Ġon",
        "ii"
      ],
      [
        "ĠP",
        "aizuri"
      ],
      [
        "Ġs",
        "at"
      ],
      [
        "Ġtan",
        "lines"
      ],
      [
        "mat",
        "eri"
      ],
      [
        "Ġb",
        "unny"
      ],
      [
        "p",
        "ar"
      ],
      [
        "our",
        "ce"
      ],
      [
        "Ġ",
        "W"
      ],
      [
        "Ġb",
        "ot"
      ],
      [
        "d",
        "ing"
      ],
      [
        "z",
        "er"
      ],
      [
        "b",
        "order"
      ],
      [
        "Ġside",
        "locks"
      ],
      [
        "to",
        "y"
      ],
      [
        "he",
        "els"
      ],
      [
        "b",
        "y"
      ],
      [
        "Ġbare",
        "foot"
      ],
      [
        "Ġp",
        "ubic"
      ],
      [
        "in",
        "ter"
      ],
      [
        "Ġly",
        "ing"
      ],
      [
        "Ġh",
        "ug"
      ],
      [
        "Ġple",
        "ated"
      ],
      [
        "c",
        "uffs"
      ],
      [
        "f",
        "antasy"
      ],
      [
        "iv",
        "a"
      ],
      [
        "ou",
        "bon"
      ],
      [
        "we",
        "apon"
      ],
      [
        "iss",
        "ion"
      ],
      [
        "ath",
        "ing"
      ],
      [
        "Ġm",
        "ik"
      ],
      [
        "m",
        "ar"
      ],
      [
        "ĠG",
        "roup"
      ],
      [
        "Ġproduc",
        "tion"
      ],
      [
        "Ġh",
        "appy"
      ],
      [
        "k",
        "ou"
      ],
      [
        "Ġk",
        "ono"
      ],
      [
        "Ġm",
        "on"
      ],
      [
        "to",
        "ck"
      ],
      [
        "ver",
        "ted"
      ],
      [
        "j",
        "ac"
      ],
      [
        "sl",
        "ip"
      ],
      [
        "ri",
        "ff"
      ],
      [
        "r",
        "um"
      ],
      [
        "w",
        "all"
      ],
      [
        "if",
        "e"
      ],
      [
        "z",
        "aki"
      ],
      [
        "tock",
        "ings"
      ],
      [
        "Ġs",
        "word"
      ],
      [
        "ĠSchool",
        "girl"
      ],
      [
        "Ġhi",
        "ro"
      ],
      [
        "n",
        "im"
      ],
      [
        "i",
        "tion"
      ],
      [
        "t",
        "ransl"
      ],
      [
        "materi",
        "als"
      ],
      [
        "Ġre",
        "verse"
      ],
      [
        "f",
        "uku"
      ],
      [
        "ch",
        "in"
      ],
      [
        "Ġm",
        "y"
      ],
      [
        "um",
        "onogatari"
      ],
      [
        "Ġkiz",
        "umonogatari"
      ],
      [
        "as",
        "umi"
      ],
      [
        "ap",
        "art"
      ],
      [
        "Ġb",
        "ukkake"
      ],
      [
        "au",
        "gh"
      ],
      [
        "cl",
        "ip"
      ],
      [
        "igh",
        "ts"
      ],
      [
        "ek",
        "o"
      ],
      [
        "ats",
        "uki"
      ],
      [
        "st",
        "omach"
      ],
      [
        "0",
        "0"
      ],
      [
        "arm",
        "or"
      ],
      [
        "Ġc",
        "os"
      ],
      [
        "Ġcollar",
        "bone"
      ],
      [
        "uff",
        "ed"
      ],
      [
        "u",
        "i"
      ],
      [
        "ou",
        "se"
      ],
      [
        "Ġs",
        "leeves"
      ],
      [
        "ou",
        "ch"
      ],
      [
        "Ġmake",
        "up"
      ],
      [
        "k",
        "u"
      ],
      [
        "ph",
        "ones"
      ],
      [
        "med",
        "ium"
      ],
      [
        "Ġsal",
        "iva"
      ],
      [
        "Ġdr",
        "inking"
      ],
      [
        "Ġc",
        "rying"
      ],
      [
        "ir",
        "u"
      ],
      [
        "Ġ",
        "9"
      ],
      [
        "ĠS",
        "tockings"
      ],
      [
        "pol",
        "ish"
      ],
      [
        "ug",
        "i"
      ],
      [
        "cover",
        "ing"
      ],
      [
        "fo",
        "od"
      ],
      [
        "as",
        "c"
      ],
      [
        "is",
        "e"
      ],
      [
        "p",
        "ose"
      ],
      [
        "ins",
        "ertion"
      ],
      [
        "r",
        "im"
      ],
      [
        "air",
        "y"
      ],
      [
        "Ġch",
        "ain"
      ],
      [
        "k",
        "n"
      ],
      [
        "Ġk",
        "am"
      ],
      [
        "Ġur",
        "ination"
      ],
      [
        "ĠJ",
        "apanese"
      ],
      [
        "h",
        "old"
      ],
      [
        "Ġb",
        "all"
      ],
      [
        "Ġs",
        "ym"
      ],
      [
        "s",
        "et"
      ],
      [
        "Ġm",
        "is"
      ],
      [
        "Ġt",
        "am"
      ],
      [
        "Ġbl",
        "unt"
      ],
      [
        "Ġmid",
        "riff"
      ],
      [
        "os",
        "s"
      ],
      [
        "jac",
        "ulation"
      ],
      [
        "ey",
        "el"
      ],
      [
        "Ġcro",
        "tch"
      ],
      [
        "ous",
        "ou"
      ],
      [
        "Ġtank",
        "oubon"
      ],
      [
        "il",
        "y"
      ],
      [
        "op",
        "y"
      ],
      [
        "m",
        "on"
      ],
      [
        "Ġblo",
        "od"
      ],
      [
        "Ġr",
        "imjob"
      ],
      [
        "Ġdr",
        "unk"
      ],
      [
        "Ġel",
        "bow"
      ],
      [
        "ic",
        "a"
      ],
      [
        "ch",
        "eek"
      ],
      [
        "Ġy",
        "uki"
      ],
      [
        "ensor",
        "ship"
      ],
      [
        "ĠC",
        "ensorship"
      ],
      [
        "Ġarm",
        "pits"
      ],
      [
        "Ġm",
        "ari"
      ],
      [
        "Ġs",
        "um"
      ],
      [
        "ap",
        "er"
      ],
      [
        "Ġin",
        "verted"
      ],
      [
        "skin",
        "ned"
      ],
      [
        "Ġs",
        "and"
      ],
      [
        "n",
        "ing"
      ],
      [
        "Ġb",
        "un"
      ],
      [
        "ak",
        "ura"
      ],
      [
        "Ġd",
        "i"
      ],
      [
        "ath",
        "er"
      ],
      [
        "l",
        "la"
      ],
      [
        "Ġn",
        "ose"
      ],
      [
        "Ġl",
        "ip"
      ],
      [
        "b",
        "ut"
      ],
      [
        "ĠI",
        "n"
      ],
      [
        "Ġt",
        "highs"
      ],
      [
        "k",
        "issing"
      ],
      [
        "Ġflo",
        "ating"
      ],
      [
        "or",
        "al"
      ],
      [
        "Ġbut",
        "t"
      ],
      [
        "Ġ",
        "at"
      ],
      [
        "f",
        "ighter"
      ],
      [
        "it",
        "t"
      ],
      [
        "sweat",
        "ing"
      ],
      [
        "em",
        "i"
      ],
      [
        "s",
        "qu"
      ],
      [
        "Ġn",
        "in"
      ],
      [
        "Ġg",
        "a"
      ],
      [
        "s",
        "iz"
      ],
      [
        "ju",
        "ice"
      ],
      [
        "ug",
        "s"
      ],
      [
        "Ġv",
        "irginity"
      ],
      [
        "ãĥ³",
        "ãĤ"
      ],
      [
        "or",
        "iginal"
      ],
      [
        "ou",
        "d"
      ],
      [
        "bot",
        "tle"
      ],
      [
        "tle",
        "neck"
      ],
      [
        "Ġ",
        "apron"
      ],
      [
        "Ġsk",
        "y"
      ],
      [
        "Ġy",
        "uk"
      ],
      [
        "Ġsym",
        "bol"
      ],
      [
        "s",
        "he"
      ],
      [
        "opy",
        "right"
      ],
      [
        "ock",
        "et"
      ],
      [
        "Ġwe",
        "apon"
      ],
      [
        "ang",
        "le"
      ],
      [
        "Ġcow",
        "boy"
      ],
      [
        "Ġsp",
        "ark"
      ],
      [
        "tw",
        "intails"
      ],
      [
        "re",
        "et"
      ],
      [
        "low",
        "ing"
      ],
      [
        "Ġsm",
        "ell"
      ],
      [
        "Ġel",
        "f"
      ],
      [
        "Ġneck",
        "tie"
      ],
      [
        "in",
        "u"
      ],
      [
        "fra",
        "med"
      ],
      [
        "ao",
        "i"
      ],
      [
        "ing",
        "ers"
      ],
      [
        "p",
        "ro"
      ],
      [
        "Ġk",
        "it"
      ],
      [
        "um",
        "bre"
      ],
      [
        "ow",
        "er"
      ],
      [
        "c",
        "il"
      ],
      [
        "Ġh",
        "alo"
      ],
      [
        "Ġos",
        "aka"
      ],
      [
        "c",
        "or"
      ],
      [
        "umbre",
        "lla"
      ],
      [
        "Ġfoot",
        "job"
      ],
      [
        "ag",
        "es"
      ],
      [
        "t",
        "high"
      ],
      [
        "Ġim",
        "min"
      ],
      [
        "Ġimmin",
        "ent"
      ],
      [
        "un",
        "o"
      ],
      [
        "t",
        "ai"
      ],
      [
        "ed",
        "ing"
      ],
      [
        "Ġfemale",
        "s"
      ],
      [
        "g",
        "ear"
      ],
      [
        "ts",
        "uki"
      ],
      [
        "Ġc",
        "opyright"
      ],
      [
        "un",
        "i"
      ],
      [
        "Ġtat",
        "too"
      ],
      [
        "form",
        "ation"
      ],
      [
        "nim",
        "ated"
      ],
      [
        "ek",
        "i"
      ],
      [
        "esti",
        "cle"
      ],
      [
        "pen",
        "etration"
      ],
      [
        "Ġb",
        "ound"
      ],
      [
        "sh",
        "ine"
      ],
      [
        "od",
        "e"
      ],
      [
        "Ġche",
        "ck"
      ],
      [
        "Ġnak",
        "ano"
      ],
      [
        "Ġbo",
        "ok"
      ],
      [
        "Ġp",
        "ix"
      ],
      [
        "Ġsh",
        "ar"
      ],
      [
        "st",
        "riped"
      ],
      [
        "Ġbb",
        "w"
      ],
      [
        "Ġ",
        "é"
      ],
      [
        "Ġst",
        "uffed"
      ],
      [
        "ra",
        "in"
      ],
      [
        "oshi",
        "mai"
      ],
      [
        "s",
        "aw"
      ],
      [
        "Ġspik",
        "ed"
      ],
      [
        "Ġ",
        "ok"
      ],
      [
        "Ġkne",
        "es"
      ],
      [
        "Ġsti",
        "mulation"
      ],
      [
        "Ġmil",
        "itary"
      ],
      [
        "i",
        "ation"
      ],
      [
        "Ġg",
        "ym"
      ],
      [
        "Ġor",
        "gasm"
      ],
      [
        "emon",
        "og"
      ],
      [
        "emonog",
        "atari"
      ],
      [
        "Ġgr",
        "and"
      ],
      [
        "ari",
        "ant"
      ],
      [
        "Ġp",
        "rincess"
      ],
      [
        "Ġk",
        "ou"
      ],
      [
        "Ġs",
        "er"
      ],
      [
        "Ġ",
        "iz"
      ],
      [
        "an",
        "s"
      ],
      [
        "Ġn",
        "ag"
      ],
      [
        "ri",
        "ting"
      ],
      [
        "pos",
        "ition"
      ],
      [
        "am",
        "oto"
      ],
      [
        "Ġyu",
        "uki"
      ],
      [
        "ol",
        "f"
      ],
      [
        "Ġtou",
        "hou"
      ],
      [
        "Ġ",
        "å"
      ],
      [
        "d",
        "an"
      ],
      [
        "f",
        "eren"
      ],
      [
        "Ġs",
        "w"
      ],
      [
        "Ġd",
        "is"
      ],
      [
        "d",
        "ragon"
      ],
      [
        "Ġk",
        "a"
      ],
      [
        "transl",
        "ated"
      ],
      [
        "Ġw",
        "avy"
      ],
      [
        "ret",
        "ched"
      ],
      [
        "Ġt",
        "ears"
      ],
      [
        "et",
        "ch"
      ],
      [
        "t",
        "retched"
      ],
      [
        "Ġouts",
        "tretched"
      ],
      [
        "ul",
        "ar"
      ],
      [
        "h",
        "eart"
      ],
      [
        "Ġ",
        "ichi"
      ],
      [
        "Ġw",
        "alk"
      ],
      [
        "gl",
        "ass"
      ],
      [
        "h",
        "ero"
      ],
      [
        "l",
        "it"
      ],
      [
        "Ġbl",
        "indfold"
      ],
      [
        "Ġs",
        "ign"
      ],
      [
        "Ġan",
        "g"
      ],
      [
        "b",
        "unny"
      ],
      [
        "braid",
        "s"
      ],
      [
        "Ġr",
        "ough"
      ],
      [
        "Ġtw",
        "in"
      ],
      [
        "Ġgen",
        "der"
      ],
      [
        "res",
        "t"
      ],
      [
        "Ġin",
        "doors"
      ],
      [
        "ee",
        "ch"
      ],
      [
        "ry",
        "ou"
      ],
      [
        "as",
        "ties"
      ],
      [
        "l",
        "or"
      ],
      [
        "Ġs",
        "ub"
      ],
      [
        "p",
        "t"
      ],
      [
        "f",
        "ingers"
      ],
      [
        "cro",
        "ss"
      ],
      [
        "re",
        "c"
      ],
      [
        "om",
        "a"
      ],
      [
        "us",
        "t"
      ],
      [
        "Ġt",
        "ok"
      ],
      [
        "Ġme",
        "g"
      ],
      [
        "Ġonii",
        "chan"
      ],
      [
        "it",
        "ter"
      ],
      [
        "re",
        "w"
      ],
      [
        "Ġs",
        "ai"
      ],
      [
        ".",
        "_"
      ],
      [
        "ishi",
        "ma"
      ],
      [
        "Ġs",
        "he"
      ],
      [
        "f",
        "i"
      ],
      [
        "Ġts",
        "uk"
      ],
      [
        "t",
        "ank"
      ],
      [
        "at",
        "ting"
      ],
      [
        "c",
        "up"
      ],
      [
        "Ġdr",
        "ugs"
      ],
      [
        "c",
        "an"
      ],
      [
        "Ġb",
        "etween"
      ],
      [
        "Ġg",
        "o"
      ],
      [
        "Ġk",
        "aw"
      ],
      [
        "ot",
        "a"
      ],
      [
        "p",
        "lo"
      ],
      [
        "c",
        "ur"
      ],
      [
        "k",
        "ne"
      ],
      [
        "k",
        "y"
      ],
      [
        "c",
        "ardigan"
      ],
      [
        "Ġn",
        "an"
      ],
      [
        "Ġn",
        "ail"
      ],
      [
        "Ġs",
        "y"
      ],
      [
        "af",
        "uku"
      ],
      [
        "Ġsp",
        "orts"
      ],
      [
        "sm",
        "ile"
      ],
      [
        "Ġw",
        "itch"
      ],
      [
        "Ġto",
        "es"
      ],
      [
        "Ġ",
        "O"
      ],
      [
        "Ġhair",
        "band"
      ],
      [
        "Ġor",
        "der"
      ],
      [
        "us",
        "pen"
      ],
      [
        "l",
        "ane"
      ],
      [
        "hi",
        "me"
      ],
      [
        "ĠS",
        "h"
      ],
      [
        "t",
        "ou"
      ],
      [
        "Ġt",
        "ag"
      ],
      [
        "ab",
        "a"
      ],
      [
        "Ġh",
        "ay"
      ],
      [
        "Ġa",
        "z"
      ],
      [
        "Ġout",
        "doors"
      ],
      [
        "tic",
        "al"
      ],
      [
        "d",
        "es"
      ],
      [
        "feren",
        "ce"
      ],
      [
        "n",
        "ose"
      ],
      [
        "Ġtom",
        "boy"
      ],
      [
        "r",
        "ed"
      ],
      [
        "Ġf",
        "rieren"
      ],
      [
        "dd",
        "en"
      ],
      [
        "Ġv",
        "i"
      ],
      [
        "Ġb",
        "is"
      ],
      [
        "neck",
        "erchief"
      ],
      [
        "Ġlo",
        "l"
      ],
      [
        "Ġ",
        "ot"
      ],
      [
        "r",
        "or"
      ],
      [
        "ru",
        "it"
      ],
      [
        "1",
        "0"
      ],
      [
        "Ġfo",
        "x"
      ],
      [
        "f",
        "ly"
      ],
      [
        "Ġn",
        "ight"
      ],
      [
        "Ġpoin",
        "ting"
      ],
      [
        "Ġf",
        "ront"
      ],
      [
        "f",
        "u"
      ],
      [
        "Ġb",
        "at"
      ],
      [
        "d",
        "oll"
      ],
      [
        "ãĥ",
        "©"
      ],
      [
        "Ġpro",
        "ject"
      ],
      [
        "and",
        "y"
      ],
      [
        "ol",
        "i"
      ],
      [
        "Ġn",
        "a"
      ],
      [
        "h",
        "ar"
      ],
      [
        "Ġan",
        "k"
      ],
      [
        "h",
        "an"
      ],
      [
        "c",
        "ock"
      ],
      [
        "Ġc",
        "ape"
      ],
      [
        "el",
        "y"
      ],
      [
        "n",
        "et"
      ],
      [
        "k",
        "ag"
      ],
      [
        "Ġc",
        "or"
      ],
      [
        "Ġbe",
        "ach"
      ],
      [
        "ant",
        "a"
      ],
      [
        "ant",
        "ai"
      ],
      [
        "1",
        "2"
      ],
      [
        "Ġp",
        "regnant"
      ],
      [
        "Ġshin",
        "y"
      ],
      [
        "Ġim",
        "pl"
      ],
      [
        "Ġp",
        "illow"
      ],
      [
        "k",
        "on"
      ],
      [
[...]
